#version: 0.2
á ŀ
á Ł
Ġ áŀ
áŁ Ĵ
áŀ ¶
áŀ ļ
áŀ ĵ
áŀ Ħ
áŀ Ģ
áŀ ı
áŀ ·
áŀ Ľ
áŀ Ļ
áŀ ĺ
áŀ »
áŀ Ł
áŀ Ķ
áŁ ĭ
Ġáŀ Ķ
Ġáŀ ĵ
áŁ ĩ
áŁ Ĩ
Ġáŀ Ģ
áŁ ģ
Ġáŀ ĺ
Ġáŀ Ł
áŀ ¾
áŁ Ħ
Ġáŀ ĳ
Ġáŀ Ĭ
áŀ ¸
Ġáŀ ĸ
Ġ áŁ
áŀ ľ
áŀ ¼
áŀ ħ
áŁ Ĥ
Ġáŀ ¢
áŀ ĳ
Ġáŀ ĩ
áŀ ĸ
Ġáŀ ħ
áŀ Ĥ
Ġáŀ ļ
áŀ ½
áŀ ī
ĠáŁ Ķ
áŁ ħ
áŀ İ
Ġáŀ ı
Ġáŀ Ĥ
áŀ ĩ
áŀ¶ áŁĨ
áŀ Ĭ
áŁĦ áŁĩ
Ġáŀ ģ
áŀ ¹
Ġáŀ Ĳ
Ġáŀ ł
Ġáŀ Ľ
áŀ ģ
áŀ ł
áŀ Ĵ
Ġáŀ Ĺ
áŁģ áŁĩ
Ġáŀ ľ
áŁ ı
áŀ ¢
Ġáŀ Ļ
áŁ ĥ
áŁ ī
Ġáŀ Ĵ
áŀ ¡
Ġáŀ ķ
áŁ Ĳ
áŁ Ģ
áŀ Ĺ
áŁ Ī
áŀĵ áŀĢ
áŀĶ áŀŁ
ĠáŀŁ áŀĺ
ĠáŁ ¡
Ġáŀļ áŀĶáŀŁ
áŀ Ĳ
áŀ» áŁĨ
áŁī áŀ¶
áŀ º
áŀĦ áŀ¡
áŀħ áŀĢ
áŁ į
áŀļ áŀĢ
áŀļ áŀĦ
Ġ (
áŁ Į
Ġáŀ Ĩ
áŀļ áŀŁ
áŁ ł
Ġáŀ ²
áŀ ĭ
áŀļ áŀĶ
Ġ t
áŀ» áŁĩ
áŀļ áŀĸ
Ġ )
i n
Ġ a
Ġáŀ Ī
Ġáŀĺ áŀĢ
ĠáŀĬ áŀĽ
Ġáŀ İ
h e
Ġáŀ ¯
áŀļ áŀĺ
áŀĤ áŀĽ
áŁ Ĭ
Ġáŀ ¡
áŀ¢ áŀĦ
áŀ ķ
Ġáŀ ĥ
ĠáŀĴ áŀĺ
Ġáŀ §
áŀĶ áŀı
áŀ ¿
o n
ĠáŁ¡ áŁ
ĠáŁ Ĺ
e r
áŀļ áŀĳ
áŀļ áŀİ
Ġáŀ ¬
ĠáŀŁ áŀĦ
Ġáŀķ áŀĦ
áŀŁ áŀĵ
áŀľ áŀı
r e
Ġáŀĺ áŀĵ
ĠáŀŁ áŀı
áŀļ áŀł
áŀĩ áŀĵ
ĠáŀĢ áŀĺ
Ġáŀ¢ áŀĦ
ĠáŁ ¢
a n
Ġt he
ĠáŀĶ áŀĦ
áŀĶ áŀĦ
Ġ ]
ĠáŀĶ áŀĵ
áŀ ĥ
áŀļ áŀĩ
áŁī áŀ»
áŀ Į
áŀĺ áŀĢ
Ġáŀħ áŀĺ
e n
áŀĺ áŀİ
Ġ o
a t
ĠáŀĶ áŀī
ĠáŀĶ áŀļ
áŀĤ áŀı
Ġáŀ ¥
áŀĴ áŀĺ
Ġáŀ¢ áŀĵ
ĠáŀĻ áŀĢ
Ġáŀ¯ áŀĦ
i s
áŀĶ áŀĵ
Ġáŀ¢ áŀŁ
Ġ "
Ġ s
áŀ ²
e s
áŀĢ áŀĺ
áŀľ áŀĶ
â Ģ
a r
a l
áŁł áŁł
Ġ c
i t
ĠáŀĶ áŀĸ
áŀ Ĩ
o r
ĠáŁ £
e d
áŀĦ áŀĢ
Ġáŀĳ áŀĳ
áŀļ áŀı
Ġáŀ ±
áŀĦ áŀĵ
áŁĬ áŀ¸
áŀĢ áŀļ
áŀļ áŀ¡
Ġáŀĩ áŀĵ
Ġáŀļ áŀĢ
áŀļáŀĢ áŀĶ
áŀĬ áŀĽ
áŀŁ áŀĺ
Ġ w
ĠáŁ ¤
n d
áŀļ áŀĻ
Ġáŀĺ áŀł
áŀļ áŀĬ
áŀĽ áŀĶ
Ġáŀļ áŀĺ
áŀĻ áŀĢ
Ġ âĢ
Ġo f
Ġ -
Ġáŀ ī
i c
áŀ Ī
Ġ in
áŀħ áŀĺ
ĠáŁ ¥
Ġáŀ§ áŀĶ
© áŁ
Ġáŀļ áŀĬ
Ġ p
Ġ f
áŀħ áŀĩ
Ġ b
áŀı áŀĺ
áŀĶ áŀĳ
ĠáŀĶ áŀİ
áŀļáŀĢáŀĶ áŀĬ
ĠáŀĢ áŀĵ
áŀĢ áŀĬ
in g
áŀ ¯
Ġa nd
áŀ¢ áŀŁ
Ġ d
áŀļ áŀħ
áŁ ¡
o u
e l
Ġáŀħ áŀĦ
à ¸
áŀĺ áŀĵ
Ġáŀľ áŀı
áŀĦ áŀĳ
áŀŁ áŀĦ
i on
áŀı áŀ¡
a s
Ġ m
áŀĤ áŀļ
i l
áŀĻ áŀŁ
áŀĽ áŀĦ
ĠáŀŁ áŀĵ
áŀŁ áŀĽ
r o
áŀĦ áŀ¢áŀŁ
áŀĺ áŀı
áŀ· áŁĩ
Ġ ,
áŁ ¥
áŀĻ áŀĵ
áŀı áŀĵ
Ġáŀ¢ áŀı
Ġ C
áŁ İ
áŀŁ áŀı
ĠáŀĤ áŀĶ
áŀļ áŀĽ
Ġáŀĸ áŀī
áŁ ¢
Ġt o
Ġáŀ¢ áŀī
áŀļ áŀľ
en t
ĠáŁ¡áŁ ©áŁ
Ġ l
áŀĦ áŀı
Ġ S
Ġáŀ Ħ
Ġáŀķ áŀĽ
áŀľ áŀĢ
áŁ £
áŀ¯ áŀĦ
áŀĽ áŀĳ
áŁ ¤
Ġ 1
áŀı áŀĳ
áŀĵ áŀĵ
áŀ¢ áŀī
ĠáŀĶ áŀħ
Ġ T
áŁ ¨
Ġ h
áŀĢ áŀŁ
ĠáŁ §
áŀĦ áŀĸ
ĠáŁ ¨
áŁ ¦
e v
a c
áŀĤ áŀĺ
ĠáŁ ¦
ĠáŀĤ áŀĦ
áŀħ áŀĵ
Ġáŀļ áŀŁ
áŀĺ áŀł
áŀĸ áŀĽ
o m
áŀ¢ áŀļ
áŁ §
áŀļ áŀĴ
a m
e c
ĠáŀŁ áŀĸ
áŁİ áŁĩ
áŀ» áŁİáŁĩ
áŀĢ áŀĽ
u s
áŀĵáŀĢ áŀĶ
Ġáŀĸ áŀĽ
Ġ A
ĠáŀĬ áŀĳ
Ġ [
áŀĢ áŀĤ
áŀĵ áŀĩ
áŀĶ áŀħ
Ġ Â
ĠáŀŁáŀĺ áŀİ
áŀĳ áŀĵ
áŀĸ áŀŁ
o l
ĠáŀĽ áŀĢ
áŀļ áŀĹ
Ġáŀĸ áŀĵ
áŀĦ áŀĽ
ĠáŀŁ áŀĹ
e t
Ġáŀļ áŀł
ĠáŀĻ áŀĽ
áŀŁ áŀļ
ĠáŀŁ áŀī
áŀļ áŀ¢
Ġáŀħ áŀĢ
áŀĢ áŀ¢áŀļ
Ġ M
áŀĢ áŀĵ
áŀĸ áŀĦ
áŀı áŀĶ
ĠáŀĢ áŀİ
áŀħ áŀĶ
áŀľ áŀĵ
áŀİ áŀı
ĠáŀĢ áŀĦáŀĳ
Ġ re
ĠáŀŁ áŀł
o c
o s
áŀĻ áŀĽ
áŀľ áŀļ
Ġáŀ ĭ
Ġ n
Ġáŀĵ áŀĤáŀļ
Ġt h
Ġáŀļ áŀĽ
Ġáŀ¢ áŀļ
Ġáŀĳ áŀĵ
Ġáŀ¥ áŀı
ĠáŀŁ áŀĢ
l e
áŀĦ áŀİ
áŀĻ áŀĺ
Ġáŀ ®
Ġ R
áŀĵ áŀ¯áŀĦ
áŀĵ áŀĬ
áŀĵ áŀĶ
áŀĵ áŀĦ
áŀļ áŀĤ
Ġ B
Ġ E
áŀĶ áŀļ
áŁ ©
áŀľ áŀĦ
Ġáŀ¢ áŀĹ
Ġ 2
áŀĦ áŀĶ
Ġáŀ¢ áŀĢ
áŀĦ áŀĺ
u r
Ġ .
áŀģ áŀİ
u l
Ġáŀı áŀĺ
áŀĢ áŀı
Ġ P
ĠáŀĤ áŀİ
áŀĵáŀĢ áŀŁ
áŀĢ áŀī
ĠâĢ ¦
ĠáŀĶ áŀĳ
ĠáŁ¡ áŁł
i d
áŀļáŀ¡ áŀĶ
i g
ev el
i r
áŁĬ áŀ»
ĠáŀŁ áŀļáŀŁ
áŀİ áŀĦ
áŀķ áŀĽ
Ġ :
Ġ is
áŀĽ áŀĢ
Ġáŀļ áŀĦ
Ġ ?
i m
ĠáŀĬ áŀĦ
áŀĢ áŀħ
áŀĻ áŀĶ
áŀĽ áŀĵ
Ġáŀ§ áŀĳ
o t
a d
Ġ !
Ġáŀĳ áŀŁ
at ion
ĠáŀĶ áŀĬ
l y
áŀŁ áŀħ
áŀĦ áŀļ
áŀĶ áŀī
Ġ g
i v
Ġ e
Ġáŀļ áŀĶ
Ġáŀļ áŀĻ
Ġ D
a g
áŁī áŀ¼
áŁī áŁĤ
Ġ H
ĠáŀĢ áŀĦ
o w
áŀ ±
Ġ I
áŀĢ áŀĶ
u t
áŀĩ áŀĢ
ĠáŀĢ áŀŁ
L evel
ĠâĢ ľ
Ġ F
áŁ ĸ
c h
áŀ §
Ġf or
áŀĭ áŀĢ
Ġáŀ¢ áŀĺ
áŀŁ áŀľ
áŀŁ áŀĢ
c e
áŀĢ áŀļáŀİ
áŀļ áŀľáŀı
áŀĸ áŀı
o d
Ġáŀļ áŀı
ĠáŁ¢ áŁł
áŀļ áŀļ
áŀĶ áŀļáŀĺ
0 0
áŀĵáŀĢ áŀĬ
áŀĻ áŀĩ
áŀļ áŀķ
e m
áŀĶ áŀĢ
u n
s t
Ġáŀĸ áŀİ
is t
Ġáŀ¢ áŀĤ
a y
ĠâĢ Ŀ
áŁĬ áŀ¼
Ġáŀ¢ áŀĴ
áŀļáŀĺ áŀĳ
áŀħ áŀļ
Ġáŀĩáŀĵ áŀĩ
Ġáŀ§ áŀı
áŀĺ áŀĳ
áŀı áŀİ
áŀĽ áŀĸ
áŀľ áŀĽ
ĠáŀĶ áŀĢ
áŀī áŀı
ĠáŀĤ áŀĺ
u m
Ġ G
Ġáŀ¢ áŀĶ
Ġc on
áŀŁ áŀĸ
Ġ L
áŀı áŀļ
< /
Ġáŀ £
Ġa s
Ġáŀģ áŀİ
ĠáŁ¡áŁ ¥
Ġ on
Ġb e
Ġ K
áŀĦ áŀĩ
er s
Ġáŀ¥ áŀ¡
áŀĻ áŀħ
Ġáŀ§ áŀĢáŀī
áŀĻ áŀĺáŀĢ
ĠáŀŁ áŀĶ
áŀı áŀĬáŀĽ
áŀļ áŀĵ
ĠáŀĺáŀĢ áŀĸ
Ġáŀļ áŀľ
ĠáŀĤ áŀı
ĠáŁ¡áŁ ¨
áŀı áŀĦ
áŀı áŀĽ
t er
áŀĦ áŀģ
áŀĺ áŀľ
r a
ĠáŀķáŀĦ áŀĬ
ĠÂ «
Ġ v
ĠáŀĹ áŀĸ
d oc
Ġ N
ĠáŁ¢ áŁłáŁł
it h
Ġáŀĺ áŀĤ
Ġáŀ «
Ġa re
ĠáŀĺáŀĢ áŀĬáŀĽ
ĠáŁ¡áŁ ¢
áŀŁ áŀĶ
_ _
ec t
ĠáŁ ĸ
áŀĶ áŀĶáŀĦ
an g
Ġ W
t h
ĠÂ »
Ġs t
áŁī áŁģ
áŀļáŀł áŀĺ
Ġáŀĩ áŀĺ
o p
áŀ į
áŀĽ áŀĺáŀĢ
áŀĺ áŀĺ
áŀĦ áŀļáŀĢ
áŀł áŀĶáŀı
Ġ1 9
áŀĻ áŀĶáŀĦ
he r
áŀĦ áŀħ
áŀĴ áŀŁ
Ġáŀľ áŀĦ
áŁī áŀ¶áŁĨ
áŀĳ áŀĦ
áŁī áŀº
Ġáŀ¥ áŀİ
áŀĽ áŀļ
Ġáŀ¯ áŀİ
Ġa l
Ġw ith
Ġp ro
áŀ¢ áŀĵ
ĠT he
i f
Ġo r
áŀĺ áŀĩ
a v
Ġáŀ¯ áŀĢ
u d
áŀı áŀĢ
an d
Ġth at
ĠáŀŁ áŀĳ
áŀĺ áŀļ
ĠáŀŁáŀı áŀľáŀı
áŀľ áŀĩ
áŀľ áŀĹ
áŀı áŀĲ
Ġa n
áŀı áŀĹ
Ġw as
áŀĤ áŀĢ
áŀĳ áŀĶ
áŀļáŀĶ áŀĦ
Ġáŀ ª
áŀĵ áŀŁ
áŀļáŀĸ áŀĵ
ĠáŀĽ áŀĳ
áŀļ áŀĨ
Ġáŀĸ áŀĦ
Ġáŀı áŀİ
áŀĵáŀĢáŀĬ áŀĳ
ĠáŀĤ áŀłáŀĶáŀı
áŀľ áŀĮ
Ġáŀħ áŀļ
áŀĩ áŀĴ
i a
à ¹
áŁłáŁł áŁł
áŀħ áŀł
Ġáŀħ áŀĵ
es t
Ġb y
Ġáŀĵ áŀĻ
áŀŁ áŀĳ
áŀĽ áŀĬ
Ġw h
áŀŁ áŀī
ĠáŁ¡áŁ ¡
Ġáŀı áŀĲ
Ġáŀ¢ áŀİ
ĠáŀĻ áŀĶ
áŀĽ áŀİ
áŀ· áŁį
o v
áŀļáŀł áŀĵ
ac e
ĠáŀĢ áŀĶ
ĠáŁ ©
áŀĺ áŀŁ
ĠáŀŁ áŀļ
Ġáŀĺ áŀļáŀİ
áŁĬ áŀ¶
ĠE v
áŀĦ áŀŁ
áŀħ áŀĤ
ĠáŀĴ áŀĵ
Ġáŀ¢ áŀľ
áŀļ áŀī
áŀŁ áŀĹ
ĠáŁ¡áŁ ¤
áŀı áŀı
áŀħ áŀı
áŀĻ áŀĸ
ĠáŀĶ áŀĭ
Ġáŀĳ áŀĺ
Ġc om
i es
áŀĴ áŀĵ
an t
u c
áŀĤ áŀĺáŀĵ
a b
r y
Ġáŀ¥ áŀŁ
áŀĺ áŀĶ
ĠEv il
q u
áŀĺ áŀĤ
Ġd e
áŁĬ áŁĴ
Ġáŀľ áŀĶ
ĠáŁ¡áŁ ¦
- -
áŀĬ áŀĦ
áŀī áŀħ
it y
áŀĢ áŀĢ
Ġ '
Ġ V
áŀŁ áŀĩ
il l
áŀĺ áŀļáŀĻ
Ġáŀı áŀĳ
0 1
áŀĶ áŀĴáŀĺ
áŀĽ áŀı
Ġ J
re s
áŀĤ áŀĦ
a in
ĠáŀĪ áŀļ
áŀł áŀĵ
áŀĸ áŀĵ
áŀ»áŁĨ áŀ¶
áŀļáŀĹ áŀĸ
áŀĵáŀĢ áŀİ
e g
es s
ĠáŀĶ áŀĺ
a k
Ġáŀ¥ áŀĳ
Ġáŀ¥ áŀĵ
ig h
en d
áŀ¶ áŁĴ
ĠáŁ¡áŁ £
áŀĶ áŀĩ
Ġáŀħ áŀĶ
áŀł áŀĢ
on g
áŀĻ áŀľ
áŀļáŀŁ áŀĺ
áŀĭ áŀĶ
Ġáŀª áŀĸ
. .
Ġ =
áŀĻ áŀĬ
áŀĻ áŀıáŀĵ
áŁĮ áŁĴ
áŀĶ áŀĲ
ĠáŀļáŀĽ áŀı
áŀĻ áŀĳ
áŀĹ áŀĸáŀĽ
ĠáŁ¢áŁł áŁ¡
i al
áŀĺ áŀĸ
áŀĩ áŀľáŀĦ
áŁ ©áŁ
r an
ar y
ro m
ĠáŁ¡ áŁłáŁł
a p
áŀĶ áŀİ
ĠáŁ¡áŁ©áŁ §
m ent
Ġáŀľ áŀĤ
ĠC ar
Ġáŀ¢ áŀĬ
ĠC h
áŀĵáŀĢ áŀħ
o re
áŀļ áŀĲ
áŀĽ áŀħ
áŀĴ áŀı
Ġ 3
ĠáŀĢ áŀı
áŀĭ áŀĺáŀĵ
r i
áŀļáŀĽ áŀı
ĠáŁ¡áŁ §
or t
Ġ it
Ġ he
áŀķ áŀĦ
áŀĢ áŀĳ
áŀļáŀĶ áŀļ
Ġáŀ Į
' s
áŀŁ áŀĺáŀİ
ic h
l d
s e
ĠáŀĪ áŀĶ
o g
at e
áŀı áŀļáŀĩ
ic al
ĠáŀĺáŀĢ áŀĢ
áŀĦ áŀľ
áŀĺ áŀħ
áŀĺáŀĵ áŀŁ
áŀĵáŀĢ áŀĵ
áŀ ¥
Ġ r
Ġe x
u re
áŀĶ áŀĬ
Ġ O
Ġa t
áŀĸ áŀī
áŀĵáŀĢ áŀĢ
áŀĢ áŀĻ
ĠáŀĹ áŀļ
Ġáŀļ áŀĲ
áŀĤ áŀĵ
áŀĮ áŀĶ
ĠáŀĢ áŀī
áŀİ áŀĸ
áŁī áŁĦ
áŀ «
os t
ĠáŁ ©áŁ
ĠáŀĬ áŀĢ
áŀĵ áŀı
ĠáŀĤ áŀĵ
áŀĻ áŀĴáŀĺ
ĠáŀŁ áŀİ
iv e
ou n
ou r
áŀļ áŀ²
áŀĸáŀĽ áŀļáŀĬ
Ġ y
áŀĵ áŀ¢
Ġáŀħ áŀı
áŀĮ áŀĽ
Ġáŀĩ áŀĶ
Ġs u
ar t
áŁī áŁĩ
Ġáŀ± áŀĢ
ĠR ace
áŀĵ áŀ¡
Ġf rom
áŀĶáŀŁ áŀĺ
Ġ U
ĠáŀĬ áŀİ
el l
áŀĴ áŀļ
áŀ £
áŀĽ áŀĩ
i an
Ġáŀľ áŀİ
Ġáŀ¢ áŀħ
ĠáŀĢ áŀļáŀİ
Ġáŀľ áŀŁ
ĠáŀŁ áŀĢáŀĺ
p p
áŀĺ áŀĦ
ĠáŁ¢ áŁ¥
p t
áŀı áŀŁ
Ġáŀģ áŀĵ
Ġáŀ¯ áŀĢáŀŁ
áŀĢ áŀĸ
ar d
ĠáŀļáŀĶ áŀĶ
ĠáŀĲ áŀĻ
al l
Ġáŀĳ áŀĦ
áŀĺ áŀĹ
áŀ¹ áŁĩ
áŁģ áŁĴ
Ġs p
Ġáŀ§áŀĶ áŀĺ
áŁĮ áŀ¶
) ,
ĠáŀĶáŀĭ áŀĺ
Ġ us
Ġáŀĺ áŀİ
ag e
Ġ k
p er
ĠáŀĺáŀĢ áŀľ
áŀĻ áŀŁáŀĺ
ĠáŀĬ áŀĬ
at ed
igh t
áŀĢ áŀİ
ĠáŀĢ áŀļ
áŀľ áŀķ
ou s
áŀĲ áŀĻ
áŀĪ áŀĦ
Ġ2 01
Ġáŀĺ áŀĩ
ĠáŁ ł
Ġáŀĩ áŀĢ
Ġc h
áŀħ áŀŁ
ĠI n
e w
ion s
__ __
Ġáŀĵ áŀļáŀĢ
áŀĽ áŀľ
it e
Ġáŀĸ áŀĸ
áŀĺ áŀī
áŀļ áŀģ
in e
áŀģ áŀĵ
Ġ[ [
Ġáŀ« áŀŁ
áŀĶ áŀĽ
Ġcon t
áŀĬ áŀĢ
Ġ. ..
áŀľ áŀĤ
áŀ« áŀĳ
Ġ %
áŀī áŀĳ
re n
Ġáŀĩ áŀļ
ĠáŀŁ áŀħ
ĠáŁ£ áŁł
áŀį áŀĵ
Ġn ot
Ġ /
as t
ĠáŀŁáŀĺ áŀı
ĠáŀĻáŀĢ áŀĺáŀĢ
ĠáŀĶ áŀŁ
h a
ĠáŀĤáŀİ áŀĶáŀĢ
áŀĵ áŀĸ
T he
ĠáŁ¢ áŁ¤
áŀĵáŀĢ áŀı
áŀĻ áŀĤ
Ġfor m
áŀĶ áŀĹ
Ġáŀļ áŀĩ
ĠáŀŁáŀł áŀļáŀĬ
Ġin c
ig n
g h
áŀļáŀĸ áŀı
áŀ§ áŀĳ
av e
f f
Ġáŀ¥ áŀļ
Ġáŀ¢ áŀļáŀłáŀĵ
áŀĩ áŀĢáŀĺ
ĠáŀļáŀĢ áŀĥ
ĠáŁ¡áŁ©áŁ ©áŁ
áŀ¶ áŁĸ
Ġáŀļ áŀĵ
áŀĽ áŀĥ
Ġáŀħ áŀĽáŀĵ
er e
i b
Ġáŀĩ áŀī
Ġ] ]
áŀĵ áŀļ
Ġáŀĺ áŀĴ
áŀĢáŀĽ áŀľ
ĠáŀĶ áŀļáŀĳ
áŀĵáŀĢ áŀĴ
áŀ· áŁĴ
áŀĽ áŀŁ
áŀĻ áŀī
áŀļ áŀĤáŀĽ
áŀļáŀĺ áŀĸ
Ġa r
Ġw or
áŀĢ áŀĴ
Ġc an
áŀı áŀĩ
áŀĤ áŀĩ
ĠáŀŁ áŀŁ
Ġwh ich
i k
áŀĢ áŀĹ
c t
Ġh is
áŀļ áŀĪ
áŀı áŀģ
p h
Ġáŀ Ŀ
áŀĻ áŀĢáŀĺ
áŀģ áŀľ
u b
ĠáŀĶ áŀļáŀĺ
áŀĢ áŀľ
t her
ĠáŀĶáŀĦ áŀĶ
Ġáŀ§ áŀŁ
áŀħ áŀħ
Ġáŀ¯ áŀĢáŀļ
à¸ ²
m er
áŁĨ áŀ¶
áŀĵáŀĢ áŀĺ
p l
ĠáŀĬ áŀļ
ĠáŀĨ áŀĵ
er n
áŁĬ áŀ·
Ġáŀĩáŀĵ áŀĶáŀĳ
ĠáŀĢ áŀĢ
Ġd is
áŀı áŀķáŀĽ
áŀĻ áŀĹ
Ġáŀķ áŀŁ
áŀĺ áŀĪ
Ġáŀ¯ áŀĳ
s o
áŀļáŀ¢ áŀĹ
Ġ 4
Ġáŀ§ áŀĶáŀŁáŀĺ
ĠáŁ¥ áŁłáŁł
Ġ 5
Ġáŀł áŀĦ
Ġáŀľ áŀħ
ul t
ou gh
a us
om e
áŀĲ áŀĶáŀĳ
áŀĵ áŀĤáŀļ
áŀĻ áŀı
ĠáŁ¡áŁ ©
áŀĺ áŀ²
i re
áŀī áŀĺáŀĢ
Ġáŀľ áŀļ
ĠT h
g e
áŁĤ áŁĴ
áŀĶ áŀĴ
áŀļáŀİ áŀļáŀĬ
ĠáŁ¡áŁ©áŁ ¦
áŀĴ áŀķáŀĽ
Ġáŀļ áŀħáŀĵ
Ġáŀ§áŀĶ áŀĢáŀļáŀİ
b er
áŀĸ áŀļ
ĠáŁ¢ áŁ¡
áŀ¢ áŀļáŀłáŀĵ
i z
ĠáŀĻ áŀıáŀĵ
Ġw ere
p e
Ġáŀı áŀĶ
áŀŁ áŀĲ
Ġh ave
Ġáŀĵ áŀļáŀİ
áŀĢ áŀ¡
áŀĶ áŀĶ
Ġs e
ou nd
áŀı áŀħ
Ġáŀĸ áŀı
c c
áŀļáŀł áŀı
Ġáŀĸ áŀŁ
Ġáŀĳ áŀĽ
áŀı áŀĺáŀĢ
at er
o y
áŀľ áŀİ
Ġáŀļ áŀİ
r it
Ã ©
áŀĵ áŀĹ
ĠáŀŁáŀł áŀĤáŀĺáŀĵ
áŀĵáŀĢ áŀ¯áŀĦ
Ġ un
áŀļáŀł áŀŁ
id e
áŀĴ áŀĹ
áŀĩ áŀŁ
k s
Ġáŀł áŀı
Ġal l
ang u
áŀĢ áŀĩ
ĠáŀĻ áŀŁ
ĠáŁ¡áŁ©áŁ ¤
e ar
is m
Ġáŀ§áŀĶ áŀĢ
à¸² à¸
ic e
ĠS t
ĠáŀĶ áŀı
Ġáŀĺ áŀĦ
ĠáŀĶ áŀĶ
as s
áŀĵáŀĢ áŀĳ
ev er
d s
áŀļ áŀļáŀĽáŀı
áŀĽ áŀĻáŀĢ
us t
áŀ¾ áŁĴ
Ġáŀ« áŀĳ
áŀĵáŀĢ áŀĩ
Ġ2 00
re e
ĠáŁ¡áŁ©áŁ ¥
áŀ Ŀ
Ġin t
áŀł áŀļáŀİ
áŀĻ áŀļ
áŀŁáŀħ áŀļáŀİ
n ow
áŀĦ áŀŁáŀĦ
áŀĺáŀĢ áŀļ
áŀħ áŀĦ
áŀļ áŀĥ
áŀĽ áŀĤ
áŀŁ áŀļáŀŁ
ĠáŁ¢ áŁ£
he n
ĠâĢ¦ )
Ġáŀ¢ áŀĳ
Ġl angu
áŀı áŀĸ
Ġáŀļ áŀıáŀĵ
Ġáŀı áŀĵ
ĠáŀĲ áŀı
ul a
u e
áŀĦ áŀ¢
en ce
áŀĦ áŀĦ
áŀĲ áŀĹ
i e
uc t
Ġ u
áŁī áŁĴ
ac t
Ġáŀ¢ áŀĻ
áŀļáŀŁ áŀĦ
áŀĶ áŀĸ
ĠáŁ¢ áŁ¢
áŀģ áŀĹ
as e
al ly
ĠáŁ ķ
Ġ 6
áŀĤ áŀİ
i p
Ġ im
ĠáŀĢ áŀĽ
on e
Ġáŀļ áŀĳ
Ġs h
Ġ1 8
áŀļáŀ¢ áŀĵ
áŀģ áŀı
áŀł áŀĶ
Ġ en
Ġáŀĳ áŀĶ
e p
ĠáŀĹ áŀĢ
áŁĬ áŁĤ
is h
áŀĸ áŀĻáŀĵ
ĠáŀĳáŀŁ áŀľáŀı
áŀļáŀ¢ áŀĶ
áŀĳ áŀĺ
ĠáŀĤ áŀĽ
áŀĻ áŀ¡
Ġal so
áŀľ áŀĬ
âĢ Ŀ
ĠáŁ¥ áŁł
o k
Ġáŀģ áŀı
áŀļ áŀ¢áŀĦ
áŀĽ áŀł
ĠK h
Ġáŀĵ áŀļ
i et
ĠáŀĽ áŀĦ
áŀı áŀķáŀĦ
Ġs y
áŀļáŀĳ áŀĳ
ou t
ĠáŀĦ áŀĦ
áŀĶ áŀĢáŀĺ
re at
Ġre s
áŀı áŀľ
áŀ¥ áŀĵ
áŀĩ áŀŁáŀĺ
Ġ 7
áŀĻ áŀıáŀĶ
áŀĽ áŀĦáŀĢ
áŀľ áŀĩáŀĵ
Ġth is
Ġc l
Ġd ry
áŀĵ áŀĽ
ĠáŀĹ áŀı
l ud
or d
ĠáŁ¡áŁ©áŁ ¨
Ġw e
ĠáŁ¤ áŁł
Ġáŀĵ áŀĤ
ren ch
) .
áŀİ áŀľ
áŀĩ áŀĶ
ac h
áŀł áŀļ
on d
á »
áŀ Ń
Ġáŀĸ áŀł
ou ld
an y
áŀħ áŀģ
Ġa d
áŀĽ áŀĦáŀĳ
Ġp l
ĠáŀŁáŀł áŀĹ
am b
ĠáŀŁáŀĦ áŀģ
áŀļáŀĻ áŀĽ
Ġ Y
áŀī áŀĽ
áŀĵáŀĢ áŀĤ
áŀĲ áŀĵ
áŀĭ áŀŁáŀĹ
res s
áŀł áŀı
ac k
am e
áŀĽ áŀ²
ation s
áŀĬ áŀĺ
ud d
n g
áŀī áŀĸ
f er
Ġáŀĳ áŀı
áŀļáŀĳ áŀŁ
áŀĢ áŀĦ
or m
Ġcom m
e x
Ġh as
áŀĵáŀĢ áŀķáŀĦ
áŀı áŀĢáŀĺ
áŀĬ áŀĳ
áŀĢ áŀĥ
in d
áŀ¢ áŀĶ
er m
or y
áŀŁ áŀŁáŀĽ
Ġf e
áŀĶ áŀľ
áŀ¢ áŀĢ
r am
ĠáŀĬ áŀĶ
áŀ¸ áŁĴ
Ġáŀı áŀŁ
áŀĻáŀŁ áŀħ
ol l
Ġo ther
áŀĳ áŀĢ
E l
ĠF rench
áŀĲ áŀĢ
v er
ĠáŀĺáŀĢ áŀł
en s
à¸ Ļ
ter n
Ġáŀķ áŀĽáŀĶ
Ġp r
ĠF ran
áŀ¢ áŀĽ
áŀļáŀĶ áŀī
it ion
ation al
oun t
ĠáŁ¢ áŁ¦
Ġcon s
Ġinc lud
áŀŁ áŀĤ
ra in
ĠáŀĻ áŀĵ
áŀĹ áŀĢ
Ġa g
áŀĩ áŀĺ
re d
Ġcom p
o od
Ġáŀĺ áŀı
áŀļ áŀĽáŀĶ
el y
ĠU n
áŀľ áŀŁ
ĠáŁ£ áŁ¡
áŀ§ áŀĶ
áŀŃ áŀĢ
Ġa b
ĠáŀļáŀĲ áŀĻáŀĵ
Ġm ay
Ġin f
eg end
is s
ĠáŁ¢ áŁ¨
áŀļáŀķ áŀĦ
áŀħ áŀĶáŀĵ
l l
Ġáŀĳ áŀĢ
Ġáŀĵ áŀĵ
ĠâĢ Ķ
Ġform ula
Ġp h
ĠáŁ¢ áŁ§
ĠáŁ£ áŁ¢
áŁī áŀ·
ĠEvil L
âĢ ¢
Ġb ec
áŀĽ áŀĹ
ĠáŀĶ áŀĽ
áŀħ áŀķ
Ġáŀ¢ áŀļáŀłáŀı
at es
áŀł áŀŁ
áŀĳ áŀı
-- --
áŁī áŁĥ
Ġáŀı áŀı
áŀĵáŀĢ áŀĽ
am p
ĠáŀĴáŀĵ áŀĴ
áŀĳ áŀŁ
áŀĽ áŀĺ
áŀĸ áŀĢ
a il
Ġ 8
egend ary
r ic
áŀģ áŀĺ
áŀı áŀĶáŀĵ
ĠEvil El
áŀľ áŀĢáŀĺ
Ġthe ir
ĠEvilL egendary
ĠEvilEl ite
áŀĵ áŀħ
Ġáŀı áŀĢ
____ ____
Ġb ut
áŀŁ áŀģ
áŀŁ áŀĴáŀĺ
áŀİ áŀĢ
Ġáŀ¢ áŀĸ
ent s
im e
Ġp art
áŀļáŀĢáŀĶ áŀļ
ĠáŀŁ áŀĽ
Ġt r
Ġd es
ĠáŀĢáŀĦ áŀĢáŀĺ
Ġp er
áŀĦ áŀĨ
ĠáŀŁáŀĺ áŀĤ
oun g
Ġf l
Ġáŀĺáŀļáŀİ áŀĢ
ĠáŁ¡áŁłáŁł áŁłáŁł
an s
áŀľ áŀħ
áŀĢáŀĬ áŀĦ
áŀ§ áŀı
áŀļ áŀļáŀĢ
áŀĭ áŀĴáŀĺ
ĠáŀĬ áŀĺ
Ġm ost
Ġh ad
ab le
áŀĢ áŀ¯
áŀļáŀĺ áŀĢ
áŁĬ áŀ¾
ĠA n
ol og
áŀĵ áŀĳ
à¸ ģ
áŁī áŀ¸
y s
Ġ1 4
ĠáŀĻáŀĢ áŀħ
Ġ el
áŀĵáŀĢáŀĶ áŀļ
áŀļáŀĶ áŀĵ
áŀļáŀĶ áŀĬ
ov e
p ort
a h
áŀļ áŀ¢áŀŁ
ĠA s
ir st
es e
Ġ- ----
Ġon e
áŀĦ áŀĤ
l es
Ġm e
ĠI t
áŀıáŀĺáŀĢ áŀĬáŀĽ
ĠáŀĸáŀĽ áŀļáŀĬ
áŀ °
áŀĽ áŀģ
áŀŁ áŀİ
áŀĦ áŀķ
áŀ¢ áŀĴ
Ġáŀ¢áŀŁ áŀĶ
ĠáŀĬ áŀĢáŀĬáŀĦ
áŀĳ áŀļ
áŀł áŀĢáŀĺ
00 0
Ġ qu
at h
Ġc ent
os e
áŀĬ áŀļ
l ic
Ġthe y
ĠáŀĹ áŀŁ
ing s
I n
Ġ 9
áŀĪ áŀĺáŀİ
áŀĺ áŀĬ
áŀŁáŀħ áŀļ
áŁ Ķ
Ġ j
Ġa pp
áŀĦ áŀł
à¸ £
áŀģ áŀĩ
Ġl e
ĠáŁ¦ áŁł
ĠB udd
ur ing
Ġit s
5 0
Ġáŀ± áŀĵ
áŀļáŀŁ áŀļáŀŁ
b r
áŀĢ áŀħáŀĺ
ĠáŁ£ áŁ¥
áŀľ áŀļáŀİ
Ġáŀ¢ áŀĩ
áŀĤ áŀĹ
i ous
ar k
Ġ <
il e
ĠP h
n e
áŀ¥ áŀŁ
en c
o b
áŁłáŁł áŁłáŁł
Ġy ou
Ġsu ch
w e
áŀĺ áŀĽ
t s
áŀħ áŀī
l er
áŀ¢ áŀı
Ġ1 0
ĠáŀŁ áŀĢáŀļ
ul ar
Ġus ed
Ġ >
" ,
Ġp re
ĠáŀĻ áŀĺáŀļ
or s
ag es
áŀĶáŀĩ áŀī
1 9
ĠáŀĤ áŀļ
áŀĩ áŀĽ
áŀĵ áŀĴ
áŀĢ áŀł
er v
Ġs o
ff ect
áŀĺ áŀħáŀļ
áŀĬ áŀĵ
áŀ¶ áŁĪ
áŀĲ áŀĺ
Ġáŀļ áŀŃáŀĢ
áŁĬ áŀº
áŀŁáŀĵ áŀľ
t e
áŀŁ áŀĴ
áŀĳ áŀĽ
he d
Ġp e
áŀħ áŀļáŀİ
Ġ? "
ad e
áŀħ áŀĸ
áŀİ áŀĵ
on s
áŀĢáŀĬ áŀĩ
amb od
ĠáŀŁ áŀĢáŀĽ
Ġbe en
ran s
Ġlangu age
ĠáŁ£ áŁ£
áŀĦ áŀħáŀĢ
Ġáŀĺ áŀħ
áŀļáŀĽ áŀĢ
an ce
] ]
áŀł áŀ«áŀĳ
áŀĲ áŀĽ
áŀĪ áŀĶ
à¹ Ģ
i ed
áŀģ áŀĦ
áŀİ áŀĴáŀĺ
f ter
Ġ ev
Ġb ir
áŁĥ áŁĴ
áŀĵáŀĢ áŀľ
áŀļáŀŁ áŀĸ
ĠáŁ¡áŁ©áŁ ¢
áŀĢ áŀıáŀĺ
Ġf irst
áŀĵ áŀī
áŀī áŀĬ
áŀļáŀĢ áŀŁ
Ġm ore
ro l
a i
áŀĤ áŀŁ
áŀĻáŀĺ áŀĤ
4 5
ĠH e
ay s
áŁī áŀ¹
Ġáŀ± áŀĶ
Ġl a
áŀļáŀŁ áŀĵ
âĢ ¦
Ġk now
Ġ X
Ġ ro
al ity
ic s
âĢ ĵ
Ġc aus
Ġre g
Ġint o
f t
à¸ Ń
Ġáŀł áŀ«áŀĳ
ĠFran ce
Ġo cc
nd er
áŀĽáŀĵ áŀĻ
áŀı áŀ¢
an n
ĠáŁ¨ áŁł
Ġáŀľ áŀĺ
ic k
ĠáŁ¡áŁ©áŁ £
à¹ Ī
áŀı áŀī
áŀĺ áŀĥ
áŀī áŀĦ
áŁī áŁħ
Ġpro d
ĠáŀĹ áŀĳ
áŀĩ áŀĤ
Ġáŀ± áŀĦ
Ġ- -
áŀļáŀľ áŀĽ
c i
áŀĢ áŀģ
áŀĸ áŀİ
en er
r on
áŀĽáŀĶ áŀļ
un g
à º
1 0
Ġs ign
ĠáŀĤ áŀĹ
áŀĨ áŀľ
Ġe m
Ġáŀ¯áŀĢ áŀĩáŀĵ
áŀļ áŀļáŀĽ
áŁĬ áŁĦ
áŀĸ áŀĬ
il d
áŀħ áŀıáŀĳ
Ġre l
Ġáŀ§áŀĶ áŀļ
ce pt
áŀĺ áŀĶáŀī
áŀĶ áŀĺ
áŀĵ áŀģ
áŀĽ áŀĴáŀĺ
he re
áŀķ áŀŁ
Ġthe re
ro w
áŀĻáŀľ áŀĺ
Ġo ut
Ġáŀ§áŀĶ áŀħ
a re
áŀĩ áŀī
ĠA r
áŀĽ áŀĶáŀĦ
Ġáŀı áŀĺáŀĢ
Ġt w
áŀļáŀ¡ áŀĦ
ĠáŁ¢áŁłáŁ¡ áŁ¨
áŀĪ áŀļ
r ough
er y
er ed
it ed
op h
c ess
u g
Ġo ver
Ġl ar
Ġ201 3
áŀļáŀĦ áŀļ
áŀĨ áŀı
Ġth an
ĠáŀĤáŀİ áŀĵ
if ic
áŀĽáŀĦ áŀĺáŀĢ
Ġdry ing
2 0
áŀı áŀ²
áŀĹ áŀĸ
áŀ£ áŀĦ
e ase
áŀĻ áŀİ
Ġáŀ§ áŀĶáŀĵ
áŀĻ áŀģ
áŀĺ áŀĸáŀĽ
Ġre c
áŀī áŀľáŀı
ĠáŀĹ áŀľ
Ġ3 1
Ġw ill
Ġd if
Ġin d
áŀļáŀĳ áŀĽ
Ġ2 0
Ġg r
ĠD r
a z
áŀħ áŀĴáŀĺ
áŀĤ áŀĶ
áŀĵáŀĢ áŀļ
Ġ19 9
ov ern
áŀĢáŀĩ áŀī
t en
áŀĤ áŀľ
áŀİ áŀĹ
h n
áŀļáŀħ áŀĵ
Ġs ome
ĠC ambod
u p
Ġt rans
Ġm any
ur y
Ġáŀĺ áŀŁ
Ġw hen
Ġáŀī áŀī
Ġáŀ¢áŀħ áŀĽáŀĵ
oy al
Ġ Z
áŁ ĳ
áŀļ áŀ°
ĠáŀĲ áŀľ
áŀĵáŀĢ áŀĹ
in ce
Ġáŀļ áŀĺáŀİ
áŀ¢ áŀĺ
ĠáŀĤ áŀĤ
áŀļáŀĢ áŀĺ
Ġin v
Ġáŀ¢áŀľ áŀĻáŀľ
áŀĦ áŀĥ
áŀı áŀł
ĠáŀĤ áŀĻ
áŀĵáŀĢ áŀĶáŀĦ
ĠáŁ¡áŁ©áŁ§ áŁ¥
g an
r ight
Ġ |
áŀİ áŀī
ĠáŀŁ áŀŁáŀļ
Ġáŀĩ áŀĻáŀľáŀĺ
áŀģ áŀĩáŀĵ
Ġáŀ¥ áŀĬ
Ġat t
ĠáŀĤáŀİ áŀĢáŀĺ
áŀĥ áŀļ
ĠD ec
Ġpro v
ĠáŀĴáŀĵ áŀī
an a
Ġg rain
em ent
Ġwh o
áŀĶ áŀķ
ĠáŁ£ áŁ¦
à¸ ±
Ġon ly
áŀİ áŀļ
Ġb et
ĠáŀļáŀĢ áŀŁ
Ġb l
áŀļáŀĢáŀĶ áŀļáŀĶáŀļ
ĠCh in
1 8
áŀĵ áŀĻáŀŁ
ol d
ĠáŁ© áŁł
áŁī áŁģáŁĩ
Ġ( "
áŀĢ áŀĶáŀļ
Ġáŀĩ áŀĻ
Ġt ime
at t
i er
áŁ¥ áŁł
Ġáŀ± áŀł
à¹ ī
áŀĹ áŀĳ
Ġw ater
ĠáŁ§ áŁł
áŀĶáŀĲ áŀı
1 2
ĠáŁ¡áŁ¨ áŁ¦
ĠáŀĵáŀĤ áŀļáŀĶ
ĠáŀĽ áŀĵ
at ive
Ġáŀ§ áŀĶáŀı
áŀĩ áŀ¢
áŀ¯ áŀĢ
i x
Ġáŀ§áŀĶ áŀĳ
ĠáŁ¡áŁ©áŁ ¡
ĠA l
st em
ag on
Ġáŀľ áŀĩ
ĠâĢ ĵ
ĠR oyal
ĠáŀĶáŀĭ áŀĺáŀŁ
Ġáŀ§áŀĶ áŀĬ
ro s
Ġwor ld
Ä ģ
Ġáŀ ¦
g g
áŀ§ áŀŁáŀĹ
ub lic
ĠáŀŁáŀĺ áŀļáŀĺ
áŀĢáŀŁ áŀĸ
Ġsp ec
áŀĩ áŀļ
à¸ ¡
evel op
op le
a u
ĠáŁ£ áŁ¤
à¸ ĩ
os is
iv ers
Ġdis ease
áŀ» .
ĠáŀŁáŀł áŀĸ
Ġe ar
Ġ ;
Ġd uring
Ġu p
áŀı áŀĥ
ect ion
Ġa m
on t
at ure
we en
[ [
Ġde f
Ġy ear
u al
ri b
n am
Ġáŀħ áŀļáŀħ
ĠC om
áŀģ áŀħ
ĠáŀŁáŀĺ áŀĲ
ĠáŀĶáŀĳ áŀħáŀĺ
ĠáŀĺáŀĤ áŀĴ
Ġfe ed
k e
áŀĬ áŀĶ
áŀļáŀŁ áŀĢ
Ġ) ,
or n
Ġtw o
áŀļ áŀļáŀŁ
Ġáŀľ áŀĬ
áŀº áŁĸ
it s
a j
r uct
in t
Ġv ar
áŀļ áŀĽáŀĦ
áŀļáŀĶ áŀĢ
áŁ¡ áŁł
Ġn um
Â »
ĠáŁ¢ áŁ©
âĢ ľ
ut ion
Ġt y
Ġa fter
áŀļáŀħ áŀĦ
áŀĢáŀĢ áŀĦáŀĳ
overn ment
áŀĶ áŀ¢
âĢ Ļ
ot h
Ġu nder
Ġbir ds
Ġocc ur
ar m
it ler
Ġre m
ur al
o ol
Ġáŀĺ áŀĽ
Ġáŀ§ áŀĢ
Ġc ount
áŀĢáŀļ áŀĽ
id ent
áŀĵ áŀļáŀĦ
Ġáŀ± áŀľ
Ġh igh
Ġth rough
ĠáŁ¢áŁłáŁł áŁłáŁł
Ġsu b
ik e
Ġbet ween
as ed
ro p
ĠáŁ¢áŁłáŁł áŁł
Ã ¡
Ġ Q
áŀĢ áŀ²
áŀĲ áŀĶ
à¸ ¥
Ġáŀ§ áŀŁáŀĹ
áŀĴáŀŁ áŀĹ
ak e
ĠKh m
1 1
áŀĩ áŀĳ
an c
os s
ow er
ĠL a
áŀ ®
áŀļáŀİ áŀĺ
Ġp ol
ĠáŁ¡áŁ© áŁł
áŀļáŀŁ áŀĶ
ĠTh is
" .
b oung
f orm
r al
á º
ĠáŀĹ áŀİ
Ġa ir
ĠáŁ£ áŁ¨
áŀļáŀĶáŀĬ áŀİ
l in
s p
Ġin ter
3 0
áŀļ áŀĶáŀŁ
áŀ¡ áŀŁáŀĢ
áŀĵáŀĢ áŀĬáŀĽ
Ġ +
Ġn ew
Ġlangu ages
ĠDr agon
t he
v ent
ĠT boung
ĠI nd
od a
áŀĤ áŀŁáŀĺ
Ġd o
Ġ1 7
ist s
Ġcont rol
ex t
a e
áŀĢ áŀĢáŀĺ
áŀ¡ áŀĦ
Ġthe m
ĠáŀĶáŀĳ áŀĽ
ĠáŀĶáŀĳ áŀĸ
if e
Ġus e
áŀĵáŀĢáŀĳ áŀĳ
ĠKhm um
áŀı áŀ±
at her
ĠáŁ£ áŁ§
Ġd i
ĠM ar
Ġde p
Ġa c
Ġof f
ĠD eg
ow ever
Ġ 0
Ġáŀĩ áŀĽ
ĠáŀĺáŀĢ áŀļ
Ġ1 2
áŀļ áŀħáŀĺ
Ġ1 6
ĠM ove
ib le
aus e
reat ment
Ġ14 45
ĠDeg ree
áŀģ áŀģáŀİ
Ġp o
áŀľ áŀĳáŀı
áŀĤ áŀĳ
er t
ĠH itler
b le
r u
áŀĩ áŀĻ
áŁī áŀ¾
al s
ac ter
ul l
Ġáŀĸ áŀļ
Ġa ct
ĠáŁ¤ áŁ¢
áŀĤáŀļ áŀľáŀı
áŀĢ áŀĩáŀĵ
áŀł áŀĹ
Ġáŀľ áŀħáŀĵ
ou se
ir us
à¹Ģ à¸
Ġdif fer
áŀĦ áŀĻáŀĽ
ĠáŁ¡áŁ©áŁ§ áŁ©
I I
áŀĤ áŀł
áŀĤ áŀļáŀĻ
en g
ĠáŁ¡áŁ©áŁ§ áŁł
C h
Ġn e
c om
g ram
áŀĳ áŀĻ
Ġd evelop
à¸ µ
j ect
w ard
Ġáŀħ áŀļáŀİ
Ġw here
et h
Ġn o
ĠBudd ha
b o
ĠáŁ¤ áŁ¥
ĠS oda
ĠáŁ¢áŁłáŁł áŁ§
Ġcomm on
u ro
áŀļ áŀ±
áŀĹ áŀı
mer ic
Ġsy stem
áŀĽ áŀķ
Ġáŀĩ áŀİ
Ġ1 5
ĠP ro
áŀļáŀĳ áŀĢ
ĠáŁ¢ áŁ©áŁ
Ġd ec
ou l
áŀĭ áŀĹ
at ing
Ġf ound
áŀŁáŀĽ áŀĢáŀĺ
ĠS h
ĠáŀŁ áŀļáŀİ
áŁĮ áŀ»
Ġc all
il os
Ġknow n
i um
u ally
áŀľ áŀĺ
áŀĸ áŀĩ
Ġa cc
Ġáŀ§ áŀĶáŀŁ
al e
Ġ áŁģ
ĠR e
oll ow
i o
u res
áŀļáŀĶ áŀĽ
in h
Ġs im
it ies
Ġinclud e
ĠáŀĻ áŀī
ĠáŁ¡ áŁłáŁłáŁł
i am
áŀŁ áŀĬ
áŀħ áŀĽ
áŀģ áŀļ
is e
à¸ ¢
Ġáŀ« áŀĢ
áŀİ áŀŁáŀĺ
áŀģ áŀļáŀĶáŀļ
áŀĵáŀĢ áŀĪ
in al
Ġo b
Ġ1 1
ĠáŁ¡áŁ¥ áŁł
Ġcent ury
Ġpe ople
áŀļ áŀĮ
áŀī áŀķ
Ġm od
áŀ¶ .
áŀĶ áŀ¢áŀĦ
Ġthe se
áŀĻáŀĢ áŀĦáŀĳ
áŀŁáŀĢ áŀĢáŀĺ
áŀŁ áŀĻ
áŀł áŀĳ
Ġs ec
áŁ¡ áŁ£
Ġg overnment
Ġ19 7
Ġex p
ĠáŁ£ áŁłáŁł
or th
áŀĽáŀĦ áŀĶáŀĦ
ĠáŀŁáŀł áŀĢ
ĠW right
à¸Ļ à¸
Ġp op
Ġd ist
áŀĻáŀŁ áŀļ
ĠE m
e y
in ist
ou p
ĠáŀħáŀĦ áŀħ
ag n
Ġres p
áŀ ª
ur n
em ber
6 0
8 0
a x
Ġáŀ§ áŀĬ
Ġw ould
ĠáŁ¨ áŁ¤
Ġas s
ik i
olog y
> <
k h
áŀľ áŀĳ
áŀĵ áŀľ
áŀł áŀĬ
in s
Ġsign s
l u
Ġ ent
Ġáŀ¢ áŀĺáŀı
Ġáŀ¢áŀĵ áŀı
ar a
ĠáŁ¤ áŁ£
il ity
ĠáŁ¦ áŁ¢
. )
he s
áŀļáŀı áŀŁ
y c
Ġáŀ§ áŀħ
ĠA meric
ĠáŁ¢áŁłáŁł áŁ¨
áŀģ áŀŁ
áŀļáŀĦ áŀĤ
áŁ¡ áŁ¦
ow n
ut e
ĠKh mer
t t
áŁģ áŀ¸
áŀĵáŀĦ áŀĩ
áŀī áŀĵ
áŀĢáŀĬ áŀİ
áŀĻ áŀĦ
áŀĶ áŀĻ
ĠáŀĨ áŀĢ
ou th
Ġwor k
" )
áŀĻáŀĺ áŀļ
ĠáŀĶ áŀľ
in c
Ġp res
Ġf ollow
ing u
ĠV iet
Ġáŀ¦ áŀŁ
áŀŁ áŀĵáŀĢ
áŀĳ áŀİ
áŀĽ áŀĽ
áŀģ áŀŁáŀĶ
ant s
áŀħ áŀĳ
Ġse en
áŀļ áŀķáŀĽ
áŀļáŀĸ áŀĦ
áŀĨ áŀĵ
Ġe gg
áŀĻ áŀŁáŀĦ
áŀĴ áŀĸ
ĠáŀķáŀĽ áŀľ
a w
áŁ¡ áŁ¨
Ġan y
iz ed
1 4
áŀļáŀĶ áŀİ
ĠáŁ¤ áŁ¤
à¹ Ħ
áŀĢ áŀļáŀĢ
Ġs c
Ġm on
Ġm an
il y
uro pe
n ess
áŀŁ áŀŁ
re ad
ĠáŁ¨ áŁ¨
ĠáŀŁ áŀľ
áŀľ áŀľ
Ġáŀ¢áŀŁ áŀĦ
i od
ĠáŀŁáŀĺ áŀŁ
Ġthe n
es ions
ĠáŁ¡áŁ¨ áŁ¨
Ġpro gram
ĠCar M
l and
Ġáŀ§áŀĶ áŀĴ
áŁ¡ áŁ¢
Ġl it
Ġsu pp
Ġph ilos
Ġ es
in k
in es
áŁ©áŁ £
u ch
ĠáŀŁáŀĺ áŀł
à¸ °
ol v
Ġre d
od e
ĠL e
áŀĽ áŀļáŀĽ
áŀŁ áŀł
áŀľ áŀĢáŀļ
ĠáŀŁáŀĺ áŀļáŀĹ
im es
iv er
áŀĴ áŀħ
Ġáŀ± áŀļáŀŁ
as h
ĠS p
ang e
1 3
u nd
Ġáŀ¢ áŀł
or k
el f
ĠS e
ĠP ar
Ġg ener
ical ly
Ġcall ed
áŀª áŀĸ
f ul
áŀĵ áŀĺ
áŀĻ áŀł
ec h
if t
o x
u y
Ġáŀı áŀľ
on es
Ġc o
ĠáŁ¥ áŁ¥
áŀĺáŀĳ áŀĺ
áŀľ áŀł
Ġáŀĩ áŀĩ
áŀļáŀĺ áŀĵ
Ġw rit
Ġim p
2 01
Ġáŀĩ áŀĦ
or ld
et s
ĠB e
ĠáŁ¢áŁ¥ áŁł
Ġim port
áŀħ áŀŁáŀĵ
áŀİáŀĦ áŀĩ
l ed
áŀĽ áŀļáŀĦ
Ġp ar
am in
uct ion
ĠViet nam
i ent
m s
áŀĵ áŀĶáŀĳ
áŀļáŀĸ áŀĽ
áŀĨ áŀļ
ĠáŁ¤ áŁ¨
ĠáŁ¦ áŁ¥
ĠáŁ¦ áŁ¤
ĠáŀĶáŀĳ áŀĶáŀī
Ġv ery
ĠN ew
Ġáŀ¯áŀĢ áŀĹ
áŀİ áŀĢáŀĺ
áŀļáŀı áŀĵ
now iki
T reatment
f ore
Ġáŀľ áŀĽ
áŁī áŁĦáŁĩ
áŀĪ áŀĢ
________ ________
Ġdiffer ent
Ġ if
Ġc ol
oc k
ch ool
áŀĶ áŀĶáŀĳ
áŁĤ áŁĩ
Ġw ar
ect ed
Ġs ur
ĠáŀļáŀĽ áŀĢ
qu e
ain s
ĠCh an
Ġinc re
Ġag ain
a ir
ĠC on
áŁ¢ áŁł
áŀ¢ áŀĤ
Ġt em
Ġf am
Ġh um
Ġcon st
Ġad d
Ġinclud ing
áŀĦ áŀĬ
Ġáŀ¢ áŀĽ
Ġáŀı áŀĦ
áŀł áŀĺ
Ġáŀľ áŀĢ
Ġc ell
Ġáŀĩáŀĵ áŀļáŀĦáŀĤ
ĠáŀļáŀŁ áŀĩ
et t
áŀļáŀĲ áŀı
áŀļáŀĪ áŀĺáŀĺ
Ġbec ause
Ġper iod
1 6
1 7
áŀŁ áŀĢáŀĺ
ĠáŀĹ áŀĤ
áŀıáŀĺ áŀŁ
Ġm ade
Ġ? âĢĿ
Ġbe ing
ĠáŀŁ áŀ¡
Ġs erv
ic t
ĠáŁ¥ áŁ¤
áŁ¡ áŁ¥
il it
Ġh im
and a
= "
at ch
ĠH an
0 3
1 5
Ġ est
B R
m an
ĠáŀĶ áŀĢáŀŁ
Ġáŀĳ áŀİ
it is
Ġb ro
el s
áŁ£ áŁł
am a
Ġab out
áŀħ áŀĻ
ĠáŀĤ áŀĺáŀĵ
áŁ¡ áŁ¤
ac c
Ġst ud
áŀĦáŀ¢ áŀĺ
Ġsh ould
r at
Ġáŀħ áŀĽ
Ġáŀļ áŀĶáŀĦ
áŀĴ áŀļáŀİ
it es
ĠáŁ¥ áŁ¢
Ġl esions
ĠáŁ§ áŁ¥
ĠR o
oph y
áŁĭ áŁĭ
áŀĹ áŀĤ
áŀļáŀĢ áŀĢ
áŀĦáŀĢ áŀĢ
áŀĻáŀĢ áŀĦ
áŀĦáŀĳ áŀĦ
ĠáŁ©áŁ ¤
áŀĺ áŀħáŀĢ
Ġb u
à¸ §
à¸ ´
l a
Ġ end
áŀĸ áŀģ
Ġáŀł áŀļ
ĠE urope
ĠG T
ĠáŁ¢áŁłáŁ¡ áŁł
o id
áŀı áŀŁáŀī
ĠáŁ¥ áŁ¦
Ġth ree
áŀı áŀŁáŀĵ
áŀĻ áŀĺáŀĵ
áŀĹ áŀŁáŀĢ
on om
Ġin st
Ġwh at
ĠBudd h
d om
áŀĽ áŀ±
Ġáŀĺ áŀĺ
áŀĤ áŀķáŀĽ
áŀģ áŀļáŀİ
ĠáŁ¥ áŁłáŁłáŁł
c ed
áŀĹ áŀĦ
Ġc re
ĠáŁ¤ áŁ§
Ġh ist
áŀĵáŀĢáŀĶ áŀĺ
Ġex t
Ġáŀħ áŀİ
ĠáŁ¥ áŁ£
ĠáŁ¥ áŁ¨
Ġb el
ol e
ĠH owever
áŀĻáŀĩ áŀĺ
ĠG erm
Ġáŀĺáŀļáŀİ áŀĹ
ap an
ĠáŁ©áŁ ¡
ire ct
i el
áŀı áŀĤ
áŀľ áŀħáŀļ
áŀħ áŀİ
áŀĸ áŀĶ
áŀĬ áŀļáŀĩ
ĠáŁ¨ áŁ§
ra ph
ĠáŁ¢áŁłáŁł áŁ¦
ĠCambod ia
B C
áŀ¢ áŀĹ
Ġof ten
Ġl evel
ut h
Ġdes ign
en e
ĠáŁ¡áŁ¨ áŁ§
ial ly
Ġinf lu
t ic
Ã ³
áŀļ áŀħáŀĢ
áŀĦ áŀī
ĠáŀĽ áŀĺ
Ġe qu
áŀĽáŀĺáŀĢ áŀĬáŀĽ
Ġor d
áŀĵáŀĢáŀĵ áŀĻ
Ġle ad
e k
Ġ ra
Ġc ap
áŁ¡ áŁ§
Ġ1 3
tern ational
Ġcons id
Ġimport ant
t a
áŀĺ áŀĻ
in ation
is hed
Ġs m
Ġc ult
áŀļáŀı áŀĢ
à¸ ķ
ĠA nd
Ġ2 5
Ġ19 3
ĠChin ese
Ġyear s
áŀĶ áŀĤ
áŀľ áŀī
Ġáŀ¢ áŀĺáŀĵ
re ed
ar s
Ġe ffect
Ġáŀ£ áŀŁ
Ġar ch
oul t
áŀī áŀļ
áŀİ áŀĶ
ĠáŀĶáŀĭ áŀľ
. "
ĠáŀĶ áŀĢáŀĶ
Ġáŀľ áŀĵ
ĠáŁ¤ áŁ¦
ĠáŁ¦ áŁ£
em b
ĠáŁ¡áŁ¨ áŁ¥
ĠáŁ¢áŁłáŁ¡ áŁ¦
ĠUn ited
4 0
ï ¼
áŀĭ áŀĴ
Ġm ain
od y
Ġ ed
áŀĹ áŀľ
áŀļáŀĶ áŀļáŀĳ
à¸ Ķ
am es
ĠI s
w w
áŀī áŀĻáŀĢ
áŀİ áŀĽ
Ġt one
Ġb oth
ĠB C
ist ic
Ġv i
ĠW orld
Ġcaus es
2 5
y pe
áŀľ áŀĲ
re m
Ġáŀĺáŀĵ áŀŁ
Ġáŀĩáŀĵ áŀĹ
ĠáŁ¥ áŁ§
Ġg o
ĠK im
our s
Ġcomm un
aj or
l ish
Ã Ń
áŀħ áŀľ
Ġs a
Ġp ublic
Ġd el
Ġm ov
Ġre p
Ġv irus
ĠáŁł áŁł
oult ry
i en
m a
áŀĶ áŀĢáŀļ
Ġs er
le ment
ot her
Ġcon c
ĠáŁ©áŁ ¢
Ġres ult
Ġear ly
ĠAmeric an
h u
o hn
Ġ \
áŀĵ áŀĤ
Ġáŀ¢ áŀĴáŀĺ
Ġp ers
áŁ¡ áŁ¡
Ġg row
áŀĢáŀĶ áŀĺ
ail ed
A n
c es
s c
Ã ¢
à ¤
áŀĽ áŀĶáŀĵ
áŀĵáŀĢ áŀħáŀĺ
Ġs ame
áŀĻáŀĢ áŀĬ
à¸ Ĺ
Ġl ike
Ġ. -
um ent
ĠJ apan
áŀļáŀĪ áŀĺ
y m
áŀı áŀĢáŀĶ
Ġw ell
Ġáŀī áŀı
Ġm o
Ġm us
ĠáŁ¡áŁ¥ áŁ¢
ĠáŁ¢áŁłáŁł áŁ¤
ever al
y le
he m
áŁĬ áŀ»áŁĨ
Ġm ill
Ġ19 5
Ġ\ >
Ġ â
áŀĵ áŀĻ
ĠT r
ĠA D
ĠáŁ¢áŁłáŁł áŁ¥
áŀĴáŀĵ áŀī
Ġar ound
it al
it ions
Ġl ife
Ġcom pl
uc ed
Ġáŀĸáŀĸ áŀĢ
Ġ5 0
Ġsec ond
áŀĶ áŀĺáŀĵ
Ġáŀ¢ áŀĶáŀļ
Ġc ar
th ough
Ġch ar
N E
i ev
t on
w n
áŀĢ áŀĶáŀĦ
áŀĺ áŀļáŀ¢
ĠáŀĢ áŀľ
Ġt e
áŁĬ áŀ¹
áŀıáŀļ áŀĴáŀĺ
ĠáŁ¡áŁ¨ áŁ¤
v e
y l
áŀĢ áŀªáŀĸ
áŀħáŀĢ áŀĺ
áŀļáŀİ áŀĹ
is ed
al k
ĠáŁ¤ áŁłáŁł
Ġ2 50
ĠP al
ĠK ing
ĠáŁ¢áŁłáŁł áŁ©
Ġnum ber
Ġ( )
Ġa v
Ġs k
Ġm et
áŁ© áŁł
ain ed
Ġhe l
ĠO r
áŀĽáŀĹ áŀı
Ġme an
Ġlar ge
p os
Ġ Ã
Ġáŀĺ áŀĳ
áŀĩ áŀĸáŀĦ
ĠáŀĽ áŀĶ
ĠáŀĴ áŀļáŀİ
áŀĵáŀĢ áŀļáŀĢ
áŀĩáŀĵ áŀĩ
áŀļáŀĻ áŀĢáŀħ
ĠáŁ¡áŁ©áŁ ©
oc h
Ġty p
vent ion
I t
d a
ĠáŀĢ áŀĦáŀĸ
Ġáŀĸ áŀĢ
áŀľ áŀĻ
Ġáŀĩ áŀĬ
áŀĵáŀĢ áŀŁáŀĦ
ĠáŀĨ áŀĸ
ar ch
Ġáŀ± áŀ¡
áŀļáŀĻ áŀĢ
ĠP r
Ä Ĳ
Ġáŀļ áŀ¢
áŀĵáŀĢ áŀ¢
Ġáŀ± áŀı
Ġf il
ĠP l
iv ed
ĠG r
amp le
u k
áŀĻ áŀķáŀĽ
áŀ¡ áŀľáŀĢ
áŁĬ áŁģ
áŀĢáŀĺ áŀĵ
ar g
ic es
Ġp oultry
Ġre t
áŀļáŀĤ áŀĶ
Ġpro cess
og raph
ĠáŁ¡áŁ©áŁ©áŁ £
Ġcl ass
Ġbec ame
Ġáŀ§áŀĶáŀŁ áŀĤ
' t
t ed
áŀĶ áŀĨ
Ġw all
à¸ ļ
Ġm ajor
um b
Ġáŀ¯áŀĢ áŀ§áŀı
ri ed
ĠáŁ©áŁ ¦
Ġdis c
Ġpol it
agn osis
m ed
áŀŁ áŀĽáŀĶ
Ġáŀħ áŀħáŀĢ
áŀł áŀĽ
áŀĤáŀı áŀĢ
ĠG u
ĠáŁ¡áŁ¥ áŁ¦
Ġwh ile
ri pt
7 0
l o
t o
Ġáŀķ áŀļ
Ġd ays
à¸ «
ĠáŁ¦ áŁ§
Ġ2 4
Ġ19 8
áŀıáŀĹ áŀĢ
ĠCar N
ĠáŁ©áŁ ¥
per or
ĠCom m
r h
Ġ ever
áŀĳ áŀľ
in a
Ġs om
Ġp os
ĠF or
Ġst r
Ġor gan
ak ing
ĠáŁ¡áŁ©áŁ¦ áŁł
N A
áŀĺ áŀŁáŀĺ
áŀħ áŀĴ
áŀī áŀĶ
áŀģ áŀĽ
Ġáŀľ áŀĮ
Ġp ower
ul ation
id es
ot e
áŁ©áŁ ¢
iss an
áŀĵ áŀĻáŀĵ
áŀĻ áŀľáŀı
ĠáŀĶ áŀļáŀĸáŀĽ
áŁĨ áŀ¶áŁĨ
a em
i á»
Ġ ide
at s
Ġc ould
Ġl ow
ĠáŁ¡áŁ¨ áŁł
Ġcont in
ĠCambod ian
h ip
Ã ¨
áŀļáŀĶ áŀĺ
he l
Ġáŀ± áŀŁáŀĲ
as es
Ġl ay
Ġl ingu
ĠáŁł áŁłáŁł
iss ion
/ /
h am
o e
r ies
Ġs l
Ġs everal
áŀĻáŀĢ áŀĽ
Ġm ilit
ĠS w
ĠáŁ§ áŁ§
ĠáŁ¦ áŁ¦
oc i
Ġar t
tt p
: //
p ec
Ġ her
Ġáŀĺ áŀĻ
áŀħ áŀ¡
in ed
Ġl oc
Ġre f
if ied
ition al
áŀ§áŀĶ áŀĺ
Ġcount ry
lin ical
n a
Ġ $
áŀĤ áŀłáŀĶáŀı
Ġl ong
ĠáŀŁáŀł áŀĤ
id ed
Ġg iv
ĠáŁ¡áŁ¤ áŁ£
ĠCarN issan
áŀł áŀĦ
ĠáŁ¢áŁłáŁ¡ áŁ¡
ĠáŁ¡áŁ©áŁ¤ áŁ¥
iet y
Ġtr ad
Ġ et
áŀĶ áŀļáŀĻ
áŀĳ áŀĳ
Ġs uc
Ġh ouse
ĠáŀŁáŀł áŀĶ
ra v
ĠAn anda
Ġagain st
L I
r ation
Ã ł
áŀı áŀĶáŀĦ
áŀģ áŀļáŀĬ
Ġs ince
Ġc or
Ġd et
Ġm ed
áŀĽáŀĦ áŀķ
ĠáŁ§ áŁ¢
ol ution
Ġcon d
Ġde ath
ĠáŁ¢áŁłáŁ¡ áŁ§
Ġ3 0
ren t
enc y
enc es
n ing
p en
áŀļ áŀĤáŀļ
áŀħ áŀĬáŀĳ
áŀĸ áŀĤáŀĶ
ĠáŀĤ áŀĩ
ĠáŁ£ áŁłáŁłáŁłáŁł
áŀļáŀĬ áŀĢ
ion al
ĠE ng
ĠW ar
ĠáŁ¡áŁ©áŁ©áŁ ¡
Ġlar g
ĠChin a
Ġsm all
áŀı áŀĢáŀļáŀİ
áŀĽ áŀıáŀĶ
áŀĶ áŀ¡
áŀĹ áŀŁ
Ġáŀ§ áŀĤ
ic ro
Ġre qu
Ġg ood
Ġáŀ£ áŀĵ
ĠáŁ¢áŁłáŁł áŁ£
Ġan t
Ġex ample
ĠáŁ¡áŁ©áŁ¨ áŁł
Ġne ed
m y
Â «
áŀĵ áŀķáŀĽ
áŀĺ áŀļáŀŁ
áŀĺ áŀļáŀİ
at a
Ġc ur
it ect
or ies
ĠâĢ Į
Ġd irect
Ġl ater
ra b
ĠN ational
áŁ©áŁ ¤
Ġprod uction
Ġspec ies
m ing
Ġáŀ ³
áŀĸ áŀľ
áŀļáŀĶ áŀĶ
or g
Ġw ay
à¸ ª
ĠáŁ¨ áŁ¥
us s
ĠM ah
ĠáŁ¡áŁ¢ áŁł
Ġ19 4
áŁ©áŁ ¥
áŀĦáŀ¢ áŀĽáŀĦ
Ġtrans m
Ġinv olv
Ã ª
ĠáŀŁ áŀľáŀı
Ġt erm
áŀĤáŀĽ áŀĢ
Ġc oll
Ġl eg
ĠáŁ§ áŁ¨
ĠáŁ¦ áŁ¨
ĠáŀĸáŀĽ áŀĢáŀĺ
ĠA ll
em ents
áŀĺáŀĳ áŀı
Ġare as
9 9
T h
Ġ ec
áŀĤ áŀĴ
Ġáŀģ áŀĺ
on al
áŀĥ áŀĶáŀĩ
áŀĺáŀĢ áŀĬáŀĽ
ĠT ha
Ġn ational
Ġth ough
ĠáŀĢáŀĦáŀĸ áŀĽ
t il
y st
áŀĢ áŀŁáŀĵ
ĠáŀĢ áŀĦáŀļ
er a
Ġd ay
Ġn on
ow s
ist ure
áŀ£ áŀŁ
ress ion
D i
n h
y n
Â ·
áŀļ áŀĶáŀŁáŀĺ
áŀĤ áŀī
Ġáŀļ áŀľáŀĽ
is ion
Ġs oc
Ġs chool
Ġáŀ± áŀĳ
ad d
.. .
ire d
Ġcompl et
a o
áŀĴ áŀĢ
ĠáŀĪ áŀĺ
Ġáŀĩáŀĵ áŀŁáŀĦ
Ġin s
ĠS u
un ct
Ġpro ble
Ġhe ad
Ġk ing
olog ical
l ess
m b
r ac
áŀĵáŀĢ áŀ¢áŀĵ
Ġn ec
ros s
ivers ity
. [
0 2
p r
Ġ #
ĠáŀĹ áŀĤáŀľ
áŀĶáŀŁ áŀĦ
áŀļáŀĶ áŀĢáŀŁ
áŀĮ áŀĳ
id d
ĠW h
Ġâ Ĩ
Ġhel p
áŀĢ áŀ¢
ĠáŀĢ áŀĭ
ĠáŀĤ áŀĢ
áŀ¢ áŀĻ
Ġáŀ¥ áŀħ
à¸ ŀ
ĠáŁ§ áŁłáŁł
oc ument
iv ely
áŀ§ áŀĶáŀı
Ġan al
áŀħáŀŁ áŀłáŀĶ
ib r
Ġoff ic
o ok
u es
áŀĶ áŀĢáŀļáŀİ
áŀķ áŀĶ
ĠS c
Ġáŀ¢áŀļ áŀĤ
áŀ§ áŀĢ
ĠáŀĬáŀĢ áŀł
ffect s
ĠáŁ¡áŁ©áŁ© áŁł
9 8
y p
áŀĻ áŀıáŀĺ
áŀĮ áŀĢáŀĺ
áŀĽáŀĶ áŀī
Ġm in
Ġm ark
us h
ĠE x
ĠáŀļáŀĦ áŀĤ
ĠI I
ĠáŁ¡áŁ§ áŁ¨
Ġy oung
ord ing
Ġev en
a ut
o o
áŀĢ áŀĪ
áŀĻ áŀĽáŀĦ
ĠáŀĹ áŀİáŀĵ
at ic
Ġp oss
Ġd r
ĠÂ °
ot a
Ġpro m
ort ality
Ġmod ern
Ġsupp ort
y d
Ġáŀ °
áŀļáŀĺ áŀİ
en se
Ġo per
ĠáŁ£ áŁłáŁłáŁł
áŀļáŀı áŀĺ
as ter
áŀĵáŀĦ áŀļ
ĠG i
Ġst ate
ĠThe y
à¹ ĥ
Ġcom b
ĠáŁ¥áŁłáŁł áŁłáŁł
ĠSt ates
Ġpart ic
Ġdes c
ward s
Ġbu ild
Ġarch itect
iá» ĩ
Ġmilit ary
C linical
m ar
áŀĵ áŀĬáŀĽ
áŀĢ áŀŁáŀĦ
Ġf ore
áŁ¡ áŁ©
ĠJ ohn
Ġus ually
Ġgr oup
áŀŁ áŀĢáŀļ
áŀĶ áŀħáŀĺ
áŀī áŀĢáŀĺ
Ġáŀ¬ áŀĺ
ĠáŁ¡áŁł áŁ¨
ir c
Ġe ach
áŀħáŀļ áŀģ
ĠK ore
Ġare a
Ġwith in
ment s
ĠO n
ep end
D et
a ul
u an
ĠáŀŁáŀĺ áŀĵ
Ġd em
áŀļáŀħ áŀļáŀħ
áŀļáŀľ áŀĦ
Ġ1 00
ĠáŁ¨ áŁ¢
ĠThe re
à¸²à¸ £
Ġfollow ing
A r
m en
u ce
u ary
áŀĦ áŀ¯áŀĢ
áŀŁ áŀ¢
áŀľ áŀĴ
at ely
ĠC l
ent ial
om en
os ed
áŀĻáŀĺ áŀŁ
ĠE n
iv ing
Ġáŀ£ áŀı
ĠáŁ¡áŁ¥ áŁ¤
ĠN orth
Ġor ig
iz e
Ġhum an
b y
Ġáŀł áŀĵ
áŀģ áŀļáŀŁ
er r
re t
re en
Ġáŀ¥ áŀĽ
ar v
ent ly
ĠCar H
ĠU S
Ġ201 0
Ġ201 8
Ġ200 8
Ġmo isture
Di agnosis
e an
l ing
ĠáŀĶ áŀľáŀļ
áŀĤ áŀĺáŀĢ
áŀĩ áŀĦ
áŀ¢ áŀļáŀłáŀı
ĠáŀĴ áŀļ
áŀļáŀĶ áŀĢáŀĶ
ĠM inh
Ġth ose
le x
ĠáŁ¡áŁ¨ áŁ£
áŁ©áŁ ¦
áŀļáŀĲ áŀĻ
Ġun til
Ġty pe
Ġ x
áŀĢ áŀĻáŀĢ
áŀľ áŀ²
áŀĩ áŀĩ
áŀ¶áŁĨ áŁĴ
Ġm uch
Ġ2 8
ak es
Ġmill ion
A N
r is
áŀĻ áŀĨ
áŀĩ áŀľ
áŀķ áŀĵ
Ġ" )
Ġf our
il le
ec hn
av ing
ond a
E R
I C
c o
Ġáŀħ áŀļáŀĵ
es tern
Ġc our
ĠA d
ĠáŁ¢áŁłáŁł áŁ¡
ov er
ĠáŁ©áŁ £
2 3
P re
m p
s on
áŀĻ áŀľáŀĦ
áŀŁ áŀķ
áŀĬ áŀİ
áŀĹ áŀĺáŀĦ
Ġm ake
ĠB l
Ġg reat
ĠD e
Ġst yle
à¹ ģ
ĠáŁ¡áŁ¤ áŁ¤
ys is
Ġapp ro
ron ic
Ġchar acter
S t
Ġáŀ§ áŀĺ
er c
áŀļáŀł áŀĽ
à¸ Ī
il is
Ġl ess
ĠáŀŁáŀł áŀŁ
ur s
un e
ist ics
Ġst ill
ĠThe se
ĠáŁ¢áŁłáŁ¡ áŁ¥
áŁ©áŁ ¨
Ġphilos ophy
i que
l or
áŀĺ áŀķ
ĠáŀĲ áŀĻáŀħ
ĠáŀŁáŀĺ áŀĹ
áŀļáŀĩ áŀĽ
ĠáŁ£ áŁ©
ĠáŁ¨ áŁ£
ĠáŀĵáŀĤáŀļ áŀľáŀı
Ġ2 3
iv al
ĠCar T
Ġsp e
Ġsa id
Det ailed
0 4
E ffects
i pp
Ġ ident
áŀı áŀķ
ĠáŀĢ áŀł
Ġáŀĺ áŀļáŀıáŀĢ
ĠáŀŁ áŀĢáŀĽáŀľ
Ġáŀ¢ áŀĻáŀĽ
áŀī áŀĢ
áŀ¢ áŀĶáŀĳ
in ess
Ġáŀ¯ áŀ¢áŀŁ
Ġs he
ĠáŁ¥ áŁ¡
ĠE l
áŀĺáŀĳ áŀİ
ĠG e
Ġcon f
ill iam
end ed
Ġr ight
Ġtem per
iel d
e e
t ing
áŀļ áŀļáŀħáŀĵ
áŀĢ áŀĦáŀĳ
Ġáŀĵ áŀĸ
áŀĤ áŀħ
Ġáŀļ áŀī
áŀļáŀĢ áŀļ
Ġd id
ĠáŁ¨ áŁ¦
ĠáŁ¡áŁł áŁ¢
à¹ ĩ
ĠáŁ¢áŁłáŁ¡ áŁ£
áŁ©áŁ ©
Ġr ice
ĠáŁ¡áŁ©áŁ©áŁ ¨
so ft
Ġbec ome
ĠSw ift
2 6
P ost
e ks
l ished
u ang
y a
áŀľ áŀħáŀĵ
áŀº áŁĪ
an k
od es
Ġwith out
ĠáŁ¢áŁłáŁ¡ áŁ¢
aus es
ber t
Ġcaus e
ĠPar is
A l
m ort
p ar
áŀĻ áŀłáŀı
áŁĭ áŁĸ
al ism
it ive
Ġh ost
ĠP e
Ġ201 6
Ġ/ >
Ġad m
Ġj ust
Ġpolit ical
i h
i or
áŀĭ áŀĢáŀĺ
Ġo ld
ĠáŁ§ áŁ£
ĠáŁ§ áŁ¦
ĠáŁ¨ áŁłáŁł
áŀĻáŀĽ áŀĢ
Ġst and
Ġal ong
Ġpro t
ĠáŁ¡áŁ¡ áŁ¨
áŁ©áŁ §
ap p
Ġex per
ĠáŁ©áŁ §
Ġsp read
ĠáŁ¡áŁ©áŁ©áŁ ©
Ġwor d
Ġel ect
Ġever y
Ġgiv en
2 00
C auses
w ay
áŀ» áŀ¸
Ġt est
ar ies
Ġc ost
ĠáŁ¤ áŁ©
áŀĤáŀĺ áŀĩ
Ġre st
ĠáŁ¡áŁł áŁ¥
ĠáŁ¡áŁ©áŁ§ áŁ¦
ĠáŁ©áŁ ¨
Ġus ing
Ġáŀĵáŀļ áŀĩáŀĵ
ric t
Ġla w
c ol
g in
p or
áŀĶ áŀĬáŀĽ
áŀļáŀĶ áŀĳ
áŀĨ áŀĤ
áŀĪ áŀĵ
Ġf in
à¸ Ľ
ĠáŀĶáŀĳ áŀ§áŀĢ
ĠáŁ¡áŁ¥ áŁ¥
Ġbe gan
Ġbe fore
ĠáŁ¡áŁ¦ áŁł
ain ing
Ġex ist
Ġ201 1
Ġall ow
ci ent
ert ain
Ġsuc cess
Ġec onom
2 4
r ing
áŀĦ áŀĴáŀĺ
ĠáŀŁ áŀľáŀĵ
ĠáŀĻ áŀĴáŀļ
áŀļáŀĶ áŀģ
áŀľáŀı áŀİ
áŀĺáŀĢ áŀĲ
at ural
Ġ" "
al th
ĠáŁ¤ áŁ¡
áŀļáŀĻ áŀĶ
as on
om an
iv es
Ġáŀ£ áŀĦ
res ent
ĠáŁ¡áŁ£ áŁ¨
Ġwe eks
Ġcons um
Ġcomp ut
áŀľáŀļáŀİ áŀĴáŀĺ
Ġpop ular
ĠEm peror
2 7
9 0
9 5
Ġ ÄĲ
áŀĽ áŀ¢
áŀĤ áŀŁáŀī
Ġa uth
áŀĢáŀĬ áŀĳ
Ġd om
ĠP ol
ĠáŁ¡áŁł áŁ¤
ay a
Ġwor ds
pl es
iz ation
Ġpres ent
Ġgrow th
icro soft
2 1
9 7
a red
v ers
áŀī áŀ²
áŁħ áŁĸ
áŀĬ áŀŁ
áŀĹ áŀĵ
Ġo wn
ic i
Ġb acter
Ġd own
ĠC ent
ĠC ol
áŀļáŀľ áŀĺ
ĠT ur
ĠM an
Ġ. )
Ġv ow
ĠW e
ĠáŁ¡áŁ§ áŁ¦
ian s
Ġse e
fer ence
ĠAs ia
à¸£ à¸°
ener al
Ġcount ries
Ġord er
Ġconsid ered
iá»ĩ t
g et
o f
t y
áŀı áŀļáŀĺ
áŀĳ áŀĢáŀĶ
on y
Ġre port
ĠB ut
ul es
ĠáŀĶáŀĳ áŀĬ
Ġcont ent
ĠáŁ¡áŁ©áŁ¥ áŁ£
Ġbl ood
idd le
áŀĶ áŀ¢áŀŁ
Ġáŀħ áŀĦáŀĢ
Ġáŀļ áŀĢáŀĺ
ĠáŀĲ áŀĦ
áŀĵáŀĢ áŀĻáŀĽ
Ġt ones
Ġáŀ¢áŀŁ áŀĳ
Ġs ay
Ġp ass
Ġd iv
Ġd ue
Ġv al
Ġv acc
ĠáŁ¡áŁ©áŁ§ áŁ¨
ie f
Ġpr act
Ġph ys
sp an
Ġest ab
Ġvi ew
mort em
Ã ´
Ġ &
áŀĽ áŀļáŀŁ
áŀĵáŀĢ áŀŁáŀĺ
Ġn ow
ĠR ep
Ġ2 7
ĠP art
ĠáŁ¡áŁł áŁ§
ag ue
ĠáŁ¢áŁł áŁ¦
Ġst at
ĠáŁ¡áŁ¦ áŁ¢
ĠáŁ¡áŁ£ áŁł
áŀĺáŀĸ áŀļ
og n
pt ion
ĠáŁ¡áŁ©áŁ©áŁ §
ĠGerm an
0 8
2 8
= =
ĠáŀĢ áŀĲ
áŀļáŀĩ áŀĢ
Ġáŀ§áŀĶ áŀĩ
Ġf act
áŀĽáŀĦ áŀł
ĠS ut
Ġh ow
Ġh and
ĠáŁ¡áŁł áŁ¦
ĠáŁ¡áŁ¥ áŁ£
ĠáŁ¡áŁ¢ áŁ¨
Ġex pl
Ġk ill
ĠáŁ¡áŁ©áŁ©áŁ ¢
ĠáŀıáŀĶ áŀľáŀı
ĠUn ion
ĠCarH onda
9 2
áŀĵ áŀł
áŀı áŀĻ
Ġo pp
is c
áŀļáŀı áŀĵáŀı
ent al
ĠE d
áŀĦáŀĶ áŀī
em pt
st it
ay ana
ĠáŁ¡áŁ¡ áŁł
ĠU N
oy ota
az da
ĠáŀĤáŀĻ áŀĤáŀĵ
Ġam ong
form ula
Ġdep end
Ġdevelop ment
) :
9 3
9 6
S E
r id
s ide
áŀħ áŀĽáŀĦ
áŀĸ áŀĳ
Ġáŀļ áŀĸ
áŀģ áŀĮ
áŀ¡ áŀĢ
áŀļáŀĢ áŀı
Ġáŀ¯ áŀĢáŀı
Ġáŀ¯ áŀĢáŀħ
áŀļáŀİ áŀĢ
Ġáŀ¢áŀĵ áŀĵ
à¸ ¸
iv il
ĠáŁ¡áŁ¤ áŁł
ĠáŁ¡áŁ¤ áŁ¥
ĠáŁ¡áŁ¤ áŁ¢
ĠáŁ¡áŁ£ áŁ¥
ĠáŁ¡áŁ§ áŁ¥
ous es
Ġch ick
ĠIn ternational
áŀĢáŀĹ áŀİ
ĠáŁ¡áŁ©áŁ¥ áŁ¤
ug ust
áº ¡
ru it
ĠBuddh ism
ĠEng lish
r ist
u ed
z o
áŀĵ áŀĦáŀĢ
áŀĽ áŀľáŀĽ
áŀĺ áŀľáŀı
Ġáŀĳ áŀĸ
Ġáŀı áŀĶáŀŁ
áŀĵáŀĢ áŀĽáŀĢ
áŀļáŀŁ áŀŁ
áŀĭ áŀ¢
Ġt ur
at l
Ġs w
à¸ Ħ
Ġm eth
ĠA t
áŀļáŀ¢ áŀı
oc c
ĠB rit
Ġg l
Ġg u
áŀ± áŀĦ
ĠáŁ¡áŁ¡ áŁ¤
ab or
Ġdry er
Ġvar ious
Ġegg s
Ġstud y
3 3
h i
o ot
áŀĢ áŀľáŀļ
ĠáŀĶ áŀł
áŀģ áŀĶ
ĠáŀĹ áŀľáŀĦ
áŀĹ áŀİ
Ġs us
Ġb ack
Ġm at
il ar
om m
áŀĵáŀĢáŀĶ áŀĢáŀĶ
ur a
áŀĻáŀĶ áŀİ
ĠáŁ¡áŁ¤ áŁ¨
Ġpr im
ĠUn iversity
ĠAs s
cept ion
ĠCarM azda
A C
E C
ï ĥ
áŀı áŀļáŀĴ
Ġáŀĵ áŀı
Ġáŀĺ áŀļáŀĢ
áŀĳ áŀĢáŀĺ
áŀī áŀĺáŀı
áŀĴ áŀĩáŀĵ
áŀĵáŀĢ áŀģ
áŀĺáŀĢ áŀĺ
en a
Ġh ig
Ġ2 6
ot t
ra w
Ġáŀ« áŀĢáŀĸ
Ġst ruct
ab ility
ĠáŁ¡áŁ£ áŁ¦
ore d
ater ial
ĠáŁ¨áŁ¤ áŁłáŁłáŁł
ĠCarT oyota
r ad
Ġáŀ¢ áŀĿ
áŀĸ áŀħ
áŀİ áŀĳáŀİ
áŁģáŁĩ áŁĸ
Ġa ge
áŀļáŀĳ áŀĵ
áŀĮ áŀľ
Ġb ody
Ġm ortality
Ġl ast
ĠáŁ§ áŁ¤
ĠA ugust
ĠáŀļáŀĦ áŀļáŀĶ
ĠN g
Ġsy mb
áŀĽáŀĺ áŀļáŀİáŀĹ
g re
n s
p le
áŀĦ áŀ£áŀŁ
áŀŁ áŀĻáŀĢ
ĠáŀĶ áŀĶáŀī
áŀī áŀĺ
áŀĩ áŀı
áŀĬ áŀĢáŀĺ
áŀģ áŀĳ
it her
ĠM ore
ur g
um p
ĠáŁ¡áŁ¥ áŁ§
ĠáŁ¡áŁ¡ áŁ§
ĠáŁ¡áŁ©áŁ¥ áŁł
Ġlit er
Ġhist or
Post mortem
Ġsymb ol
p ire
ï Ĥ
áŀĦ áŀļáŀł
Ġáŀ¢ áŀĲ
Ġáŀı áŀĹ
áŀĩ áŀĢáŀĵ
ĠáŀĴ áŀī
Ġt er
Ġáŀ¯ áŀıáŀĳ
at ory
Ġs ing
Ġl and
et ic
à¹ Į
ĠáŀĪáŀļ áŀĪ
áŁ©áŁ ¡
Ġch ang
Ġáŀļáŀİ áŀŁ
Ġme ans
Ġrel ig
ĠâĨ Ĵ
Pre vention
0 5
w ays
Ã ±
Ġ áŁĴ
Ġ </
áŀĵ áŀİ
er g
ĠáŁ¥ áŁ©
Ġb as
el e
ro d
áŀļáŀľ áŀĬ
ĠáŁ§ áŁ¡
ĠáŁ¦ áŁ¡
Ġre al
ir d
Ġ19 6
ĠáŁ¡áŁ©áŁ§ áŁ£
ĠáŁ¡áŁ©áŁ¦ áŁ©
ĠáŁ¡áŁ©áŁ¤ áŁ©
ix ed
Ġprogram ming
Ġpartic ular
0 9
2 2
A P
r ay
áŀĢ áŀ£
áŀŁ áŀľáŀı
áŀľ áŀĺáŀĽ
áŀħ áŀŁáŀī
Ġáŀħ áŀħ
áŀĵáŀĢ áŀ¢áŀĦ
Ġa ffect
er ing
Ġáŀ± áŀļ
Ġáŀĺáŀł áŀĤ
ic o
à¸ ¹
Ġm ar
et er
et imes
ĠL ou
Ġáŀļáŀİ áŀĶ
Ġdry ers
Ġpl an
Ġadm inist
F ran
r im
t le
Æ ¡
Ġ å
áŀļ áŀļáŀĺ
áŀĽ áŀĵáŀĵ
áŀ¾ áŁĩ
Ġáŀ¢ áŀľáŀı
áŀ¢ áŀķ
ĠS o
ĠA b
ĠM us
Ġn ame
ad a
ĠáŁ¡áŁ¡ áŁ¦
ĠCh ar
Ġqu ality
Ġapp ear
Ã¡ hu
f l
l ine
r act
s h
ĠáŀŁ áŀļáŀĹ
áŀĳ áŀĸ
in ct
ĠáŀļáŀĢ áŀĶ
Ġb reed
áŁ¢ áŁ¥
le y
áŀ§ áŀĶáŀĩ
Ġáŀ¢áŀĺ áŀļ
ĠáŁ¡áŁ¢ áŁ¤
ry ing
ĠCar S
áŀļáŀĶáŀŁ áŀĦ
Ġpop ulation
ïĤ §
E N
Ġáŀ Ń
áŀĺ áŀĶáŀĳ
ĠáŀĤ áŀłáŀĶ
áŀĴ áŀļáŀĺ
ĠáŀĹ áŀĻ
áŀŁáŀļ áŀĩáŀĵ
ĠM icrosoft
áŀ± áŀŁ
ĠáŁ¡áŁ¢ áŁ£
Ġ200 0
Ġpl ay
à¸Ń à¸ĩ
à¸µ à¹Ī
0 6
3 7
a ec
p ut
áŀŁ áŀĨ
áŀĵáŀĢ áŀĲ
áŀĵáŀĢ áŀķ
ĠáŁ¤ áŁłáŁłáŁł
Ġm aterial
Ġh ouses
om b
ĠM inist
Ġn ear
ra h
ĠN o
ĠáŁ¢áŁłáŁł áŁ¢
ĠáŁ¡áŁ¤ áŁ§
Ġsp ace
ph ilis
Ġen l
3 2
3 4
c k
i ation
n er
Ġ z
Ġáŀĺ áŀĪ
Ġt echn
áŀĩáŀĵ áŀĶáŀĳ
áŀĪ áŀĥ
ro ll
Ġl ibr
ac ed
Ġn atural
ĠB ar
id s
ĠI f
ĠáŁ¡áŁ©áŁ§ áŁ§
ĠáŁ¡áŁ©áŁ¥ áŁ¥
bo ok
ï¼ Į
I A
o h
áŁį áŁĸ
áŀļáŀĢ áŀĬ
ĠáŀĨ áŀı
en ed
Ġs al
Ġs our
Ġc rit
ed ia
ĠáŁ¤ áŁ©áŁ£
Ġb est
ĠáŀŁáŀł áŀĺ
ĠB y
ĠH ist
ect s
Ġpro per
Ġpro pos
av a
ĠáŁ¡áŁ£ áŁ¤
mer c
ĠáŁ¡áŁ©áŁ¤ áŁ¡
Ġcons on
Ġsystem s
Ġtransm ission
Ġauth or
Ã¡hu atl
t r
u a
áŀ ŀ
áŀĶ áŀģ
áŀĳ áŀĬ
áŁĬ áŀ½
er al
en ic
Ġs et
âĢ Ķ
Ġc al
Ġc ase
Ġc ertain
it amin
ĠS y
áŀĢáŀŁ áŀī
ĠA m
ĠM ay
Ġg ram
00 00
st er
ĠJ ul
our n
Ġk e
ĠáŁ¡áŁ©áŁ¦ áŁ¢
Ġ200 9
]] ,
Ġbir d
ĠáŀĹáŀľ áŀľáŀĺ
Ġdo es
Ġrep resent
Ġoffic ial
Ã «
áŀĢ áŀ±
Ġáŀ¢ áŀŁáŀĵ
áŀĸ áŀĴ
áŀĶáŀĵ áŀĵ
Ġc ity
Ġc are
Ġf unct
áŀļáŀħ áŀĦáŀħ
à¸ ·
Ġm ust
Ġm emb
áŁ¢ áŁ§
Ġl og
ĠS er
ĠS al
ĠS outh
áŁ£ áŁ¥
ĠáŀŁáŀĺáŀİ áŀĴáŀĺ
ĠáŀŁáŀł áŀĩ
Ġn Ã¡huatl
ĠáŁ¡áŁł áŁ¡
if f
est ed
Ġáŀıáŀĳ áŀĽ
ĠáŁ©áŁ ©
ĠáŁł áŁ¡
Ġch ange
Ġar g
Ġsh ort
Ġem b
áŁĳ áŁĩ
Ġgrain s
att le
Ġoccur s
Ġconst ruct
Ġcre ated
Ġfil m
O R
P h
U n
b ers
h ttp
áŀĺ áŀĶáŀļ
áŀĶ áŀľáŀı
áŀĶ áŀļáŀĽ
ĠáŀĤ áŀĴ
ĠáŀĻ áŀĲ
in o
ĠáŀŁáŀĦ áŀŁ
Ġáŀ± áŀĥ
Ġf ly
Ġf ew
il and
ĠS ome
Ġh owever
ĠáŁ¦ áŁ©
ĠA pp
Ġth ink
ĠáŁ¡áŁ¢ áŁ¥
ĠCh amp
áŀĮáŀĽ áŀĤ
Ġro le
Ġreg ion
ĠLa o
Ġsim ilar
Ġwrit ten
Ġbro il
Ġmean ing
merc ial
. '
0 7
c l
g l
n ot
áŀľ áŀĴáŀĺ
áŁĬ áŁĲ
áŀļáŀĳ áŀĺ
re w
Ġd u
as ing
Ġto x
ĠS m
áŀĢáŀĢ áŀĢ
ĠV iá»ĩt
ĠáŁ¢áŁłáŁ¡ áŁ¤
áŀ¥ áŀı
ĠáŁ¡áŁ©áŁ©áŁ ¤
áŀļáŀļáŀĢ áŀĥ
Ġnum bers
Ġfam ily
Ġpers on
Ġ250 7
L e
O N
c hed
áŀŁ áŀļáŀł
áŀŁ áŀĵáŀĢáŀĺ
áŀĸ áŀĸ
Ġt re
er ation
áŀļáŀİ áŀĩáŀĵ
áŀĮ áŀĢ
Ġo ur
at or
Ġp ost
Ġp ath
Ġb ased
ĠT w
ĠáŁ¨ áŁ©
ĠM a
Ġ? Â»
ĠD ocument
Ġáŀ¢áŀľ áŀŁ
Ġr u
áŀıáŀŁ áŀļáŀŁ
ĠáŁł áŁ¢
ĠáŁ¡áŁ©áŁ©áŁ ¥
ĠáŁ¡áŁ©áŁ¦ áŁ£
à¸²à¸ ¢
Ġad v
erm an
Ġqu e
ĠáŀŁáŀĢáŀĽ áŀĽ
ific ation
ĠQ u
Ġgener al
ĠEurope an
Ġsom etimes
T ext
o int
v ious
áŀĢ áŀĶáŀĵ
áŀı áŀıáŀĳ
ĠáŀĢ áŀĽáŀĵ
áŀħáŀĢ áŀĽ
in ated
he ast
Ġáŀ§ áŀİ
at ures
ac hed
ĠáŁ¦ áŁłáŁł
áŀĵáŀĢáŀĶ áŀī
Ġre v
ĠáŁ¡áŁł áŁ£
ĠáŁ¡áŁ¥ áŁłáŁł
ĠáŁ¡áŁ¥ áŁ¨
ĠN am
Ġan n
ak s
Ġsu ff
Ġch ild
áŀĤáŀİ áŀĶáŀĢ
ish i
Ġwe ight
Ġwall s
Ġstr ong
ici ency
Ġmeth od
. ,
9 4
T S
d ay
w are
áŀı áŀĴ
áŁĦ áŁĴ
áŀī áŀĩ
áŀģ áŀĸ
áŀĹ áŀĽáŀĵ
Ġáŀ§ áŀĸ
en ess
Ġ" ,
áŀļáŀĬ áŀİ
ic a
áŀĪ áŀĬ
ĠC or
ĠS ch
ĠáŁ¨ áŁ¡
ĠA f
ĠA ng
Ġv is
ĠáŁ¡áŁ¢ áŁ§
ĠW illiam
uc k
ry st
ĠáŁ¡áŁ£ áŁ§
Ġr ate
áŀ« áŀŁ
Ġ201 2
ip le
à¸ģ à¸²à¸£
Ġprod uc
Ġcommon ly
Ġes pec
Ġlarg est
ĠPart y
F A
b l
y an
Ġáŀĵ áŀĽ
ĠáŀĢ áŀħ
áŀħ áŀĹ
áŀĩ áŀİ
áŀĬ áŀħ
áŀĹ áŀĺ
Ġ) .
áŀļáŀł áŀĶáŀı
at th
ĠáŀĻáŀĢ áŀĪ
Ġs ent
Ġd ev
Ġm or
il t
ĠS ong
le ar
áŀĢáŀī áŀĻ
Ġe ff
ĠáŁ¡áŁ¥ áŁłáŁłáŁł
ĠáŁ¡áŁ¨ áŁ¢
qu es
ak a
ĠáŁ¡áŁ©áŁ¦ áŁ¥
ĠáŁ¡áŁ©áŁ¦ áŁ§
Ġav ail
ĠMah ayana
add y
ĠRep ublic
8 9
S A
b s
l i
áŀŁ áŀļáŀĹ
áŀĶ áŀĻáŀĢ
ĠáŀĬ áŀĦáŀĳ
áŀĹ áŀļ
Ġt imes
an e
ĠT ype
ĠáŁ§ áŁ©
ĠA ust
oc us
ĠE ar
ir on
Ġe as
Ġfor ces
ĠG eneral
ĠW hen
ĠO ther
ĠáŁ¢áŁ¤ áŁ¨
Ġim m
Ġfe ather
Ġab s
Ġáŀ§áŀĶáŀĵ áŀĵ
Ġdevelop ed
ĠTha iland
men ia
Ġtur ke
8 6
> </
e qu
m ost
p a
r as
r ound
v ana
Â ĳ
ã Ģ
ä ¸
áŀĢ áŀļáŀı
áŀı áŀĨ
áŀĻ áŀĻáŀŁ
Ġáŀł áŀŁ
Ġáŀľ áŀļáŀŁ
Ġáŀ¯ áŀı
an i
áŀļáŀĩ áŀĺ
Ġc ivil
or rh
Ġw omen
Ġm en
Ġl im
ĠE ast
áŀĶáŀļ áŀĵ
ĠáŁ¡áŁ¢ áŁ¡
Ġal ways
ĠáŁ¡áŁ¡ áŁ£
ĠJ ack
ell a
Ġsh ow
ĠY ou
Ġcomm and
Ġcent ral
led ge
Ġincre ased
Ġinflu ence
Ġtyp es
D P
l ike
o ice
Ġáŀ¢ áŀĤáŀı
áŀĭ áŀĽ
Ġt urn
Ġc amp
Ġáŀ± áŀĩ
à¸ ³
Ġm ach
ro st
Ġl ist
ĠS ec
Ġh aving
om s
ol ar
Ġre le
Ġn orth
ĠáŀĬáŀĦ áŀļ
ad o
ĠH is
à¸²à¸ ģ
Ġ200 7
Ġsy n
ĠáŁ¡áŁ©áŁ¨ áŁ©
Ġfl ow
Ġind epend
Ġbel iev
ĠJapan ese
oe a
Ġinvolv ed
Ġproble m
ĠáŀĬáŀĦáŀĳ áŀĵ
S C
áŀ¶ ,
áŀĵ áŀļáŀı
áŀľ áŀĸ
áŀĳ áŀħáŀĵ
Ġáŀı áŀĶáŀı
áŀĴ áŀĵáŀĢ
áŀĲ áŀı
Ġs outh
Ġp al
áŀļáŀľ áŀĢáŀĺ
ĠT ai
ĠáŀĸáŀĽ áŀĢáŀļ
et ing
ĠM on
Ġre b
ĠP re
id ity
ir vana
ers ion
Ġst art
áŀĦáŀħ áŀĦ
ign s
ub ishi
ĠáŁ¡áŁ©áŁ¤ áŁ¦
its ubishi
ww w
ograph y
ryst al
Ġavail able
" ),
3 1
A T
d e
i j
k rit
áŀ ¬
áŀĦ áŀŁáŀĺ
áŀı áŀļáŀŁ
áŀŁ áŀĶáŀī
ĠáŀĶ áŀļáŀĶ
ĠáŀŁ áŀĤ
áŀ¢ áŀĬ
Ġáŀ§ áŀļ
Ġo pen
al es
Ġc irc
Ġf ac
áŁ¢ áŁ¨
ĠS oc
Ġh aem
áŀĳáŀĵ áŀĹ
Ġre ce
Ġth us
ur ther
ĠP en
Ġg e
Ġe y
áŀ§ áŀĶáŀĵáŀĵ
Ġbe gin
ĠW ind
Ġan other
ace book
Ġáŀĺáŀļáŀİ áŀŁ
ĠáŁ¡áŁ¦ áŁ¦
Ġ3 5
ĠáŁ¡áŁ§ áŁ§
Ġy our
ell ow
ew s
Ġ4 0
Ġob ject
ĠVietnam ese
Ġáŀ³ áŀĸ
u x
v es
Ã º
áŀĺ áŀģ
áŀ¸ áŁĸ
áŀĳ áŀĢáŀļ
ĠáŀĲ áŀĵ
áŀģ áŀģ
áŀĴ áŀĬ
re am
ĠáŀĶáŀļ áŀĽ
ĠáŀĻáŀĢ áŀ¢
is ing
or ge
Ġin it
Ġp at
Ġd on
am m
Ġre pl
oc ks
Ġn ov
ĠáŀļáŀĦ áŀħ
st r
her s
est ion
ure d
ĠáŁ¡áŁ©áŁ©áŁ ¦
Ġun ivers
Ġ200 6
Ġper form
Ġcaus ed
Ġsign ific
Ġob s
Ġsus cept
2 9
c il
v al
áŀı áŀıáŀĶ
áŀĺ áŀļáŀĹ
ĠáŀĬ áŀĢáŀŁ
áŀĳ áŀħáŀĢ
áŀĸ áŀ¢
ĠáŀĲ áŀĺ
Ġ( Âĳ
áŀĭ áŀĸ
Ġs em
es p
áŀĽáŀĶ áŀł
ic ks
Ġf all
Ġm ult
ro ph
Ġl iver
ĠA BC
ĠR ev
Ġ! !
un n
ĠO ne
pt ember
ber g
âĢ¦ )
Ġáŀ¦ áŀĿ
à¹Ģà¸ Ľ
ĠáŀŁáŀļáŀİ áŀĤáŀĺáŀĵ
Ġass oci
ĠCarM itsubishi
Ġlit ter
Ġexper i
c ent
c op
e ad
h at
m on
Æ °
Ġáŀ ŀ
áŁĴ áŁĴ
áŀĢ áŀĶáŀī
Ġáŀĵ áŀĢ
ĠáŁ Ľ
áŀĵáŀĢ áŀĻáŀĢ
ar i
áŀĨ áŀĢ
Ġp ur
Ġf ree
Ġf inal
am ed
ĠB ur
im al
áŀĢáŀĶ áŀĢ
Ġv ir
ĠN e
ect ions
and s
ĠáŁ¡áŁ¡ áŁ¥
The re
ĠTh om
ide o
áŀĵáŀĢáŀĳ áŀŁ
á» Ļ
Ġdif f
Ġatt empt
ĠEm pire
ech an
Ġfam ous
ĠPal i
Ġsoc ial
Ġposs ible
ĠSut ta
Ġsing le
Ġespec ially
i ot
r us
u ge
áŀĽ áŀĴáŀĵ
ĠáŀŁ áŀļáŀĳ
áŀľ áŀ±
áŀħ áŀľáŀĦ
ĠáŀŁáŀĺ áŀĽ
Ġt ake
Ġs on
Ġs ett
ar rh
Ġf arm
Ġd ial
ĠC up
Ġl ed
ĠS he
Ġh ome
áŀĢáŀŁ áŀĢ
ĠM o
Ġre fer
ĠD em
ud i
Ġwor ks
ĠáŁ¡áŁ©áŁ¤ áŁł
Ġwe ak
ĠáŀĵáŀĤ áŀļáŀł
Ġad ult
Ġpl ace
ĠLa os
ĠRe ad
Ġhist ory
ĠGerm any
Ġchick ens
ĠLou is
8 5
9 1
O n
i ology
w ork
áŀĢ áŀŁáŀĺ
áŀı áŀļáŀĢ
áŀı áŀĴáŀĺ
áŀŁ áŀļáŀİ
ĠáŀĶ áŀĴ
Ġáŀ§ áŀĹáŀı
is on
Ġáŀ¢áŀŁ áŀĺ
Ġáŀ± áŀĹ
Ġp addy
Ġd est
Ġd iet
áŀĻáŀŁ áŀı
ĠC o
ĠS iam
ig ure
Ġ! "
ĠD ev
ĠF e
ĠG od
Ġcon v
ĠN S
ĠáŁ¡áŁ¢ áŁ¢
op l
Ġal though
ĠCar A
ĠáŀļáŀĲ áŀĹ
Ġen c
Ġinf orm
Ġpre vent
Ġev ent
Ġatt ack
Ġpo int
ĠSe ptember
Ġcommun ity
yn ast
Ġdesc rib
Ġstand ard
P A
R E
a f
e f
t ain
áŀļ áŀ¯
áŀĦ áŀħáŀĺ
áŀĺ áŀĻáŀĢ
Ġáŀĵ áŀĦ
Ġáŀĺ áŀĥ
áŁĲ áŁĴ
Ġáŀ¯ áŀĴáŀĵáŀī
Ġthe ory
Ġc ame
áŀıáŀĺ áŀĤ
ro op
ĠC ap
ĠáŀĸáŀĽ áŀļ
ul ates
ĠáŀĶáŀĳ áŀĶ
ĠáŁ¢áŁł áŁ¢
ĠáŁ¢áŁł áŁ§
ĠáŁ¡áŁ¥ áŁ¡áŁ¦
ĠW estern
ĠáŁ¡áŁ§ áŁł
Ġr un
ĠáŁ¡áŁ©áŁ¤ áŁ§
Ġint est
ens ive
tern al
Ġinf ection
Ġme as
Ġ199 0
ĠInd och
uy en
Ã³ n
Ġed uc
Ġsk in
Ġloc al
Ġking dom
arrh oea
M ode
b on
b an
g en
p g
s y
Â Ń
Ã ²
áŀļ áŀ§áŀĶáŀı
áŀŁ áŀľáŀĢ
áŁĨ .
Ġa ut
Ġs un
al a
Ġc he
Ġp ress
Ġl os
Ġl ight
Ġl eng
id ence
ow l
Ġáŀ¯áŀĢ áŀĳ
ĠáŁ¡áŁ¡ áŁ¢
ab ly
ĠáŁ¡áŁ©áŁ¤ áŁ¨
uct s
áŀģáŀı áŀĴáŀĺ
á» ĵ
Ġother s
arm a
Ġpo et
alk er
Ġret urn
Ġtemper ature
Ġter rit
8 8
C A
K im
S p
d o
f or
i ate
j pg
t al
Ã ¼
áŀı áŀļáŀĹ
áŀĽ áŀĻ
áŀĻ áŀ¢
áŁĭ áŁģ
Ġáŀĺ áŀĬ
áŀ¸ áŀ»
ĠáŁ ļ
áŀĤ áŀħáŀĢ
áŀĤ áŀļáŀĢ
áŀĴ áŀĵáŀĢáŀĺ
Ġáŀľ áŀĳ
áŀĭ áŀĳ
Ġáŀ§áŀĶ áŀĢáŀļ
Ġf ood
ĠÂ Ĵ
ĠM od
ĠR ou
ĠH en
ĠI II
ut ed
em a
Ġbe h
ĠW al
and ed
ĠáŁ¡áŁ¤ áŁ¦
ort her
oun cil
ĠáŁł áŁ¥
ĠáŀĶáŀļáŀĺ áŀı
ĠáŁ¡áŁ©áŁ¦ áŁ¨
Ġsy ll
Ġsy philis
ĠáŀĵáŀĤ áŀļáŀĢ
ress ed
áŀļáŀĺáŀĢ áŀĬáŀĽ
Ġreg ard
Ġspec ific
ĠSu per
áŀĢáŀ£ áŀļ
Ġaffect ed
3 5
3 9
8 7
I N
a im
áŀĢ áŀĴáŀĺ
áŀĢ áŀĪáŀļ
áŀĺ áŀĴ
áŀĴ áŀĸáŀĽ
ĠáŀĻ áŀĦ
Ġáŀ¥ áŀľ
ĠC he
Ġl ate
Ġl iving
Ġ2 1
Ġ2 2
Ġ. .
ĠP er
id a
Ġg ive
iv id
ĠH er
ĠF l
ĠL ong
ĠN ov
ect or
ud e
ĠáŁ¡áŁ§ áŁ¤
Ġhe art
Ġch ronic
ĠáŁ¡áŁ©áŁ¦ áŁ¦
out heast
Ġinclud ed
ron t
Ġrec ogn
Ġunder st
Ġsim ulates
ĠBuddh ist
Ġcult ure
Ġser ies
NE T
Ġanal ysis
Ġmemb ers
Ġhaem orrh
Ġsuscept ible
orther n
6 5
R T
b e
Ġ ess
áŀĵ áŀĮ
áŀĻ áŀĶáŀĵ
áŀĶ áŀł
áŀĤ áŀĸ
áŀĩ áŀĶáŀİ
áŀģ áŀĴáŀĺ
áŀĵáŀĢ áŀľáŀĦ
Ġáŀ¡ áŀĦ
or age
áŀļáŀı áŀĶ
Ġf ind
áŀ¯ áŀĢáŀŁ
Ġd oc
áŁ¢ áŁ¤
áŁ£ áŁ¤
Ġh ttp
ĠA c
ĠA ir
Ġre ad
Ġe ither
ag ed
est s
Ġcom mercial
ĠáŁ¡áŁ¦ áŁ§
áŀļáŀĹáŀĸ áŀļ
ĠCar C
ĠCar L
ĠáŁł áŁ¨
ĠY ork
ĠáŁ¡áŁ©áŁ£ áŁł
Ġdist inct
Ġcap ital
Ġlingu istics
Ġant ib
Ãª n
Ġterm s
Ġschool s
pr il
ĠKore a
ĠBrit ish
c a
n ed
u z
w h
Â Ĵ
Ġ *
áŀı áŀľáŀĵ
áŀĶ áŀļáŀĶáŀĦ
áŀĤ áŀĻáŀĽ
ĠáŀĲ áŀıáŀļ
áŀģ áŀĬ
áŀ¢ áŀľ
ĠáŀŁáŀĺ áŀĻ
áŀĲ áŀĬ
Ġáŀ¯ áŀľ
Ġáŀ¢áŀŁ áŀī
Ġs ound
Ġs ide
it a
ĠC ont
Ġto get
ĠA pril
ĠR oman
ĠB er
Ġis s
ad em
Ġg en
Ġáŀ£ áŀĶ
Ġv and
ĠáŁ¡áŁ¦ áŁ¥
Ġr ange
ĠáŁ¢áŁ¤ áŁ§
à¸² à¹Ħ
áŀĤáŀİ áŀĢáŀĺ
udd ha
ans krit
Ġent er
Ġlevel s
ĠIs ra
Ġthough t
Ġtoget her
4 1
T O
p ro
s elf
u el
Ã §
áŀļ áŀĩáŀĵ
ĠáŀĶ áŀĶáŀļ
áŀĸ áŀŁáŀĺ
áŀĩ áŀĢáŀļ
áŀĵáŀĢ áŀķáŀĽ
áŀĮ áŀī
Ġs ev
Ġc ode
it ing
it ch
Ġáŀ± áŀļáŀĺ
Ġin ternational
Ġf ive
Ġf urther
à¸ Ĥ
ĠS chool
us e
ol a
ĠM al
ĠR ed
ĠB o
im ately
ot s
ĠáŁ¡áŁ¢ áŁ¦
ĠáŁ¡áŁ¦ áŁ¤
ĠáŁ¡áŁ¦ áŁ¨
ĠCh rist
ĠáŀĢáŀı áŀī
áŀĵáŀĢáŀĵ áŀĤáŀļ
Ġr ather
ell ing
Ġ201 4
ĠáŁł áŁ¤
cc ording
Ġ6 0
Ġres ist
Ġle ft
Ġdi arrhoea
Ġ197 0
Ġ197 5
Ġmon th
Ġmus ic
col or
ĠAf ric
ynast y
4 9
6 6
D E
g n
p id
áŀı áŀļáŀŁáŀĺ
áŀĺ áŀļáŀĢ
Ġáŀĵ áŀĶ
áŀ¡ áŀĵ
áŀĵáŀĢ áŀĸ
áŀĵáŀĢ áŀ¢áŀı
áŀĲ áŀĢáŀĺ
en z
Ġs ch
Ġd ata
ĠC E
áŁ¢ áŁ¦
Ġl o
ĠA fter
Ġn ature
ĠB ang
ĠáŁ¡áŁł áŁ©
im ate
ĠD av
áŀ§ áŀĢáŀī
if y
ab les
ap h
Ġex ec
áŀ£ áŀļáŀłáŀı
ĠáŁł áŁ¦
pl oy
ĠáŁ¡áŁ©áŁ¨ áŁ¡
Ġbec om
Ġj o
Ġknow ledge
Ġind ic
Ġind ust
ĠQ R
bo ard
Ġred uce
Ġserv ices
Ġte ach
Ġorgan ism
Ġvow el
Ġchild ren
Ġsignific ant
7 5
A d
I S
O r
f act
k y
áŀĦ áŀŁáŀı
áŀĦ áŀļáŀĽ
áŀĽ áŀĺáŀı
Ġáŀĸ áŀĳ
áŀĩ áŀĴáŀĺ
Ġw he
Ġw id
Ġf ocus
as ion
as ites
Ġm ount
Ġto o
Ġl ive
ĠT our
Ġh al
ac es
ĠáŀŁáŀł áŀĤáŀĺ
oc rat
Ġe mer
ĠL i
Ġáŀ£ áŀī
ĠáŁ¡áŁ¡ áŁ©
ĠáŀĢáŀļáŀİ áŀĴáŀĺ
Ġcl aim
Ġpl ant
Ġpr inc
Ġtr ade
Ġind ivid
Ġpol ic
ĠInd ia
Ġresp ect
ĠLe ague
Ġcult ural
Ġnec ess
Ġbacter ia
Ġfeather s
; "
S h
g ed
h ik
m e
Ġ æ
áŀ¶ áŁİ
áŀı áŀĢáŀļ
ĠáŀĲ áŀĶ
áŀĹ áŀĶ
áŀĹ áŀľáŀı
he a
áŁĬ áŀ¶áŁĨ
ĠáŀĻáŀĢ áŀĺ
ar ian
Ġc r
Ġc yc
it ted
áŀŁáŀĺ áŀĹ
Ġp ub
Ġb ord
Ġm y
Ġm em
Ġm echan
ĠC rystal
Ġl oss
ĠS am
Ġh ard
ol f
Ġn eg
ir atory
um e
Ġal most
ĠáŁ¡áŁ¡ áŁ¡
ĠJ une
ak en
ĠáŁ¡áŁ£ áŁ¢
ĠáŁ¡áŁ£ áŁ£
ap e
Ġint eg
ĠáŁ¡áŁ©áŁ¨ áŁ¦
ĠFran k
Ġtrans l
Ġdef in
Ġacc ording
Ġresp ons
Ġred uced
Ġequ al
Ġeffect ive
Ġfore ign
ĠKore an
Ġcour t
Ã« l
Ġturke ys
3 6
4 8
k a
r ast
y t
áŀĦ áŀĲ
áŀı áŀļáŀĢáŀĺ
áŀĳ áŀŁáŀĢ
áŀł áŀĻ
áŀĴ áŀĢáŀĺ
Ġ) ÂĴ
he v
áŀļáŀĺ áŀŁ
Ġf aec
áŀ¯ áŀĢáŀĳ
Ġd rop
as c
as p
áŀĽáŀĦ áŀļ
ent ion
Ġl et
ĠT al
ĠH ouse
ce an
un t
Ġcon cept
Ġst orage
ĠJ an
ain t
ĠáŁ¡áŁ©áŁ§ áŁ¢
Ġhe alth
áŀ£ áŀī
ĠáŁł áŁ£
Ġen g
Ġle ast
Ġso il
ĠáŁ¡áŁ©áŁ¢ áŁł
Ġrel ations
Ġprov ide
ĠáŁ¡áŁ¨áŁ¦ áŁ£
ĠCom p
Ġnew s
Ġpo or
Ġconsid er
Ġproble ms
oo ks
Ġeconom ic
Ġvacc ine
Ġobs erv
1 00
3 00
7 8
8 2
I V
S pec
U N
c hes
f ace
f ess
g es
Ġ ut
áŀ¶ áŀ»áŁĨ
áŀ· áŁĶ
áŀĻ áŀĢáŀļ
áŀŁ áŀĶáŀĵ
áŀĶ áŀĭ
áŁĨ áŀ»
áŀĤ áŀĦáŀħ
áŀī áŀľ
ĠáŀĽ áŀı
ĠáŀĽ áŀĽ
ĠáŀĹ áŀľáŀıáŀİ
áŀļáŀŁ áŀī
Ġt reatment
áŀĥ áŀĢáŀĺ
áŀļáŀĩ áŀĩ
ic ult
Ġf und
à¸ Ĭ
à¸ ĭ
Ġm ind
Ġm aking
il es
ro te
ĠS anskrit
ĠT o
et e
áŀļáŀ¢ áŀĴ
ĠM ed
ĠP ark
ot ype
Ġe at
ag u
ĠH T
ĠI m
ĠF acebook
ĠG o
Ġpro ject
Ġáŀ¯áŀĢ áŀ¯áŀĦ
ĠJ ong
ĠCar F
ĠáŁ¢áŁ¤ áŁ¦
ough t
ĠáŁ¡áŁ©áŁ¤ áŁ¢
Ġab ove
Ġph ot
ĠPh il
row n
Ġprov ided
Ġear th
Ġdef e
Ġthrough out
Ġvi ol
Ġallow ed
Ġhig her
ĠWind ows
6 4
o zo
áŀļ áŀļáŀĦ
áŀļ áŀĬáŀĽ
áŀĻ áŀĻáŀŁáŀļ
áŀĺ áŀĩáŀĵ
áŁĭ áŁĤ
ĠáŀĶ áŀĹ
áŀħ áŀĻáŀŁáŀĺ
Ġáŀ¢ áŀľáŀĢ
Ġáŀķ áŀĤ
áŀĵáŀĢ áŀĦ
in i
in ent
at ors
ic ation
Ġf ung
à¸ ł
ĠC a
ĠC al
Ġh ours
áŀĸáŀĽ áŀĹ
ĠM e
Ġre ason
ĠR iver
ĠE U
Ġáŀ¢áŀĹ áŀĻ
Ġg re
ag o
áŀ§ áŀĶáŀļ
ĠG ames
ĠL ord
Ġas h
th umb
Ġwh ole
ĠEvil D
Ġsu gg
Ġ201 5
Ġ201 7
ĠáŁł áŁ©
Ġcont amin
ĠáŁ¡áŁ©áŁ¥ áŁ©
Ġfl o
enc ed
Ġprov inc
anc es
Ġac ute
Ġent ire
Ġes c
Ġimp lement
Ġcol on
ĠGr and
Ġlingu istic
Ġtrad itional
Ġarchitect ure
Ġcomput er
Ġestab lished
ĠMinist er
ourn al
ĠIndoch ina
ĠRou ge
Ġindivid ual
' re
C D
H P
K h
W e
h ing
k now
v ed
y per
z e
ä »
Ġáŀ¢ áŀĻáŀŁ
áŀĳ áŀļáŀĢ
Ġáŀĩ áŀľáŀĵ
áŀĤ áŀĤáŀłáŀĶáŀı
áŀī áŀľáŀĵ
áŀģ áŀĢ
áŁī áŁĲ
Ġt ax
en n
ar u
ic ism
Ġf ather
Ġb re
ro y
ĠáŀķáŀĽ áŀĢáŀĺ
ĠT a
Ġh ab
ol ds
ĠM ag
ĠM art
ĠM ont
Ġn ever
Ġáŀ¢áŀļ áŀī
ĠE c
Ġg et
ĠG al
ĠK ong
Ġ19 50
Ġ19 80
se qu
ĠáŁ¢áŁ¥ áŁ¦
ĠáŁ¢áŁ¤ áŁł
Ġform er
ib ility
áŀıáŀĩ áŀĦ
Ġ200 2
Ġout side
áº £
Ġact iv
ĠPro v
Ġsur v
Ġincre ase
Ġcontin u
Ġcond itions
Ġlibr aries
Ġbroil ers
T A
f ruit
g er
i us
r ich
Ġ i
áŁ Ŀ
áŀĶ áŀĶáŀī
ĠáŀŁ áŀĻ
ĠáŀŁ áŀĬ
áŀĬ áŀĢáŀŁ
áŀļáŀĶ áŀģáŀİ
in ts
it ation
Ġp ort
Ġd one
Ġl ower
ĠáŀķáŀĽ áŀĳ
ĠáŀĸáŀĽ áŀ¡
ĠM ount
ĠáŀŁáŀł áŀĴáŀĺ
Ġáŀ§áŀĳ áŀĻ
ĠN ot
ĠáŁ¡áŁ¢ áŁ©
Ġst age
ĠáŁ© áŁłáŁł
ĠáŁ¡áŁ¤ áŁ©
Ġcom e
Ġde ep
ĠáŁ¡áŁ¦ áŁ£
oun ced
Ġ4 5
Ġse ed
áŀłáŀļáŀİ áŀĢáŀĺ
Ġ7 0
ĠáŁ¡áŁ©áŁ¨ áŁ¢
Ġpr on
Ġab le
ĠáŁ¡áŁ©áŁ£ áŁ©
Ġlar v
ĠAl though
Ġam ount
ĠMar ch
II I
Ġadd ition
Ġbu ilt
Ġconc ern
ĠOr c
Ġgroup s
ïĥ ĺ
Ġrelig ious
ĠChar les
ĠJul y
ĠIsra Ã«l
8 4
C ol
S I
p ress
Ġ 01
áŁ Ļ
áŀĦ áŀĻ
áŀŁ áŀŁáŀĺ
áŁģ áŁģ
ĠáŁ Ĥ
áŀł áŀĴ
áŀļáŀİ áŀĢáŀŁ
áŀĩáŀĵ áŀļáŀŁ
Ġs el
Ġs aw
ar b
ar ily
it er
áŀļáŀı áŀĳ
Ġáŀ± áŀĺ
Ġw ant
ĠáŁ¤ áŁłáŁłáŁłáŁł
ic ient
ĠC ity
Ġl ine
oc ene
Ġth ings
ĠB r
ĠB ec
ur i
ĠF rost
ĠJ ames
ĠáŁ¡áŁ§ áŁ£
ĠáŀļáŀĲ áŀĢ
à¸²à¸ ĩ
ĠáŁ¡áŁ©áŁ¥ áŁ¢
ĠáŁ¢áŁ¢ áŁł
ĠáŁ¡áŁ©áŁ¢ áŁ§
Ġinv est
ĠáŁ¡áŁ©áŁł áŁ¤
Ġfollow ed
Ġwrit er
Ġconst it
rem e
Ġrequ ired
Ġneed ed
Ġke ep
A s
B M
C ambod
c on
g o
k in
k ed
Ġ ran
áŀĺ áŀļáŀĶ
áŀĶ áŀ¥áŀı
áŀ¸ ,
Ġáŀ¢ áŀĮ
áŀ¢ áŀļáŀŁ
ĠáŀĻ áŀĺ
ar ia
al y
or ds
Ġin equ
áŀ¯ áŀİ
Ġto ok
Ġto tal
Ġl at
ĠS K
ol y
et le
Ġre se
ĠB ill
ly mp
iv ate
ĠH o
ĠH igh
ĠH ong
ĠI S
áŀŁáŀľ áŀĴáŀĺ
ay o
áŀıáŀļ áŀĵ
ĠJ ean
Ġform s
áŀīáŀĺáŀĢ áŀĸ
ĠáŁ¡áŁ©áŁ¥ áŁ¦
Ġáŀļáŀıáŀĵ áŀĤ
Ġen v
ĠáŁ¡áŁ©áŁ¨ áŁ¥
ĠáŀĵáŀĤ áŀļáŀŁ
ĠáŁ¨áŁł áŁ¢
Ġprod uced
au gh
Ġvar iety
Ġdep ression
Ġphilos oph
Ġimp ro
Ġincre asing
Ġcell s
Ġdesign ed
Ġgo ing
Ġmov ement
Ġmus c
ĠComm un
Ġet c
Ġcur rent
Ġbreed ers
4 2
4 6
7 2
8 1
I nd
M L
b urg
h arma
ä º
áŀĺ áŀ¢
áŀĬ áŀĺáŀŁ
in ate
Ġáŀ¯ áŀŁ
re g
it or
Ġw et
ou v
ĠS port
áŀĢáŀĤ áŀĤ
ul ated
ĠâĢ¦ .
Ġis ol
áŀĻáŀĶ áŀī
Ġe p
od h
ĠáŁ¡áŁ¥ áŁ¡
ra k
Ġwh ose
ill ed
rom e
ap er
ĠáŁ¡áŁ©áŁ§ áŁ¡
Ġ3 00
ri p
Ġhe av
ĠáŁ¡áŁ©áŁ¥ áŁ¡
orm al
ne y
à¸Ń à¸ģ
Ġthere fore
Ġacc ess
________________ ________
________________ ________________________
Ġbuild ing
Ġfunct ion
ĠEar th
Ġdiff icult
) "
7 6
7 7
L a
M ah
O C
c ious
o res
p on
w atth
Ġáŀĸ áŀĽáŀĳ
áŀħ áŀļáŀı
áŀĸ áŀĻ
Ġáŀļ áŀĶáŀļ
áŁī áŁĪ
Ġt end
at ical
Ġáŀ± áŀŁ
áŀŁáŀĺ áŀĲ
Ġw ood
Ġp red
Ġf av
Ġb hik
ou ther
áŀŁáŀĦ áŀĸ
ro ad
ĠC hen
ĠC yst
áŁ¢ áŁ¢
Ġl abor
ĠA M
ĠM c
ĠM any
ĠáŀŁáŀł áŀļ
os p
áŀļáŀĤ áŀİáŀĵ
ĠE lement
ĠáŀĬáŀĦ áŀķ
ĠI M
ĠáŁ¡áŁ¥ áŁ©
ra ke
ak h
áŀ¥ áŀ¡
pp er
____ _
Ġnot e
ha i
ĠáŁ¢áŁ¤ áŁ¥
ĠáŁ¡áŁ©áŁ¦ áŁ¤
Ġse par
Ã© e
Ġu nd
Ġ18 6
á» ĭ
Ġinf ected
Ġpre vious
Ġgr ound
Ġrem ains
Ġhigh ly
ĠMar s
Ġphilos op
201 7
Ġ50 30
Ġsecond ary
ĠKing dom
Ġáŀ¯áŀıáŀĳ áŀĤ
erg y
Fran ce
Ġenl arg
Ġnov el
Ġinform ation
sy ch
ocrat ic
________________________________________ _____
outher n
Y LI
p x
s k
Ä ĥ
å ľ
áŁĴ áŁĤ
áŀŁ áŀľáŀĵ
ĠáŀĶ áŀĢáŀı
áŀĵáŀĢ áŀĨ
áŀļáŀĶ áŀı
Ġa ff
áŀĶáŀı áŀĵ
on ic
er ous
at o
at eg
at ively
Ġs old
ar o
it o
it z
Ġf ull
as tern
ĠC ouncil
ĠS I
ĠT an
om et
ĠM iddle
Ġre ached
oc al
ĠR X
ĠR es
áŀļáŀĤ áŀĺáŀĵ
Ġ2 9
ĠP res
id i
Ġ? )
ĠáŁ¢áŁł áŁ¥
Ġv ol
ith m
ĠW est
th ing
Ġst ates
ĠEvil G
ĠáŁ¡áŁ£ áŁ©
ri e
og le
og enic
Ġr ad
ĠO lymp
ĠáŁł áŁ§
áŀĺáŀī áŀī
ĠáŁ¢áŁ¤ áŁ£
Ġcan not
ik a
Ġ200 4
Ġint rod
ĠáŁ¢áŁ£ áŁł
Ġfe el
Ġcons ist
ĠAs ian
Ġocc up
ann el
Ġprod uce
ci ence
ĠAr menia
eth ing
Ġra pid
sc ript
ĠÃ ·
Ã¨ re
Ġref us
Ġsoc iety
rac y
arv ard
Ġpress ure
ĠSK YLI
Ġrese arch
ĠSKYLI NE
3 8
A M
A S
P ro
S o
a is
l ad
w an
w ing
å ı
Ġ ur
áŀŁ áŀĺáŀĢ
áŀī áŀī
áŀİ áŀĦáŀĶ
Ġáŀı áŀĻ
áŀĬ áŀł
ĠáŀĽ áŀĽáŀĢ
Ġt ext
Ġs an
Ġs at
Ġs cient
it an
Ġw rote
Ġp a
Ġf ar
Ġb atch
áŀĺáŀł áŀĵ
ĠM ad
Ġth ird
ĠR S
ur ity
ig ayo
ir ds
ot ed
ĠáŀļáŀĶ áŀĢáŀĤ
ĠD el
ag en
op e
ov iet
ĠáŁ¡áŁ£ áŁ¡
ĠO ct
per ial
ĠIn t
ĠáŁ¢áŁ¤ áŁ¤
iz ing
Ġ200 5
Ġfe atures
Ġcomp lex
à¸ģ à¸¥
Ġapp lic
Ġgr ad
Ġspec ial
the m
ĠRe ich
à¹Ħ à¸Ķ
ÃŃ a
ĠáŁłáŁł áŁ¤
Ġlay ers
Ġrequ ire
Ġcomplet e
Ġoper ation
Ġorig in
Ġkill ed
ĠNg uyen
Ġbeliev ed
Ġvand alism
Spec ial
Ġinequ ality
watth ama
" "
4 3
7 9
8 3
? )
N g
T r
c ont
l et
o ber
p ose
t i
v an
Ġ _
ĠáŀĶ áŀĲ
ĠáŀŁ áŀ§áŀĶ
áŀĳ áŀī
áŀĸ áŀł
áŀļáŀŁ áŀłáŀĢ
Ġt rain
he st
áŀļáŀĺ áŀĦ
on a
Ġs ol
ar ing
al ysis
Ġáŀĩáŀĵ áŀĽ
Ġw ild
Ġáŀĺáŀł áŀĵ
áŀļáŀĬ áŀĢáŀł
ĠâĢ į
Ġp ast
Ġb orn
áŀĢáŀĬ áŀĶ
ing er
Ġd ig
Ġd ocument
Ġd ynasty
ou d
ou pe
Ġm er
Ġm ass
áŁ¢ áŁ£
Ġh atch
ĠA wards
ĠM ark
Ġn ight
le an
ĠB BC
ĠB TS
ĠáŀĶáŀĳ áŀĹ
Ġ! Â»
ag er
st ruct
Ġáŀ¢áŀĶ áŀ¢áŀļáŀŁ
ra ft
Ġv ideo
av es
ĠáŁ¡áŁ¤ áŁ¡
ant ic
ap s
ĠáŁ¡áŁ©áŁ§ áŁ¤
Ġhe ld
Ġsp ray
Ġk ind
ĠáŁ¡áŁ©áŁ¥ áŁ§
ue en
ĠáŁ¡áŁ©áŁ¨ áŁ¨
Ġpart y
rol et
ĠáŁ¡áŁ¨áŁ¦ áŁ§
Ġam b
à¸Ļà¸ Ķ
Ġsom ething
Th is
Ġspe ech
Ġreport ed
Ġhistor ical
Ġsymbol s
Ġchang es
ĠHist ory
ĠRev olution
ĠOct ober
% )
b all
c he
e um
i ec
n om
u is
u pp
Ä «
áŀ· ,
áŀĽ áŀļáŀĺ
áŀĻ áŀĴ
Ġáŀĵ áŀĺáŀŁ
ĠáŀŁ áŀĩ
áŀľ áŀŁáŀĺ
Ġáŀĩ áŀĤ
áŀī áŀŁ
áŀĵáŀĢ áŀĻ
áŀĲ áŀĳ
Ġt roop
Ġt aken
Ġa way
áŀļáŀĺ áŀļ
Ġ" (
Ġs ac
Ġs ite
Ġs ix
al i
Ġc hem
Ġp or
Ġp ut
Ġf ut
Ġf ight
ĠS an
ĠS outheast
Ġh yp
ĠA ct
ĠR ec
ĠR ome
ĠB ell
id er
ĠáŀĢáŀĦ áŀħáŀĢ
ut ions
ch iev
ĠN ations
Ġpro b
if orn
ant a
ĠEvil N
Ġde b
Ġr out
ĠáŀĶáŀĭáŀĺ áŀī
ĠIn stit
ub e
oy d
ĠáŁ¢áŁ£ áŁ¦
Ġ7 5
Ġag re
br uary
ĠáŁ¡áŁ©áŁ¢ áŁ¥
ci pl
Ġrec ord
Ġdef iciency
Ġsub ject
ĠInd ian
Ġdi agn
Ġac cept
Ġresp iratory
ĠBe etle
Ġsur face
ĠGr oup
Ġfore st
ĠGe orge
Ġstruct ure
Æ¡ n
Ġmach ine
ĠCarC hev
ĠJan uary
áŀĳáŀļáŀĢ áŀĲ
ĠProv ince
Ġtroop s
iforn ia
ĠCarChev rolet
A R
E n
F I
I s
S igns
i ant
l oyd
o ff
p re
r ated
u ong
Ġ er
Ġáŀ ¶
áŀļ áŀĤáŀı
áŀĦ áŀĹ
áŀĽ áŀĴáŀĵáŀī
áŀ» áŀ¶áŁĨ
áŀģ áŀļáŀĶ
áŀĵáŀĢ áŀĶáŀĵ
áŀĲ áŀľ
re ct
ĠáŀĶáŀļ áŀĵ
is k
Ġs it
Ġs ha
âĢ Į
ar ge
ic ros
Ġb i
ing ton
el et
Ġm ove
ĠC H
áŁ¢ áŁ¡
Ġh our
Ġh old
oc occ
Ġ. ,
ĠP ers
ir it
ot ic
áŀ§ áŀŁ
um ours
Ġv ict
and er
Ġan im
ĠV i
ill a
ĠCh ang
Ġcont ain
áŀįáŀĵ áŀĹ
Ġar my
ĠTh at
Ã© n
Ã© s
ĠáŁ¢áŁ¢ áŁ§
Ġcl os
Ġag o
Ġso ft
Ġpe ace
Ġla un
Ġinter est
Ġdec re
Ġlead er
ĠGu ard
Ġide a
Ġide as
ĠPe ople
Ġsuccess ful
Ġsour ce
Ġconson ant
Ġbegin ning
Ġassoci ated
5 00
7 1
D N
c an
f ect
i ro
i ers
p art
Ķ Ģ
áŀĦ áŀĻáŀĵ
áŀı áŀĦáŀĺ
áŀı áŀĬáŀĳ
áŀľ áŀļáŀĢáŀļ
ĠáŀĽ áŀľ
áŀģ áŀŁáŀĺ
áŀĴ áŀłáŀı
áŀĴ áŀľáŀħáŀĵ
áŁĢ áŁĴ
áŀĵáŀĢ áŀĽáŀĵ
áŀļáŀŁ áŀĽ
in ter
áŀļáŀĳ áŀĶ
at i
is es
Ġs um
Ġs ense
it ter
áŀļáŀı áŀľ
Ġb ed
Ġd er
Ġm ix
ĠC an
Ġto p
Ġl ook
ĠS oviet
ĠT s
ac y
ĠÂ ĳ
le g
ad ing
ce ed
Ġ19 60
Ġáŀ¥áŀİ áŀĳ
à¹ Ĥ
est ival
ĠáŁ¡áŁ¦ áŁ¡
Ġ3 2
Ġr ules
áŀ£ áŀĵ
Ġ]] (
one y
Ġfe ature
Ġpart s
Ġits elf
ĠPh ot
Ġem ploy
Ġrel ated
Ġlit tle
Ġserv ed
Ġhim self
iel ds
Ġfil ms
aem ia
ĠTha i
ĠGi ant
Ġbuild ings
Ġdiv ided
Ġprim ary
Ġeff ort
ĠAust ral
Ġrece ived
Ġevent ually
ĠDav id
Ġhal f
Ġfaec es
L E
O D
O M
c ast
d er
e in
h yd
l ied
o i
o is
u j
å ħ
Ġ era
áŀ¶ áŁĩ
áŀļ áŀ¢áŀī
áŀı áŀĶáŀĳ
áŀ» áŁĴ
áŀ¸ .
ĠáŁ ĺ
Ġáŀ¢ áŀķ
áŀĸ áŀĹ
áŀ½ áŀ½
áŀİ áŀļáŀĤ
áŀĩ áŀŁáŀı
áŀĴ áŀĻ
áŀ¡ áŀľ
Ġ( ,
áŀĭ áŀĦ
in n
Ġáŀ§ áŀĩ
er o
at in
Ġáŀ¥ áŀĴ
Ġs in
Ġp ale
Ġf re
Ġf ield
Ġf oot
Ġd ro
Ġd ie
Ġm iddle
il oid
om a
ĠM C
oc racy
Ġn amed
ĠB u
ul k
ul ating
ĠáŀĶáŀĳ áŀĺáŀĵ
im er
ot hes
iv an
Ġfor ce
em s
ĠG ar
ĠL loyd
ra p
est odes
Ġwh ite
ĠEvil M
áŀ¥ áŀĳ
ian e
Ġcl in
ack fruit
ex ic
oll en
Ġtr ac
ĠPh u
Ġro d
Ġreg ions
ung s
rough t
ĠZ h
Ġrem ov
Ġac ross
read y
201 8
Ġbro ad
ĠRo bert
áŀĹáŀĤ áŀľáŀĵ
Ġdet erm
Ġmed ia
aut iloid
Ġval ue
Ġestab lish
Ġmat hem
opl as
Ġunderst and
Ġdoc tr
Ġwhe ther
à¸ł à¸²à¸
Ġbhik kh
ĠElement al
" ).
6 9
F L
P e
Q u
c is
c her
f ord
r d
w a
á ¹
â ĶĢ
æ ²
Ġ ill
áŀĦ áŀħáŀĵ
áŀħ áŀŁáŀĺ
Ġáŀ¢ áŀĽáŀĦ
Ġáŀļ áŀĤ
áŀ¹ áŁĴ
áŀĴ áŀĶ
ĠáŀĴ áŀı
áŀĵáŀĢ áŀī
Ġa chiev
áŀļáŀĺ áŀļáŀķ
er os
áŀŁáŀĵ áŀĬ
en ment
is ation
Ġs ize
Ġc ities
Ġc odes
Ġof fer
ic ated
Ġf em
Ġd en
Ġm ight
Ġm other
ĠS a
us ion
ol ic
os a
Ġn uc
Ġth ing
ĠB ush
ĠB attle
ul f
ĠP y
ĠâĢ¦ .)
ĠáŀĶáŀĳ áŀŁáŀĺ
ag ement
ĠH ol
ĠK amp
ĠáŁ¡áŁ¨ áŁ¡
ĠáŁ¡áŁ¢ áŁłáŁłáŁłáŁł
ect ic
ia ble
Ġáŀĺáŀļáŀİ áŀĵ
Ġcom o
ĠV ir
res h
Ġhe at
Ġex c
ĠáŀļáŀĲ áŀĳ
ĠáŀĬáŀĢ áŀĲáŀĻ
áŀĺáŀĹ áŀĸ
ight enment
Ġcont aining
Ġ% )
ism o
ĠSt ate
ĠáŁ¡áŁ©áŁ¥ áŁ¨
orm s
Ġfl u
áŀļáŀļáŀĢ áŀŁ
Ġev ents
à¸Ļà¸ Ĺ
uy á»
Ġwrit ing
Ġáŀ¢áŀĶáŀļ áŀĵ
Ġte ac
umb us
ïĥ ¼
Ġemb ry
Ġinit ial
Ġexperi ence
Ġdest roy
ĠFe bruary
á»ĵ ng
Kim igayo
5 5
6 7
A ll
C on
P P
i ang
i Ã³n
l ar
p ect
s w
w ood
à ¥
ï ģ
Ġ ult
Ġáŀ ¸
áŀ¶ áŁĭ
áŀĵ áŀĴáŀĺ
áŀĦ áŀĻáŀī
áŀ· .
áŀĽ áŀļáŀĵ
áŁģ )
Ġáŀĺ áŀī
áŀĤ áŀĴáŀĺ
áŀģ áŀŁáŀħ
áŀģ áŀĻáŀī
áŀĴ áŀĴáŀĺ
áŀĵáŀĢ áŀ¢áŀŁ
áŀļáŀĢ áŀĦ
ĠáŀĺáŀĢ áŀĶ
en ing
Ġáŀ¥ áŀĺ
áŀĶáŀĵ áŀĶ
Ġs il
ĠâĢ ĺ
as a
Ġm inist
Ġm ember
ĠS Æ¡n
ĠáŀĦ áŀĶ
ĠT e
ĠáŁ¦ áŁłáŁłáŁł
áŀĵáŀĢáŀĶ áŀĬ
et work
ĠM at
Ġth ous
ĠR uss
ul us
im ent
Ġg overn
ag g
áŀĢáŀĶ áŀĸ
ĠF I
ĠáŁ¢áŁł áŁ¨
un os
ist an
Ġon ce
Ġbe ings
Ġv ersion
ĠW y
áŀĽáŀĺáŀĢ áŀĢ
Ġáŀª áŀ¡
ĠáŁ¡áŁ¦ áŁłáŁł
ap ed
ich a
se e
ost ic
ell ion
áŀ£ áŀı
Ġus er
Ġcont rast
Ġform al
Ġun a
ĠáŁ¡áŁ©áŁ¨ áŁ¤
Ġel ements
ĠAs h
Ġapp oint
ĠáŁ¡áŁ©áŁ¢ áŁ¢
Ġreg ular
ann a
ĠáŁ¡áŁ¨áŁ¦ áŁ¢
anc he
Ġoff ice
Ġsim ple
Ġgener ally
Ã¢ n
Ġpos ition
Ġloc ated
ĠáŁ¡áŁ¡áŁ¨ áŁ¡
Ġliter ature
0000 00
Ġeduc ation
ĠNov ember
Ġnecess ary
Ġpub lished
ĠBec ause
, "
4 7
6 8
7 4
F or
I M
P l
b ear
i ern
m age
o on
u le
w ide
x imately
y i
à »
å į
ç İ
Ġ à¸ŀ
áŀĺ áŀĩáŀĢ
áŀŁ áŀĻáŀĵ
Ġáŀĳ áŀŁáŀĺ
Ġáŀ¢ áŀľáŀĵ
áŀĤ áŀħáŀĵ
Ġáŀģ áŀĽ
áŀ¡ áŀĬ
áŀĭ áŀŁ
ar in
it iz
Ġb o
Ġd ried
ou k
à¸ ¨
il m
ĠC am
ĠS ince
áŁ£ áŁ¨
ĠT err
ĠÂ Ń
ur ies
ĠáŁ¡áŁł áŁ¥áŁł
id ing
ir l
ir m
ĠD uring
ĠD NA
ĠáŁ¢áŁł áŁ¤
Ġal ready
est ine
ong s
Ġr ul
Ġr iver
ĠáŁ¢áŁ¥ áŁ¥
Ġsp le
ren g
ub ation
ĠáŀĻáŀŁ áŀŁáŀĢ
ĠáŁ¢áŁ£ áŁ£
ĠáŁ¢áŁ£ áŁ¤
reat y
Ġcl ose
iss ance
Ġph on
Ġtr act
Ġ9 0
áŀĩáŀĤ áŀł
ĠáŁ¡áŁ©áŁ¡ áŁ¤
ĠáŁ¡áŁ©áŁ¡ áŁ§
ĠAmeric a
ĠLe e
Ġserv ice
ict ion
áŀĹáŀĤ áŀľáŀı
Ġbel ow
Ġlead ing
ek ong
emb ly
Ġsa f
Ġpos itive
Ġlay er
Ġleg s
yp es
Ġident ified
Ġconsum ption
Ġvow els
SE T
ĠAss oci
Ġconson ants
iron ment
Ġdescrib ed
ĠChrist ian
Ġcyc le
know n
Ġlarv ae
Ġphilosoph ical
Ġenlarg ed
icros cop
Ġanim als
âĶĢ âĶĢ
6 3
A t
A nd
B l
F igure
G T
J ohn
V ol
] [
b or
i as
l am
n ight
áŀĦ áŀļáŀı
áŀĢ áŀĺáŀĢ
ĠáŀĤ áŀŁ
áŀĹ áŀļáŀİ
áŀĹ áŀľáŀıáŀİ
áŀĵáŀĢ áŀĥ
ĠáŀĨ áŀĶ
áŀĮ áŀĸáŀĽ
at al
ĠáŀĻáŀĢ áŀĺáŀł
is l
ar ant
Ġc ut
Ġc ases
it t
Ġw ent
Ġp itch
Ġb us
Ġto wards
ĠS ir
ĠS un
Ġ1 20
Ġh ot
om p
ĠA v
áŀĢáŀĤ áŀłáŀĶáŀı
ol ars
le ft
ĠP aul
ĠáŀĤáŀİ áŀĹ
Ġg ave
ĠD es
ĠF ar
un a
ĠG l
Ġáŀ£ áŀļáŀłáŀı
ra f
Ġv itamin
Ġv oice
ĠW ith
Ġan them
ov ered
ov irus
ĠV an
ill s
ĠJ ac
ĠJ ava
ri or
ĠO gre
áŀ« áŀı
Ġk m
per ception
Ġch icks
ĠIn f
Ġcont act
Ġnot hing
Ġdis e
Ġ5 5
Ã© x
Ġ6 5
Ġag es
Ġ8 0
ose ph
ĠáŁ¡áŁ©áŁ£ áŁ¢
ĠAr ch
ĠAr my
Ġprov ince
rib ution
ĠPro t
Ġacc ount
à¸¢ à¸²à¹Ħ
Ġmod el
Ġpres ident
ash ington
ĠSe a
ï¼ Ī
ï¼ ī
Ġvirus es
ĠáŁłáŁł áŁ£
arch y
à¹ģ à¸¥
Ġcharacter istic
vers e
Ġmaterial s
gl ass
Ġwid ely
Ġfut ure
icha el
4 4
7 3
E V
E x
I f
W h
a it
i res
s er
u ation
u fact
v i
Ã ¬
Ġ rain
Ġáŀ ©
áŀļ áŀļáŀı
áŀĽ áŀĢáŀŁ
áŀĺ áŀľáŀĵ
áŀĳ áŀĴáŀĺ
áŀİ áŀŁ
Ġáŀı áŀĺáŀł
ĠáŀĤ áŀħ
áŀģ áŀ¢
Ġáŀķ áŀı
áŀĵáŀĢ áŀ¯áŀĢáŀĳ
áŀļáŀĦ áŀĵ
Ġt ree
in ary
áŀĮ áŀļ
áŀĮ áŀĹ
Ġo ed
áŀĦáŀĢ áŀĦ
Ġáŀ§áŀĶ áŀĶ
Ġf an
Ġb ook
Ġb ooks
Ġd am
el t
à¸ ĸ
Ġm uc
áŀŁáŀĽ áŀĴáŀĺ
ent e
Ġl as
ĠT V
ev en
am ples
us se
ĠA ccording
et te
ĠM ost
os ition
Ġn ation
Ġ. [[
ĠP ort
ĠH ind
um ents
ĠN ic
Ġst rain
ud a
Ġan cient
ri an
ri end
Ġsu per
ph as
Ġ5 00
à¸²à¸ ¡
Ġáŀļáŀıáŀĵ áŀı
Ġsy nd
ĠáŁ¡áŁ©áŁ¨ áŁ§
ĠáŁ¢áŁ¦ áŁ¥
Ġcomp on
Ġfl ies
Ġfl ocks
Ġso on
]] .
à¸Ń à¸¢
ann ed
au x
Ġup on
Ġact ive
Ġdist ingu
à¹Ħ à¸ĭ
ient iane
Ġsur round
Ġcap t
Ġneed s
Ġmark et
Ġcour se
Ġspe ak
ĠCent ral
ĠTur ismo
Ġhig hest
Ġbas is
ĠSy stem
ĠApp le
Ġru le
ĠJack ie
ĠAc adem
ĠCal ifornia
Ġprovinc es
ĠMart in
ĠPres ident
Ġdiagn ostic
Ġclin ical
iern an
A m
A fter
C C
P ar
T I
b ack
k er
t ext
v a
Ã ¶
Ġáŀ ·
áŀļ áŀ®
áŀĦ áŀ¯
áŀĦ áŀ¯áŀĦ
áŀı áŀļáŀĶ
Ġáŀĵ áŀ¡
áŀĳ áŀĶáŀı
áŀĸ áŀıáŀĳ
ĠáŀĽ áŀĻ
áŀĴ áŀŁáŀħ
Ġáŀľ áŀļáŀľáŀĦ
ĠáŀĨ áŀŁ
áŀļáŀŁ áŀĩáŀĵ
áŀĭ áŀĵ
he t
er re
Ġc rop
it le
Ġf ixed
Ġb ron
Ġb rought
à¸ ĵ
Ġm id
il s
il ities
áŀĻáŀŁ áŀĢ
ĠC O
ent ric
Ġl ib
Ġl ungs
ĠT im
ĠT ra
ĠáŀĸáŀĽ áŀĢ
Ġn ext
ĠE astern
ĠáŀĬáŀĦ áŀģ
ad s
Ġg od
ĠD ep
ĠF irst
Ġfor ced
ist er
um an
ĠG reat
ers on
Ġv ia
ĠV en
ĠCh am
ĠCh Ã¢
ĠO ff
ian ce
Ġáŀ«áŀŁ áŀĤáŀĽ
Ġform ed
ik ip
ub aru
ĠáŀĶáŀļáŀĺ áŀŁ
ult ure
ĠáŁ¢áŁ¡ áŁł
ĠáŁ¢áŁ¡ áŁ¨
ĠáŁ¢áŁ¡ áŁ¦
áŀĴáŀĹ áŀİ
ĠSt alker
Ġáŀļáŀıáŀĵ áŀŁáŀĺ
ip s
Ġen ergy
ok e
ond on
Ġpr ivate
Ġinclud es
ĠáŁ¢áŁ§ áŁł
Ġmost ly
Ġem peror
ĠDec ember
Ġac id
Ġwhere as
Ġpres ence
olv ed
Ġadd ress
Ġpers onal
ĠPal estine
Ġmajor ity
Ġ198 9
ĠâĨ ĳ
Ġshe ll
Ġright s
Ġpract ice
stit ution
áº¡ c
ĠCarS ubaru
Ġsour ces
Ġlim ited
Ġrefer red
Ã² a
Ġleng ua
Ġpolic y
Ġsple en
Ġdise ases
à¸¢à¸²à¹Ħ à¸Ļà¸Ķ
à¹Ħà¸ĭ à¸¢à¸²à¹Ħà¸Ļà¸Ķ
. âĢĿ
B y
F rench
G o
R e
S w
a ult
b idity
g ar
h ib
i y
l ier
p ly
Å į
æ ľ
ï Ģ
Ġ ign
áŀĵ áŀĶáŀĵ
áŀĦ áŀļáŀĦ
áŀı áŀħáŀļ
áŀĻ áŀĩáŀĵ
áŀĻ áŀĴáŀĵ
áŀĻ áŀĤáŀĦ
áŀĶ áŀļáŀĶáŀĶ
Ġáŀĵ áŀŁ
áŀ¸ áŁģ
Ġáŀ¢ áŀĥ
áŀĳ áŀĺáŀĵ
áŀĳ áŀĻáŀŁáŀħ
áŀĩ áŀł
áŀł áŀĺáŀĦ
áŀĴ áŀľ
Ġt our
Ġt rib
Ġt akes
Ġáŀ¯ áŀĸáŀĽ
áŁĬ áŁĨ
an h
al d
Ġc reat
Ġin g
Ġp ot
Ġp ain
Ġp ull
Ġb ur
áŀıáŀĺ áŀı
Ġd ark
Ġd ied
Ġm outh
ĠC ons
ĠC oupe
áŁİ áŁĴ
ĠT rans
ac iation
ĠáŁ¦ áŁłáŁłáŁłáŁł
ĠáŀĸáŀĽ áŀļáŀı
ĠM and
Ġre ach
Ġn orthern
ĠB ern
ul ations
ad es
ĠD rying
áŀĭáŀĢ áŀĲ
Ġcon n
ĠK ir
Ġst ory
Ġ19 20
Ġwith d
ĠEvil C
ĠáŁ¡áŁ¦ áŁ©
ĠJ ust
ĠáŁ¡áŁ§ áŁ©
ĠO b
ĠáŁ¢áŁ¥ áŁłáŁł
ard en
all ed
ĠIn ter
ph on
ĠáŁ¢áŁ¡ áŁ§
à¸²à¸ Ļ
ĠáŁ¢áŁ£ áŁ¢
ĠáŁ¢áŁ¢ áŁ¡
Ġen s
á» ¹
á» ĳ
ĠY oung
Ġpr ice
Ġag ent
ĠáŁ¢áŁ¨ áŁł
áŀĽáŀĹ áŀĳ
ob ile
Ġbl ock
old en
Ġrem ained
Ġexp ress
ĠáŁ¨áŁ¨ áŁ©
ĠCon f
Ġfam il
Ġadd ed
Ġinst ead
Ġlead ers
Ġmain t
ym ph
Ġtyp ically
Ġcontin ued
Ġsmall er
Ġappro ach
erc us
ĠGe org
Ã´ ng
roll ed
Ġtox ic
Ġproduc es
Ġrele ased
Ġindepend ent
ĠÂĴ )
Ġmechan ical
ĠGo ogle
Ġchem ical
usse in
Ġsynd rome
ikip edia
F ile
G M
G e
U S
a ud
a ill
g ress
i end
i Ãªn
p s
r ative
v ern
Ġ {
Ġ ir
áŀŁ áŀħáŀĺ
áŁĦ ,
áŀ¼ ,
áŀĤ áŀŁáŀħ
áŀĤ áŀ§áŀı
áŀĬ áŀı
Ġáŀł áŀĢ
Ġáŀł áŀĤ
Ġt en
Ġt onal
Ġt umours
an o
Ġs ut
Ġc er
it ude
áŀĦáŀĢ áŀļáŀĩáŀĢ
Ġáŀ± áŀĬ
áŀĻáŀĢ áŀĺáŀĢ
Ġf ire
ou ch
ou red
à¸ ¶
Ġm ot
áŀĽáŀĦ áŀĸ
Ġto ol
ĠS en
om in
am an
ol es
Ġre ign
Ġn erv
Ġth ick
áŀļáŀĤ áŀłáŀĶáŀı
ur ch
ĠP rab
ĠD is
ĠD ay
ĠH ussein
áŀ± áŀĵ
ĠF rom
ĠF estival
od ies
ĠL uang
ĠK DE
ĠáŁ¡áŁ¨ áŁ©
Ġv ill
ĠN or
ĠW ashington
Ġal g
Ġáŀª áŀĺ
ĠEvil B
ĠV B
ĠV ientiane
.. ..
ap pe
áŀļáŀĲ áŀĸ
ĠáŁ¡áŁ§ áŁ¡
Ġk ey
ous ly
Ġinc ome
Ġar r
Ġen ough
ep s
Ġcomp il
Ġinf ect
Ġtr ue
Ġqu estion
Ġj ournal
Ġj ackfruit
ĠáŁ£áŁ¥ áŁł
ob al
ĠáŁ¡áŁ©áŁ£ áŁ¦
ci ples
Ġ199 4
Ġ199 9
Ġbet ter
sp ec
ĠáŁ¢áŁ©áŁ §
kh mer
Ġprogram s
land s
Ġadd itional
reed om
Ġmov ed
Ġconc ent
Ġresult s
Ġlarg ely
Ġcoll ection
ĠWh ile
Ġmin or
Ġdr ink
Ġorig inal
Ġconstruct ion
Ġbeh ind
Kh mer
ithm etic
ĠPrab ang
* *
2 000
E v
M S
a ign
e ed
f ield
m in
n ew
s ing
u ated
z ing
å ®
áŀ¶ áŀ¶
áŀı áŀŁáŀĦ
áŀı áŀļáŀŁáŀĢ
áŁĨ áŁģ
áŀ¾ áŁĭ
áŀħ áŀĨ
áŀħ áŀĸáŀĵ
Ġáŀĩ áŀı
áŀĩ áŀĹ
áŀĩ áŀĻáŀĵ
áŁī áŁĢ
áŀĹ áŀĩ
áŀļáŀŁ áŀĴáŀĺ
áŀĭ áŀľ
on ite
re l
an ks
Ġs elf
Ġc am
or ial
áŀŁáŀĺ áŀı
Ġw on
áŀļáŀĬ áŀĳ
ic ian
Ġáŀ§áŀĶ áŀĶáŀı
Ġf ruit
Ġb ran
Ġb one
Ġd ou
Ġm akes
ĠC our
Ġto day
Ġl ik
ĠS E
ĠS ha
áŁ¤ áŁł
Ġh a
ac ific
om atic
ĠM ass
Ġre ally
Ġg ross
Ġg reen
ĠD harma
ĠH a
em at
áŀĺáŀĳ áŀĦ
ĠG reen
Ġáŀ¢áŀĶ áŀ¢áŀļ
Ġst un
Ġan aemia
ĠáŀĶáŀĭ áŀĺáŀĢ
ĠáŁ¡áŁ§ áŁ¢
ĠO ut
Ġy et
Ġus es
Ġk id
áŀħáŀŁ áŀŁ
áŀĢáŀĹ áŀľ
áŀīáŀĺáŀĢ áŀĬáŀĽ
ĠáŁ¢áŁ£ áŁ¥
ĠáŁ¢áŁ¢ áŁ¥
Ġad op
ĠáŁ¢áŁ¦ áŁł
ĠáŁ£áŁ¢ áŁł
ail y
Ġqu ick
Ġapp e
àº ²
Ġrel ative
ug bear
Ġrec omm
Ġ199 3
ier re
ĠáŁ¤áŁ¥ áŁłáŁłáŁł
Ġsc ript
201 4
Ġinst ance
ene f
Ġra re
Ġ195 4
Ġ250 70
ĠPr ince
Ġtrad ition
LI SA
Ġcond uct
Ġcomplet ed
Ġanal y
à¹ĥ à¸Ļà¸
ĠBl ack
ena issance
Ġofficial s
ĠTw o
ãĢ Ĥ
áŀŁáŀļáŀİ áŀĴáŀĺ
ĠCarA udi
ĠWal rus
Ġsch olars
ĠTour ing
ozo ic
Col umbus
Ġenv ironment
ateg ory
Ġhyp othes
Ġfre qu
Ġtrac hea
à¸łà¸²à¸ ©
ĠFI FA
ïĢ Ń
6 2
C P
C l
M O
O V
R A
T V
W illiam
Z A
e ff
i qu
k en
l ies
s ch
t ec
áŁĴ áŁĢ
áŀĢ áŀļáŀĺáŀĳ
áŀ· áŁı
áŀĶ áŀĶáŀļáŀĺ
áŀħ áŀħáŀĢ
Ġáŀ¢ áŀĩáŀĶ
áŀĸ áŀĳáŀĵ
áŁħ áŁĪ
áŀĹ áŀŁáŀī
ĠáŀĨ áŀĺ
Ġ) )
Ġs ens
es h
ar p
or a
áŀŁáŀĺ áŀĵ
Ġp iec
Ġf ish
el es
il a
ĠC ur
Ġl ost
ĠS k
ĠS um
ĠS ub
áŁ£ áŁ§
Ġh app
ĠA P
ĠM ac
oc yst
os qu
Ġn or
Ġn irvana
ĠR eg
ĠB en
ĠB ay
ĠE X
ĠP ra
ĠP and
Ġáŀ§áŀĳ áŀĦ
ot ypes
ad ed
Ġ! âĢĿ
ĠD i
ĠD ist
ĠH ou
ĠH arvard
ow ers
ut es
ch in
od ice
áŀĶáŀļáŀĺ áŀĢ
ĠG ram
ect ors
Ġst op
Ġ19 45
ĠEvil T
end ing
ĠáŁ¢áŁ¥ áŁ£
Ġform ation
ĠáŁ¢áŁ¡ áŁ¥
ĠáŁ¡áŁ©áŁ¤ áŁ¤
ĠáŁ¢áŁ£ áŁ§
ĠáŁ¢áŁ¢ áŁ¦
ok er
Ġwe ek
ĠáŁ¢áŁ¦ áŁ£
ĠáŁ¢áŁ¦ áŁ§
ĠáŁ¢áŁ¨ áŁ©
ĠáŁ¡áŁ©áŁ¢ áŁ¡
ĠáŁ¡áŁ©áŁ¢ áŁ¤
ĠáŁ¡áŁ©áŁ£ áŁ¥
ĠáŁ¡áŁ©áŁ£ áŁ£
Ġprod ucts
az ine
Ġ199 8
Ġrem ember
ĠLa w
ĠáŁ¡áŁ©áŁł áŁ§
ull ivan
Ch ar
Ġresp on
Ġass um
yc in
onom ic
Ġinst it
Ġequ ality
Ġdirect ly
Ġcomplet ely
ĠWh ite
ih an
Ġstat us
Ġgram mar
Ġarg ued
pa Ã±
Ġge omet
roph y
áŀĵáŀĢáŀĻáŀĢ áŀĸ
ĠDem ocratic
Ġadult s
ĠHen ry
Ġsyll able
Ġsev ere
Ġresist ance
ĠAfric a
Ġbord er
Ġcontamin ated
ĠInstit ute
Ã©x ico
Ã¬ nh
) ;
, '
L A
M ar
N ew
R o
c ript
c irc
g y
s el
w ar
w ith
w agen
å ¤
ç ļ
è Ģ
é ĥ
é Ħ
é Ļ
ħ n
áŀĻ áŀĥ
áŀĺ áŀ¢áŀī
áŀĺ áŀħáŀĵ
áŁĩ áŁĶ
áŀľ áŀĸáŀŁ
áŀħ áŀ¢áŀŁ
áŀĸ áŀħáŀĺ
áŀĸ áŀ¢áŀŁ
áŀĩ áŀ²
áŁĦáŁĩ áŁĸ
áŀĲ áŀķáŀĦ
Ġt rav
Ġáŀ§ áŀ¡
áŀļáŀĳ áŀı
at itis
Ġs am
Ġs outhern
Ġc uis
áŀļáŀĢáŀĶ áŀļáŀĶ
ĠâĢ ĳ
ic ago
Ġin sp
Ġb ar
Ġb ric
as al
ĠC estodes
Ġl ove
ĠS L
ĠS on
ĠS ol
ĠS ullivan
ĠáŁ¨ áŁ©áŁ¢
ac ks
ĠáŀĸáŀĽ áŀĲáŀĻ
ĠA g
ĠM ill
ĠáŀĵáŀĤáŀļ áŀħáŀĺ
ĠR el
ĠD ew
ĠH am
ĠI B
ĠF ilm
ĠáŁ¢áŁł áŁ©
em on
un i
ist ot
áŀīáŀı áŀķáŀĽ
Ġcon qu
ĠK e
ĠN a
Ġal t
Ġpro p
áŀĺáŀŁ áŀĹ
ĠEvil F
ĠEvil S
ĠáŁ¡áŁłáŁł áŁłáŁłáŁł
ri er
Ġex cept
ĠáŁ¢áŁ¥ áŁ©
Ġar ithmetic
ph al
ĠáŁ¡áŁ©áŁ¦ áŁ¡
Ġun c
angu age
Ġ200 1
ĠáŁ¢áŁ£ áŁ¨
áŀĦáŀ¢ áŀĢ
ĠáŁ¢áŁ¢ áŁ¨
Ġcomp osed
ĠáŁ£áŁ¡ áŁ¡
Ġtr uth
Ġj ud
ĠPh nom
ros is
Äģ n
evelop ment
rib uted
Ġnum erous
ĠáŁ¢áŁ© áŁł
ĠQ ueen
anc er
áº Ń
Ġac qu
Ġsim ply
yc oplas
ĠáŁ¡áŁ¨áŁ¨ áŁ¤
Ġsupp ly
Ġpar alysis
Ġcre ation
Ġcre ate
Ġarch ae
Ġmain ly
Ġide al
Ġins ide
Ġmark ed
Ġprom inent
ĠGi ang
Ġappro ximately
Ġconf lic
Ġfin anc
Ġdepend ent
ĠAss embly
Æ¡ ng
Ġtre ated
yan mar
Ġabs ol
Ġey es
Æ° Æ¡ng
Ġsett lement
ĠáŀĵáŀĤáŀļáŀł áŀĦ
ĠNS X
Ġfund am
Ġproject s
ĠCarF ord
ĠBill board
Ġphilosop hers
uyá» ħn
ĠWy vern
ĠAcadem y
osqu ito
áŀħáŀ¢áŀŁ áŀŁ
5 7
6 1
A b
B e
C omm
D V
D uring
a ff
b ed
c er
i ations
l an
l ife
n eg
w ell
w ater
y al
z h
áŀ¶ )
áŀĺ áŀŁáŀī
áŀŁ áŀ§áŀı
ĠáŀĢ áŀģ
áŁģ áŁĶ
Ġáŀģ áŀĢáŀģ
ĠáŀĽ áŀĹáŀı
áŀĴ áŀħáŀĢ
in ds
an ish
Ġáŀ¢áŀŁ áŀĢáŀĺ
Ġc ast
ĠâĢ º
ĠâĢ Ļ
áŀĪ áŀı
Ġp age
Ġp erman
Ġf r
Ġb reat
Ġd ust
el ine
Ġm m
Ġm ixed
Ġm amm
ĠC rab
ent h
Ġl ab
ĠS ar
ĠS ur
ĠS im
ĠS add
áŁ£ áŁ¦
ĠT em
ĠT ay
ĠáŁ¨ áŁłáŁłáŁłáŁł
ol k
ĠM et
ĠM ax
ĠM ekong
ĠM á»¹
Ġn asal
ĠR ally
ĠR enaissance
ĠB h
ĠB ull
id o
ig r
áŀĽáŀĢ áŀħ
Ġg all
ĠáŀĢáŀĦ áŀĻ
um n
ĠG re
ĠG en
ĠáŁ¡áŁ¨ áŁ©áŁ£
Ġv on
Ġv ent
Ġv ers
ĠN ai
ĠW ild
Ġst rict
Ġst reng
Ġpro fess
Ġáŀª áŀĢ
Ġcom ment
ment e
ort un
ich ard
áŀ¥ áŀİ
Ġk ings
áŀĵáŀĸ áŀļ
áŀ§áŀĳ áŀļ
ĠáŁ¡áŁ© áŁłáŁłáŁłáŁł
ĠáŁ¢áŁ¡ áŁ¡
ĠáŁ¢áŁ¡ áŁ¤
áŀıáŀĺáŀĢ áŀĳáŀĽ
Ã© d
Ã© p
Ġ200 3
ĠáŁ¢áŁ¢ áŁ¤
ĠáŁ¢áŁ¢ áŁ©
iet ies
Ġcomp ar
ĠáŁ£áŁ¡ áŁ§
à¸ģ à¸£
Ġcent uries
ĠáŁ¡áŁ©áŁ£ áŁ§
Ġem phas
Ġem aciation
Ġ199 1
Ġdef ined
rop ol
Ġdi ac
Ġact ion
Ġdec la
Ġáŀ¢áŀĺáŀı áŀĴáŀĺ
Ġwork ing
Ġes paÃ±
ĠSp ec
ĠNew s
Ġbro ther
rat eg
ĠRo ot
Ġord ered
Ġav oid
Ġcor res
Ġcor rect
Ġdr ug
Ġfin ally
Ġfact ors
áº¡ i
Ġliter ary
Ġvir al
Ġkingdom s
Ġbecom ing
Ġindust ry
Ġprinc iple
Ġeng ine
Ġrelations hip
áŀĶáŀĭ áŀĺ
Ġcolon ial
ĠRome o
Ġhour glass
Ġlaun ched
ĠTerr ant
çļ Ħ
( "
* </
E m
M ost
S R
U C
g round
i os
i ques
k ok
l im
r ia
r ates
u ff
u nder
v ille
y e
y o
y un
å ¾
Ġ áŁģáŁĩ
Ġ iron
áŁĴ áŁĭ
áŀŁ áŀļáŀĢ
áŁĭ áŁĪ
Ġáŀļ áŀħ
áŀī áŀĲ
Ġáŀł áŀĿ
áŁī ,
áŀ¡ áŀĶ
Ġ) "
in ing
er ced
Ġáŀ¬ áŀĢ
is p
Ġs ong
Ġs ites
Ġc over
Ġw r
Ġw estern
Ġ- ]
ic ercus
Ġp sych
Ġf owl
Ġb ase
áŀļáŀħ áŀĦáŀĢ
Ġm aster
ĠC amp
ĠC ath
Ġto wn
Ġl ink
Ġ1 50
ev a
ac hes
ĠM or
ĠM aster
Ġre ference
ĠR FI
ĠE st
ĠE SET
ul ly
ĠP it
ĠP et
ir av
im um
ĠáŀĬáŀĦ áŀŁ
iv a
ag ic
ĠáŀĢáŀĦ áŀĴáŀĺ
un an
ĠG aul
ĠL in
ĠL ondon
áŀıáŀĦ áŀĦáŀĽ
Ġv oid
ĠN ag
ect ing
av as
ia b
Ġwh y
ov ery
áŀĻáŀĸ áŀļ
ant es
Ġde g
Ġde al
ĠV ersion
ri ke
Ġhe re
ĠO per
ĠO cean
ĠáŁ¢áŁ¥ áŁ¤
ight s
ĠIn c
ew ork
Ġwor ms
áŀħáŀħ áŀļáŀħ
Ġse ek
ear ch
ĠáŁ¢áŁ£ áŁ©
hen g
act ion
Ġim med
Ġpl aced
ex ts
Ġag reed
ĠáŁ¢áŁ¨ áŁ¥
Ġdes p
Ġ9 5
à¸£ à¸¡
Ġev idence
ĠX ion
àº §
Ġem pt
att les
ĠáŁ¡áŁ©áŁ¡ áŁ¨
Ã¡ s
áº ¿
Ġdi agnosis
Ġ0 60
ĠáŁ¢áŁ©áŁ ¤
Ġman ure
Ġman ufact
ĠáŁ¡áŁ¨áŁ¨ áŁ¥
Ġred uc
ox in
Ġcol i
ett ing
ĠÃ ī
ograph ic
ĠáŁ©áŁ¦ áŁ¨
Ġhelp ful
Ġdesc ript
ris on
Ġparticular ly
Ġplan ets
ĠMus ic
Ġcrit ic
à¸· à¹Ī
Ġeas ily
Ġstart ed
ĠSoc iety
ĠáŀĲáŀĺ áŀĲáŀĻ
Ġ!! !
Ġpur pose
ĠáŀŁáŀļáŀĳ áŀı
Ġweak ness
Ġmeas ure
Ġmem ory
Ġrespons ible
ĠComp any
ĠPhil ipp
Ġgre ater
æ² ³
ĠAssoci ation
Ġrespon se
ihan ouk
Ġ060 20
. ),
B E
D A
D C
J ack
O ne
P r
S S
W hen
i Ã¨re
p ret
s et
s ection
t ies
u h
u i
z a
Î ±
ä ¾
ç Ķ
áŀļ áŀ§áŀĳ
áŀĵ áŀĲ
áŀĦ áŀļáŀĶáŀļ
áŀĢ áŀ¢áŀŁ
áŀĽ áŀĶáŀı
Ġáŀĳ áŀ¡
áŀĸ áŀħáŀĽ
áŀī áŀĻ
áŀĩ áŀĺáŀĢ
Ġáŀł áŀĽ
áŀļáŀĢ áŀī
áŁĮ áŁģ
Ġt el
Ġa ward
ĠáŀĺáŀĢ áŀĳáŀĽ
he ad
Ġáŀ¯ áŀģ
re te
Ġo p
Ġáŀ¯áŀĦ áŀł
Ġáŀ¢áŀŁ áŀĢ
áŀľáŀĶ áŀĳ
áŀļáŀı áŀĻ
Ġw ide
Ġw ays
Ġw ife
ĠáŁ¤ áŁ¥áŁł
ic it
Ġp up
Ġf at
Ġf ran
Ġf ail
Ġb urs
Ġb uddha
áŀĺáŀı áŀİ
ent ed
ĠS i
ĠS pe
ĠS aint
áŀľáŀĢ áŀļáŀİ
ĠT on
Ġh or
ac ity
et i
ĠáŀŁáŀł áŀĢáŀĺ
ĠáŀŁáŀł áŀĢáŀļáŀİ
áŀļáŀĤ áŀĦ
ĠP HP
ot us
ĠáŀĳáŀŁ áŀĢ
Ġg ar
ag ing
ĠH ill
áŀ± áŀļ
áŀ± áŀļáŀŁ
ĠF ed
ĠF ore
ĠáŁ¢áŁł áŁ£
ĠG ran
ĠG ree
ĠL and
Ġv er
Ġst ored
ud h
ap a
ĠO l
ell ed
ĠáŁ¢áŁ¥ áŁ§
all ow
áŀļáŀģ áŀı
Ġcont ains
ĠáŁ£áŁł áŁ¤
Ġdis p
Ġdis cipl
ound s
ks wagen
ip al
Ġcons cious
Ġcomp ared
ĠUn it
ĠáŁ¢áŁ¨ áŁ§
áŀĽáŀĺ áŀĻ
Ġ8 5
ans ion
Ġqu ite
In c
à¸£ à¸²à¸
enc ia
àº °
Ġ199 2
Ġear lier
Ġoccur red
arm an
áº §
ru pt
ĠáŁ¢áŁ©áŁ ¡
ĠáŁ¢áŁ©áŁ £
Ġsec ret
áŀŁáŀł áŀĤáŀĺáŀĵ
air s
Ġinflu ential
Ġinflu enced
Ġ193 9
ĠáŁ¡áŁ¨áŁ¥ áŁ©
Ġresult ing
ĠOr gan
ĠáŁ¡áŁ¥áŁ¦ áŁ©
ĠCambodian s
Ġlong er
arv est
Ġconsum er
ĠTur bo
Ġphys ical
Ġprim arily
Ġchang ed
Ġlibr ary
Ġlog ic
ĠChamp ions
Ġcommand er
ĠSoc ial
unn y
gn u
Ġteach ings
Ġemer g
Ġut il
ĠHT ML
Ġdefe ated
Ġfung i
ĠMount ains
BM W
Ġscient ific
Ġrod ents
Ġfem ale
Ġoed ema
Ġquick ly
Ġhypothes is
chin ococc
Ġgeomet ric
éĦ ļ
ycoplas ma
erced es
% ),
> *</
E d
F C
G erman
L T
P er
P RE
h ab
l iam
n ce
r ial
Ã ¯
æ ĸ
áŀĢ áŀĶáŀĳ
áŀĽ áŀĴ
áŀŁ áŀĥ
áŀŁ áŀļáŀľ
áŀĶ áŀĥ
ĠáŀĶ áŀĻ
ĠáŀĢ áŀĦáŀĢ
ĠáŁ Ī
áŀľ áŀļáŀĢ
áŀĸ áŀŁáŀĦ
áŀĴ áŀĶáŀİ
áŀĦáŀ¡ áŀĦ
áŀļáŀĢ áŀĽ
ĠáŀĨ áŀľ
ĠáŀĨ áŀĳ
Ġt rop
Ġt rem
Ġ) ;
Ġáŀ¯ áŀĴáŀĺ
Ġáŀ¯ áŀĢáŀĤ
re st
Ġs ought
Ġc op
it ro
áŀļáŀı áŀĹ
Ġw alk
ic ial
Ġáŀ§áŀĶ áŀĹ
Ġp ig
Ġb ill
Ġb ound
áŀĶáŀĳ áŀĵ
à¸ Ĳ
as ia
as ons
áŁ¥ áŁłáŁł
áŀļáŀľ áŀħ
Ġl am
áŁ£ áŁ£
ĠT ig
ĠT imes
Ġh olds
áŀĢáŀŁ áŀļ
áŀĤáŀĺ áŀĤ
ĠA rab
ĠM y
ĠM ic
Ġn ut
Ġáŀ¢áŀĢ áŀıáŀī
ĠP rem
ir a
Ġe ight
ĠH ay
ĠH Ã²a
ĠI l
ĠG overnment
ĠL os
ĠL eg
Ġas c
ĠáŁ¡áŁ¥ áŁ¡áŁ¢
ĠK ar
ĠK night
ĠN autiloid
ĠW u
Ġst ated
Ġ19 40
Ġal one
uc ci
ĠV al
ĠV aj
ĠáŁ¡áŁłáŁł áŁ¢
ap t
ĠCh i
ĠCh icago
ĠáŁ¢áŁ¥ áŁ¡
Ġcont rolled
ff led
ib ly
ĠáŁ¢áŁ¡ áŁ©
Ġse ason
ĠáŁ¢áŁ£ áŁ¡
ĠáŁ¢áŁ¢ áŁ¢
ĠáŁ¢áŁ¢ áŁ£
lud ed
ĠáŁ¡áŁ©áŁ¨ áŁ£
Ġwe ather
áŀŃ áŀĢáŀļ
ram ework
ens ion
ĠáŁ¢áŁ¦ áŁ¡
ĠáŁ£áŁ¡ áŁ¥
Ġinf ections
ĠáŁ¢áŁ§ áŁ¥
ĠáŁ£áŁ¢ áŁ¡
áŀĽáŀĺ áŀļáŀİ
Ġcent er
Ġapp lied
ĠPh an
Ġpre m
Ġpre fer
ann ing
ug g
Ġrec ently
Ġatt end
Ġbl ue
Ġbl ack
Ġwater y
ĠáŁ¡áŁ¨áŁ¦ áŁ¦
Ġrem ain
ĠSoda C
à¸Ļà¸ ķ
201 6
Ġest im
ĠáŁ¨áŁ§ áŁ¨
ĠáŁ¡áŁ¥áŁ¢ áŁ¥
Ġte am
ĠPl ay
Ġdisc uss
Ġart ists
Ġet hn
Ġposs ess
Ġcomb ination
Ġcomb ined
ĠEn ter
IC A
Ġgreat est
Ġelect ions
Ġtest s
Ġeconom y
rid ge
ĠáŁ¡áŁ¡áŁ§ áŁ§
Ġtox in
Ġrele ase
Ġreb ellion
ĠPen h
Ġunivers al
Ġsyll ables
Ġmonth s
Ġbecom es
ä» Ļ
Ġpron ounced
Cambod ia
Ġincreasing ly
Ng uyá»ħn
Ġdoctr ine
Ġflu id
ĠSadd am
Ġdiac rit
Ġdecla red
liam ent
- %
C ons
D ef
L ong
M A
R O
b re
f i
g r
h t
i ents
m at
p ond
r or
s ung
v ar
z ard
ä ¹
áŀļ áŀ£
áŀı áŀĬ
áŀ· áŁĸ
áŀĽ áŀĻáŀĶ
ĠáŀŁ áŀŁáŀĦ
áŀľ áŀļáŀĳ
áŀĤ áŀĢáŀĺ
Ġáŀļ áŀŃáŀĢáŀļ
áŀĬ áŀĬ
áŀ¢ áŀİ
áŀĵáŀĢ áŀĭ
Ġ( ;
Ġt reat
Ġt iss
Ġt aking
Ġáŀ¯ áŀ¢áŀĶ
re et
áŀļáŀł áŀĶ
Ġo x
Ġo pt
Ġáŀ¢áŀĵ áŀ¡
is ions
al se
Ġw attles
ĠáŁ¥ áŁ¥áŁł
Ġf a
Ġf ully
Ġb enef
áŀļáŀħ áŀı
áŀļáŀħ áŀĽ
ro id
ĠC ao
ent y
Ġl ack
ĠS l
Ġ1 01
Ġ1 10
ĠT roll
Ġh om
ĠáŁ¨ áŁ¥áŁł
om o
am y
áŀĢáŀĽ áŀħáŀļ
ĠáŀĸáŀĽ áŀī
ol ith
Ġáŀļáŀł áŀŁ
ĠM i
ĠM ot
ĠM edia
Ġn om
Ġn ormal
le ge
ĠB or
ĠB as
ul ate
ĠP o
ĠP acific
ĠâĢ¦ âĢ¦
ir ing
ĠD ong
ĠH ar
ĠH ung
ĠF air
áŀŁáŀĢ áŀĩáŀĵ
Ġas ked
ĠN ow
ang a
ĠW il
ĠW ang
Ġst ar
Ġal tern
ud get
áŀŁáŀĳ áŀİ
Ġwh om
ĠáŁ¡áŁ¡ áŁ¡áŁ£
ĠEv olution
ab s
ĠV I
ĠV ol
eg et
ap ew
ĠCar BMW
Ġ3 6
ri z
our se
Ġy ellow
ĠáŁ¢áŁ¥ áŁ¨
ĠáŁ¢áŁ¤ áŁ¢
Ġar m
Ġdis appe
áŀŁáŀĲ áŀĢáŀĺ
Ġse x
oy le
ie u
Ġsh ift
Ġsy m
udd h
tern et
ĠáŁ¢áŁ¦ áŁ¦
Ġag ents
ĠáŁ£áŁ¡ áŁ£
ĠáŁ¢áŁ¨ áŁ¨
ĠáŁ¢áŁ¨ áŁ¦
ĠáŁ¢áŁ§ áŁ¨
ĠAn t
Ġme eting
ĠáŁ¡áŁ©áŁ¢ áŁ¦
Ġro yal
ann er
Ġrel atively
ĠAr t
ĠáŁ¡áŁ¨áŁ¦ áŁł
Ġear li
à¹Ģà¸ Ĥ
com m
ĠSoda D
ĠáŁ¢áŁ©áŁ ©
Ġcol or
ĠCon ference
ict or
ĠRo ad
ĠTr ump
à¸« à¸¥
ham m
Ġsl ow
ĠáŁ¡áŁ¤áŁ£ áŁ¡
à¹ĥ à¸«
Ar menia
ĠEl ect
Ġold er
Ġprot ected
Ġdom est
ĠPol and
Ġphys iology
Ġdepend ing
ĠáŁ¡áŁ¤áŁ¥ áŁ¢
Ġadminist ration
Ġadminist rative
Ġbroil er
Ġmach ines
áŀıáŀļáŀŁ áŀľáŀĤ
Ġdial ect
Ġenc our
Ġintest inal
Ġche ck
ĠBang kok
Ġmount ain
odh is
ĠIM PRE
Ġnovel ist
ĠOlymp ic
Ġintrod uced
Ġhatch ability
elet al
Ġremov ed
Ġdestroy ed
Ġappoint ed
anche ster
Vol kswagen
Ġbus iness
neg ative
ĠXion gnu
Ġearli est
ĠIMPRE ZA
% .
C ont
D AP
E G
F D
I D
K iernan
N D
g ers
h av
i ately
m ark
p ir
r ate
t ime
u ros
Ä ĵ
à ¦
Ġ à¤
áŀĦ áŀĶáŀĵ
áŀı áŀĻáŀĢ
áŀ» )
áŀ» áŁĶ
áŀŁ áŀĻáŀĬ
áŀŁ áŀłáŀŁ
áŀľ áŀ¡
áŀĸ áŀ¢áŀı
áŀĤ áŀĲ
Ġáŀľ áŀĳáŀĺ
ĠáŀĻ áŀĺáŀĢ
áŀĹ áŀķ
áŀĲ áŀļ
áŀĲ áŀŁ
áŁį áŁĪ
Ġa st
Ġáŀİ áŀĦ
he rent
áŀļáŀĺ áŀĽ
áŀļáŀĳ áŀĦ
áŀĥ áŀĵ
en es
at ives
Ġs ov
Ġs eg
Ġs we
Ġc art
Ġc ool
Ġc itiz
it ic
it ors
áŀĨ áŀĩ
or al
Ġw est
ic ed
Ġf igure
Ġf riend
Ġb in
Ġb urn
Ġb ulk
Ġm icroscop
Ġl ymph
ĠS ing
ĠT u
ĠT reaty
ĠM S
ĠM anchester
Ġre form
ĠáŀŁáŀł áŀŁáŀĺ
Ġn ob
ĠE LISA
ot o
ot al
ĠD evelopment
ĠH y
ĠI rak
ĠF ound
ĠL ight
ĠN i
Ġst ories
op en
Ġ19 30
Ġpro te
if ul
ĠáŁ¡áŁ¤ áŁłáŁłáŁłáŁł
ĠV itamin
ĠáŁ¢áŁłáŁ¡ áŁ©
áŀļáŀĲ áŀĻáŀħ
ri x
Ġex act
Ġex ternal
ĠO ld
Ġsu p
Ġch ief
ren ce
Ġ/ ><
ĠáŁ¢áŁ¤ áŁ¡
Ġdis pl
ult ural
ĠáŁ¢áŁ¡ áŁ¢
ĠáŁ¢áŁ¡ áŁ£
Ġsh ows
ĠFran cis
ĠáŁ¢áŁ¦ áŁ¢
ĠáŁ¢áŁ¦ áŁ¨
ĠáŁ£áŁ¡ áŁ¤
ĠáŁ£áŁ¡ áŁ¨
ĠáŁ¢áŁ¨ áŁ¢
ĠáŁ¢áŁ¨ áŁ£
ĠáŁ¢áŁ§ áŁ¡
ĠáŁ¢áŁ§ áŁ£
ĠáŁ¢áŁ§ áŁ¦
Ġpart ies
Ġfl ag
à¹Ģ à¸£
Ġev ident
ĠáŁ¡áŁ©áŁ¢ áŁ©
Ġreg ist
Ġprod uct
Ġ199 5
ĠáŁ¡áŁ©áŁ¡ áŁ¥
Ġworld wide
Ġrem aining
Ġinter pret
Ġact ual
Ġne igh
ĠPro gram
ĠáŁ¢áŁ©áŁ ¨
Ġfound ed
Ġdist ribution
Ġwork ed
Ġsc ale
Ġman agement
Ġco ast
Ġstud ies
Ġext ended
Ġbel ief
à¸ķ à¸£
Ġcommun ication
Ġser ious
Ġgrow ing
Ġcar ried
ĠPr ime
Ġleg isl
Ġnec rosis
ĠWh at
Ġtemper atures
Ġdom in
Ġbacter ial
Ġsw ollen
ĠBrit ain
Ġrelig ion
à¸¹ à¹Ī
Ġplay ed
ĠMinist ry
Ġenl ightenment
ĠSal mon
OR D
Ġpath ogenic
Ġru ffled
Ġmor bidity
ĠSec ond
Ġsyn t
Ġindepend ence
Ġey e
Ġmult iple
ĠThom as
ĠThom son
iot ics
ĠáŁ¢áŁłáŁ§ áŁ¤
ĠAfric an
Ġindic ate
Ġneg ot
augh t
road wing
Ġprevious ly
Ġfight ing
Ġsin us
à¥ į
unos upp
à¹ģà¸¥ à¸°
osquito es
ĠTay lor
ĠVaj irav
. -
5 3
5 8
E urope
H e
H en
L V
M an
M any
N o
R I
S T
T o
i ated
m it
m ese
r ish
w ord
y ond
Ë Ĳ
Ġ }
áŁĴ áŀ¶
áŀĵ áŀļáŀĢ
áŀĵ áŀĻáŀĶ
áŀĻ áŀŁáŀĵ
áŀĺ áŀĽáŀĢ
áŀħ áŀĻáŀŁ
áŀĳ áŀĢáŀı
Ġáŀĩ áŀł
Ġáŀħ áŀī
áŀĤ áŀĻ
áŁħ áŁĴ
Ġáŀģ áŀĢ
áŀģ áŀĻ
áŀĹ áŀĻ
áŀĵáŀĢ áŀıáŀŁ
ĠáŀĨ áŀĬ
Ġt itle
Ġa ver
ĠáŀĺáŀĢ áŀĬáŀİ
he ll
Ġáŀ¯ áŀıáŀĺáŀı
áŀĤáŀĽ áŀĶ
on ia
on ts
áŀļáŀİ áŀī
re y
Ġ] )
en ium
Ġo cean
ar c
al ian
Ġc aec
it te
áŀļáŀĻ áŀı
ĠâĢ ¹
Ġáŀī áŀĢ
ic ate
Ġáŀ§áŀĶ áŀľ
Ġp en
Ġp ap
Ġp erm
Ġp oll
ion es
Ġm ale
ĠC ong
ĠC ount
Ġl ear
ĠS T
ĠS ihanouk
Ġh on
Ġh yd
om y
om on
om ent
ĠA lex
Ġ[ -
ol as
ol id
ĠM yanmar
áŀĸáŀĦ áŀĦ
Ġn etwork
Ġth in
ĠB ac
ĠB ae
ĠB ien
ĠB rah
ĠE chinococc
áŀģáŀİ áŀī
ul ose
ĠP eter
im a
im ited
áŀĢáŀħ áŀĦ
Ġg ran
Ġe ast
ĠD V
ĠD ien
ĠI mp
ĠF ive
ĠF unan
ch arge
áŀ§ áŀħ
áŀ§ áŀĶáŀŁ
un ich
st ant
ĠG a
Ġcon g
ĠL u
ĠL ib
ĠL ancer
Ġbe g
Ġbe yond
ĠáŁ¡áŁ¨ áŁ©áŁł
ter ed
ĠáŁ¡áŁ¢ áŁłáŁł
ĠW ill
Ġ19 25
if est
Ġáŀĺáŀļáŀİ áŀŁáŀī
Ġde ad
ĠV ers
ĠJ o
igh ter
ĠCar Volkswagen
Ġ3 3
Ġex amples
ell ect
ĠáŁ¢áŁ¥ áŁ¢
áŀħáŀŁ áŀłáŀĢ
ĠáŁ¢áŁ¤ áŁ©
Ġar tic
ern al
Ġ4 00
áŀĲáŀĶáŀĳ áŀħáŀĺ
ĠáŁ¡áŁ© áŁłáŁł
à¸²à¸ Ĺ
ĠSt art
hen omen
Ġim perial
Ġcl ip
Ġpl ants
ĠY u
Ġcomp os
Ġab ol
ĠAn na
ĠIt aly
enc ies
Ġpre c
ĠX uan
Ġro ot
Ġreg ime
Ġocc asion
Ġ199 6
Ġtrans c
ĠáŁ¡áŁ©áŁ¡ áŁ¡
ĠáŁ¡áŁ©áŁł áŁ£
ru its
Ġact ions
ĠáŁ¢áŁ©áŁ ¥
ĠáŁ¢áŁ©áŁ ¦
Ġco ok
ĠCon cept
Ġhum idity
ĠáŁ©áŁ¤ áŁ¤
Ġeffect s
Ġmus eum
ĠáŁ¡áŁ¨áŁ¤ áŁł
Ġmet aph
Ġref uge
ĠCl ass
Ġexist ence
ĠáŁ¢áŁłáŁ¦ áŁł
Ġstat ement
fl at
Ġsal t
Ġproper ties
Ġobject s
esp ucci
Æ° á»
ĠBur ma
ĠSiam ese
ĠNS DAP
áŀļáŀ¯ áŀĢáŀĹ
Ġterrit ory
ĠMod el
à¸Ĥ à¸Ńà¸ĩ
;" ><
Ġbre ak
ĠCyst icercus
ĠáŀĶáŀĢáŀı áŀı
Ġdig ital
Ġagre ement
ĠÂĳ (
Ġnuc lear
ĠAsh watthama
Ġwithd raw
aill es
Ġbran ch
àº² àº
Ġfrequ ently
ocyst s
circ ulating
Ġcuis ine
ropol itan
æ²³ ä»Ļ
ĠGree k
odhis att
ĠVajirav udh
5 9
B A
B enz
E U
L esions
N ow
O T
S ub
b it
e ur
f a
h r
i eng
i ya
k g
m ond
m ann
n o
n ov
w in
w orth
w iki
Ã ¹
Ġ ic
Ġ Ã©
Ġ à¸¡
áŀļ áŀļáŀĬ
áŀĽ áŀĲ
áŀĺ áŀĭ
áŀĶ áŀĢáŀĶ
Ġáŀĸ áŀĶ
áŀľ áŀģ
áŀľ áŀĵáŀĢ
áŀħ áŀ®
áŀĳ áŀĹ
áŀĸ áŀĺ
Ġáŀļ áŀĶáŀı
áŀģ áŀļáŀĢáŀĺ
áŀł áŀ¡
áŀ¢ áŀĸ
áŀ¡ áŀŁ
áŀĹ áŀĤáŀľ
áŀļáŀŁ áŀĺáŀİ
áŀļáŀĶ áŀļáŀĶ
Ġt ra
Ġt exts
Ġa im
Ġáŀ§ áŀĢáŀĺ
áŀŁáŀĵ áŀĴáŀĺ
an th
is dom
Ġ" [[
Ġs cience
Ġc m
Ġc odice
Ġáŀ± áŀĵáŀĹ
Ġw ind
Ġin ternal
Ġin script
Ġp ay
Ġp ill
Ġb r
el le
à¸ ľ
Ġm ag
Ġm iss
ro tic
ĠC P
ĠC EN
Ġl ived
ĠáŀķáŀĽ áŀħ
ĠáŁ¨ áŁłáŁłáŁł
ac iÃ³n
om ination
ĠA H
ĠA R
ĠM ex
ĠM Ã©xico
Ġre ve
os ph
Ġáŀ® áŀı
ĠB ugbear
ig g
ig m
ir s
áŀĻáŀĶ áŀļáŀĺ
ad or
ad os
Ġg irl
ĠH ot
áŀ± áŀĢ
ĠI P
ĠF re
ĠF ried
áŀ§ áŀļ
áŀŁáŀľ áŀİ
st on
ist a
ĠG h
ĠL o
ĠL an
ĠáŁ¡áŁ¨ áŁłáŁł
ĠN om
ĠN av
ĠN ight
ĠN ik
ĠN orthern
Ġpro s
ab h
ab ha
ry pt
ort s
áŀ¥ áŀļ
Ġr at
ĠO s
our ce
ell s
Ġk inds
ĠáŁ£áŁł áŁ§
ere ign
Ġse a
Ġse qu
ear s
Ġsh ape
Ġres id
lud ing
Ġwe ap
ex us
ĠáŁ¢áŁ¦ áŁ¤
Ġinf l
ĠáŁ¢áŁ¨ áŁ¤
ĠáŁ¢áŁ§ áŁ§
ĠáŁ£áŁ¢ áŁ¢
ĠáŁ£áŁ¢ áŁ¤
Ġdes ire
Ġfl at
Ġle aves
Ġinv asion
Ġprov entric
ĠáŁ¡áŁ©áŁ¡ áŁ¢
rib ed
orn ing
Ã¡ n
Ġpol ice
ĠáŁ¡áŁ©áŁł áŁ¨
ĠáŁ£áŁ¨ áŁł
Ġdep art
Ġact ually
ĠáŁ¢áŁ©áŁ ¢
ĠáŀĶáŀľ áŀļáŀŁ
ĠáŀŁáŀľ áŀĸ
ĠCarM ercedes
ĠPar asites
ox ic
uy Ãªn
ĠBe er
Ġpar asites
air d
Ġtem ples
Ġcap acity
Ġ193 8
ĠáŁ¡áŁ¨áŁ¥ áŁ¦
ĠBC E
Ġmov ie
ĠáŁłáŁł áŁ¢
ĠáŀĢáŀľ áŀ¡
Ġav ian
Ġsk y
med iate
hel m
ĠáŁ¡áŁ¤áŁ£ áŁ¨
aut iful
à¹ĥ à¸Ļ
à¸Ī à¸²à¸ģ
Al though
Ġhost s
Ġlaw s
por ary
Ġbas ic
Ġtechn ology
Ġcal c
Ġke pt
aks in
SC O
ĠTai wan
Ġsem ant
ĠBur mese
Ġmeas ures
Ġhaemorrh ages
wh ich
ĠBer lin
Ġenter itis
Ġclaim ed
;" >
agu erre
Ġflo or
Ġhab l
Ġcontinu ous
Ġinvest ig
Ġconstit ution
osp here
á»ĭ nh
Ġprob ably
Ġdro pp
ĠHou yi
Char les
gy pt
Ġconflic t
Ġmamm als
Ġcorres pond
Ġimmed iately
Ġsov ereign
) (
5 1
5 4
A D
C ategory
H ist
b ased
c ar
d am
e h
g al
j a
k ing
r um
t es
w est
x ia
y ing
y ang
å ¯
æ Ľ
Ġ Ð
áŀĦ áŀ¢áŀĵ
áŀı áŀĭ
áŀı áŀŁáŀĺ
áŀŁ áŀłáŀĹ
áŁĨ áŁĶ
ĠáŀĢ áŀĸ
ĠáŀŁ áŀ§áŀı
áŀľ áŀĺáŀĵ
áŀĸ áŀĶáŀļ
Ġáŀļ áŀļ
áŀī áŀ±
áŀĩ áŀĢáŀī
ĠáŀĽ áŀĶáŀŁ
áŀģ áŀħáŀĢ
áŀł áŀİ
áŀł áŀĴáŀĺ
ĠáŀĹ áŀĻáŀĵ
Ġáŀľ áŀĴ
ĠáŀĻ áŀı
áŀĵáŀĢ áŀĩáŀĵ
Ġt alk
Ġ) (
Ġa et
he w
áŀķ áŀļáŀİ
Ġthe ories
at ar
ĠáŀĻáŀĢ áŀī
is her
áŀĢáŀĺ áŀĽ
Ġáŀļáŀĺ áŀĤ
Ġp ara
Ġp henomen
Ġf ront
Ġb ox
Ġb udget
Ġd ut
Ġd ivers
à¸ į
Ġm ax
áŀĽáŀĦ áŀħ
áŀļáŀľ áŀĢ
ent ially
ĠS ri
áŁ¤ áŁ¥
ĠT or
áŁ¨ áŁł
Ġh at
ev ision
ac ing
ĠM in
ĠM il
ĠM ichael
Ġn ations
Ġth reat
ĠR NA
Ġáŀ¢áŀĢ áŀĶ
ĠP ress
ĠP ublic
ĠP ierre
im b
Ġg ain
iv ity
ĠH or
ĠI V
ĠI b
ch ange
ist e
ĠG all
Ġáŀ¢áŀĶ áŀİ
Ġcon ver
ĠL M
ĠL ow
ĠL atin
ĠáŁ¡áŁ¥ áŁ¡áŁ¨
Ġon es
Ġv eget
ĠN ob
ĠN irvana
ĠW olf
Ġst e
Ġan g
ant on
ĠV AT
ain e
ĠáŁ¡áŁłáŁł áŁ¡
ĠCar R
ri um
ĠU r
áŀ£ áŀļáŀłáŀĵ
pt ic
Ġáŀ¯áŀĢáŀŁ áŀİ
ard s
Ġsp ok
Ġch lor
ren ts
ĠáŁ£áŁł áŁ¡
ct uary
ph one
Ġdis charge
ber ry
ĠSt ud
hen s
Ġ6 4
Ġim age
ĠáŀĵáŀĤ áŀļáŀħ
udd en
ĠUn ic
ĠáŁ£áŁ¡ áŁ¦
ĠáŁ¢áŁ¨ áŁ¡
ĠáŁ¢áŁ§ áŁ¤
ĠáŁ£áŁ¢ áŁ¥
ĠáŁ£áŁ¢ áŁ¨
ob s
à¹Ģ à¸ģ
ĠáŁ¡áŁ©áŁ¢ áŁ¨
ĠHe b
Ġreg ional
àº Ļ
ĠAr istot
Ġrec ent
ĠDr ac
à¸± à¹ī
att a
ĠáŁ¡áŁ©áŁ¡ áŁ©
Ġrem ove
Ġsub sequ
Ġdi pl
Ch annel
Ġent ered
ĠáŀŁáŀľ áŀĵáŀĢ
Ġcol span
Ġconst ant
Ġinst r
Ġ193 2
Ġ250 50
ĠPal ace
uk i
Ġprocess ing
ĠEng land
Ġant i
Ġ194 1
Ġtransm itted
Ġprom ot
epend ent
Ġelect ric
à¸Ľ à¸£à¸°
Ġdom inated
Ġsay ing
ĠSut ra
Ġsw elling
ele br
omb ie
Ġcrit ical
Ġpropos itions
Ġgram m
Ġmethod s
ĠAng eles
bl og
Ġvir t
Ġterrit ories
ĠHen ri
Ġrecogn ized
Ġiss ue
Ã§ ois
Ġmount ains
Ġeat en
Ġdefe at
áº£ o
Ġactiv ity
SI P
Ġlat ter
Ġisol ation
Ġsepar ate
Ġsold iers
Ġoccup ied
Ġapplic ation
Ġrout e
Ġclos ely
ĠTs ai
ceed ed
imer ia
çİ ĸ
Ġdam age
Ġfamil ies
Ġconcent ration
Ġlik ely
ĠDist rict
ĠespaÃ± ol
áº§ n
Ġlam eness
5 6
A ng
A ccording
B S
B uddha
C R
E F
E L
L D
M o
M on
N ational
O S
P aul
S e
S am
V T
Y P
b es
d in
d ate
f r
g rah
h m
i i
i eg
i ens
l evel
n ail
p ic
p ost
w here
w ikipedia
y ear
z y
Ð ¸
è ¶
Ġ err
áŀ ³
áŀ¶ áŁĶ
áŀĵ áŀĻáŀĢáŀĺ
áŀĢ áŀıáŀĶ
áŀı áŀĸáŀĽ
áŀĽ áŀ¡
áŀĽ áŀĻáŀĽ
áŀŁ áŀĶáŀŁ
Ġáŀĵ áŀļáŀľ
áŁĨ ,
ĠáŀĢ áŀļáŀľ
Ġáŀĸ áŀĺ
áŀľ áŀļáŀĶ
áŀħ áŀĬ
áŀħ áŀĽáŀĵ
Ġáŀĩ áŀĽáŀĩ
áŀĤ áŀľáŀı
áŀĩ áŀłáŀĦ
áŀĹ áŀľáŀĦ
áŀĵáŀĢ áŀļáŀĽ
ĠáŀŁáŀĺ áŀĶ
áŀħáŀĢ áŀļ
áŁĮ âĢĮ
áŀļáŀŁ áŀİ
áŀļáŀŁ áŀĩ
he as
Ġáŀ§ áŀĽ
ĠáŀķáŀĦ áŀĢ
áŀľáŀı áŀı
Ġthe ore
Ġs qu
Ġc ust
Ġc red
Ġc old
Ġc ogn
it able
it tle
ed e
Ġáŀ± áŀĻ
Ġw ww
áŀļáŀĬ áŀĢáŀĬáŀĦ
ic us
ic ations
Ġin j
Ġf ace
Ġf uel
Ġf elt
Ġf ramework
Ġf alse
áŀĶáŀĳ áŀĶáŀī
Ġd ram
Ġm ental
ĠC N
ĠS el
ĠS ang
ĠS up
Ġh und
Ġh yper
áŀĺáŀł áŀĢ
am s
áŀĢáŀĽ áŀĽ
ĠáŀĸáŀĽ áŀĺáŀĢ
ĠM ang
Ġre pe
le m
le ep
ĠR ad
ĠR od
ĠB ro
ĠB ase
ĠB oth
ĠB ank
ĠE imeria
ur d
ĠP ost
im m
ĠD u
ĠH u
ĠF our
ĠF uj
ĠF iend
ĠF unny
áŀ§ áŀİ
áŀĶáŀļáŀĺ áŀľáŀĦ
un s
Ġcon j
Ġcon vers
ĠL ag
ĠL anguage
Ġáŀ£ áŀļ
áŀĺáŀľ áŀļáŀľáŀĦ
ĠN ep
ĠN ote
ĠáŁ¢áŁłáŁł áŁłáŁłáŁł
ang es
ĠW ork
Ġst ay
Ġst ream
op ath
her ry
est ions
ĠáŁ¡áŁ¡ áŁ¥áŁł
áŀļáŀī áŀī
ab il
ry phon
ran e
ĠCar D
ĠCar l
Ġr h
Ġr ise
Ġr isk
Ġsp or
Ġsp irit
Ġch o
ĠáŁ£áŁł áŁ¢
ĠáŁ£áŁł áŁ£
ĠáŁ£áŁł áŁ¦
ha o
Ġinc ubation
Ġdis s
Ġ4 4
áŀıáŀħ áŀĽ
Ġáŀļáŀİ áŀ«áŀĳ
Ġsh own
áŀľáŀĬ áŀĳ
ĠY uan
ĠáŁ£áŁ¡ áŁ¢
ĠáŁ£áŁ¡ áŁ©
ĠáŁ¢áŁ§ áŁ©
ail in
Ġdes ired
Ġel im
Ġel ected
ĠIt s
Ġqu ant
Ġle ave
ĠPh uc
erv ation
te au
Ġbir th
ĠáŁ¡áŁ©áŁ¢ áŁ£
ĠX ang
Ġro ck
Ġgr and
ĠáŁ¡áŁ©áŁ¡ áŁ¦
Ġvar ieties
Ã¡ p
ĠáŁ¡áŁ©áŁł áŁ¥
Ġinter mediate
ĠMar x
Ġ12 5
ĠáŁ¤áŁ¢ áŁł
Ġfound ation
ax y
áŀľáŀĳ áŀł
Ġimp oss
Ġhum ans
Ġconst rain
Ġserv e
ĠáŁ¡áŁ¨áŁ§ áŁł
Ġconc rete
Ġ.- (
yl van
Ġclass ical
à¸« à¸Ļ
Ġsl ight
Ãł nh
Ġlarg er
Ġinvolv ement
à¸ŀ à¸£à¸°
Ġsupport ed
Ġprot ect
Ġevery thing
ĠCent er
ĠCol lege
Ġopp ortun
Ġstruct ures
fl ow
sh aped
Ġnear ly
Ġauthor ity
Ġconstruct ed
Ġrev olution
ĠEar ly
Ġpat tern
Ġdial ects
Ġintest ine
ĠMod ern
Ġbeh av
Ġess ential
Ġrespect ively
ĠCrystal on
ĠIS O
Ġmusc le
Ġisol ated
Ġunderstand ing
ĠVir gin
åį Ĺ
ĠJac ques
á»ĳ c
ĠCour t
Ġadop ted
Ġappe ared
Ġfundam ental
éĦļ çİĸ
Ġtrop ical
ĠSalmon ella
itte e
ĠVers ailles
Ġsemant ics
Ġaet iology
ĠDrac onite
! "
1 20
1 30
B I
C ar
C al
C om
E M
F rom
G r
O P
O ther
P HP
S ome
T ur
V en
b ur
b ody
c el
d en
f old
h ouse
k or
l ig
l op
l ight
l ie
n t
n et
z ak
Â °
Ä ©
Î ¿
Ï ģ
é ĸ
é ļ
Ġ è
Ġáŀ »
áŀ· )
áŀĽ áŀī
áŀĻ áŀıáŀĢ
áŁĭ áŀ¶
Ġáŀĵ áŀĢáŀĺ
Ġáŀ¢ áŀĺáŀĵáŀŁ
áŀĳ áŀļáŀĩ
Ġáŀĩ áŀĤáŀı
áŀī áŀľáŀĦ
áŀĩ áŀĬ
Ġáŀģ áŀĢáŀħ
Ġáŀł áŀĺ
ĠáŀĽ áŀĶáŀĽ
áŀł áŀľ
áŀĲ áŀĳáŀŁ
Ġ( ?)
áŀļáŀŁ áŀĦáŀŁ
in f
in y
in ciples
Ġa id
Ġáŀ¯ áŀļáŀĢ
Ġáŀ§ áŀĻ
on ym
áŀľáŀı áŀĶáŀļ
an ies
Ġo il
ĠáŀĻáŀĢ áŀı
Ġáŀ¢áŀŁ áŀĢáŀĽ
Ġs ection
Ġs ides
Ġc os
Ġc lear
Ġc lean
it age
or at
ĠáŁ£ áŁ©áŁł
Ġw ings
Ġw arm
Ġw ides
áŀĻáŀĢ áŀĵ
Ġp urs
Ġf ailed
Ġd ate
Ġm is
Ġm oney
áŀĽáŀĦ áŀľ
áŀŁáŀĽ áŀĵ
áŀĺáŀı áŀĳ
ĠC oll
Ġto ld
Ġl egend
Ġ1 000
Ġ1 19
Ġ1 11
ĠT echn
áŁ§ áŁł
us ed
ĠA re
ĠA ge
ĠA ges
ĠM X
Ġre ject
ĠáŀĵáŀĤáŀļ áŀľ
ĠR ichard
ĠB al
ĠB et
ul s
ĠP an
ĠP at
ig en
ir i
Ġ? ?
ly ing
ĠH yper
ut ral
ĠF ire
ist ed
ĠG DP
ĠL ang
ĠL ive
Ġáŀ£ áŀĤ
ĠK an
ĠK en
áŀĻáŀĺáŀĢ áŀĬáŀĽ
ĠáŁ¡áŁ¨ áŁ©áŁ¥
ra it
Ġv el
ĠW atch
ĠW TO
th ur
Ġst rateg
op ol
Ġ19 00
Ġ19 18
Ġan imal
Ġcom es
ies in
ab in
Ġde hyd
ĠV SIP
ill ing
ĠJ oseph
ĠJ eff
ap ore
ĠCar P
og er
Ġr ates
ĠO ver
pt oms
Ġus ers
Ġinc or
ib b
ĠáŀĿ áŀĺ
Ġ4 2
ĠTh us
iz zard
ĠáŁ¡áŁ©áŁ¤ áŁ£
Ġint ended
Ġu pper
Ġcl imate
ĠáŁ¢áŁ¦ áŁ©
ĠáŁ¢áŁ§ áŁ¢
ĠáŁ£áŁ¢ áŁ£
ĠáŁ£áŁ¢ áŁ©
Ġper cent
Ġfl av
Ġfl esh
Ġel ection
ah u
ĠáŁ£áŁ¥ áŁ§
ne e
ĠáŁ£áŁ£ áŁ¥
ĠáŁ£áŁ£ áŁ¤
ĠáŁ£áŁ£ áŁ§
à¹Ģ à¸Ńà¸ģ
Ġev olution
ays ia
ci um
ug by
Ġtrans form
áŀ¯áŀĢ áŀ§áŀı
ĠáŁ¡áŁ©áŁ¡ áŁ£
ĠAl f
ĠáŁ£áŁ¤ áŁ§
rop ri
anc ell
ĠáŁ¡áŁ©áŁł áŁ¢
ĠInd ones
Ġthem sel
Ġdiffer ence
Ġdevelop ing
ĠSoda M
Ġexp anded
Ġany thing
ĠáŁ¡áŁ¨áŁ¨ áŁ§
ash ion
Ġáŀ¢áŀł áŀĦ
Ġtem ple
Ġstud ents
Ġend ed
Ġdesign s
ĠáŁ¡áŁ¨áŁ§ áŁ¡
An anda
Ġcar bon
NE SCO
ĠáŁ¡áŁ¨áŁ¤ áŁ¢
Ġmet al
Ġmet ab
ĠGu ang
to zo
ĠáŁ¡áŁ¨áŁł áŁ¢
Ġlay ing
Ġcond ition
Ġtransm it
onal d
Ġdem on
Ġdem and
ĠáŁ¡áŁ¨áŁ£ áŁ©
ris is
ĠDe f
Ġexist ing
Ġpass ed
== ==
Ġopp osed
áŀĵáŀĢáŀĲ áŀıáŀļ
oh ann
ĠHist or
ourn alism
ĠSm ith
ĠSm art
Ġ2507 01
Ġsuff icient
ĠSec ret
ĠSec urity
Ġrepl aced
str ong
Ġperform ed
Ġperform ance
Ġreturn ed
ĠCarL exus
Ġsound s
Ġemer ged
ĠLi u
Ġpolic ies
Ġneg ative
yt es
Ġlet ter
ĠGal axy
Ġactiv ities
Ġseed s
augh ter
Ġcurrent ly
Ġrefus ed
Ġrecord ed
Ġáŀ¶ áŁĨ
Ġdecre ased
ĠAustral ia
Ġmathem atical
eros ol
Ġthous ands
Ġing red
Ge orge
Ġnerv ous
ĠPand avas
Ġarchae ological
Ġestim ated
olith ic
Ġcitiz ens
ĠMex ico
ĠFried rich
ylvan ia
Ġthemsel ves
. [[
? "
A v
E FA
H itler
R C
S y
V iá»ĩt
] )
b al
g u
i ac
p read
p rod
r n
r in
r if
s hip
t one
w ise
z en
à ®
Ġ Î
Ġ ï¼Ī
áŀ¶ áŁĤ
áŀĦ áŀ¥áŀĵ
áŀĢ áŀ¯áŀĦ
áŀı áŀĽáŀĦ
áŀĽ áŀĢáŀĺ
áŀĺ áŀŁáŀĦ
áŀ» áŀ·
ĠáŀĢ áŀĳ
ĠáŀĢ áŀĢáŀļ
áŁģ .
Ġáŀĺ áŀļ
áŀľ áŀļáŀĢáŀĺ
Ġáŀ¢ áŀļáŀı
áŀĳ áŀıáŀĶ
áŀĳ áŀħáŀļáŀı
áŀİ áŀĻ
áŀİ áŀļáŀĦ
Ġáŀı áŀĶáŀĴáŀĺ
ĠáŀĤ áŀĩáŀĻ
áŀģ áŀļáŀĢ
áŀł áŀħ
ĠáŀĹ áŀĵ
ĠáŀĹ áŀĽ
áŀĵáŀĢ áŀł
áŀĲ áŀī
Ġ( <
Ġt ub
he red
er ate
áŀĮ áŀĸ
áŀĺáŀĢ áŀļáŀİ
Ġo t
Ġs udden
âĢ ĺ
al o
Ġc row
áŀĨ áŀĶ
ed s
Ġp le
Ġp un
Ġp ark
Ġp owers
Ġf ig
Ġf ell
Ġf resh
Ġb ones
Ġd ed
Ġd raw
as k
as ak
Ġm al
Ġm osquitoes
Ġm orning
ĠC A
ĠC r
Ġl ives
ĠS M
áŁ£ áŁ¢
áŁ¤ áŁ¤
Ġ1 18
ĠT i
om at
ĠA C
ĠA y
ĠM ortality
ĠM unich
ĠR om
ĠB at
ĠB el
ĠB aird
ĠE qu
ĠE gypt
ur us
áŀģáŀİ áŀŁáŀĺ
ĠáŀĤáŀİ áŀļáŀĬ
ot an
ot es
Ġg ained
ĠD ark
ag ious
ĠH un
ĠI N
ĠI ran
un is
ĠâĢĿ (
ĠG az
ĠL am
ĠL ove
ĠL CD
ĠK ant
ĠN ap
ĠN ok
ĠáŁ¡áŁ¢ áŁ¥áŁł
ĠW all
if orm
áŀıáŀĹ áŀĸ
ant e
uc ks
qu o
ĠáŁ¡áŁ¦ áŁłáŁłáŁł
ĠV is
ess ion
ĠCar t
ĠCar Al
Ġ3 4
Ġ3 8
Ġr ough
áŀ« áŀĶ
ĠU K
ĠU p
Ġcont em
Ġcont our
ĠáŁ£áŁł áŁ¥
ĠáŁ£áŁł áŁ©
Ġnot ed
ign ed
Ġ]] ,
Ġar ms
Ġar med
Ġdis hes
Ġ5 6
ĠTh aksin
Ġse em
ound ed
ater al
Ġ6 00
ish ing
Ġ7 7
Ġ7 37
Ġcl osed
ord an
Ġwe alth
Ġpl ays
Ġcons ists
Ġag ric
amp ire
Ġme ant
Ġqu estions
ĠáŁ£áŁ¥ áŁ£
ĠáŁ£áŁ£ áŁ¡
Ġ-- (
àº ±
àº ĩ
Ġem pire
row ing
are k
Ġgr ant
az i
ĠáŁ£áŁ¦ áŁ£
ĠáŁ¡áŁ¨áŁ¦ áŁ¤
ĠáŁ¡áŁ©áŁ¡ áŁł
ĠáŁ£áŁ¤ áŁł
nam ed
Ġfeed ing
Ġvar iable
ident ial
Ġsub c
ĠáŁ¡áŁ©áŁł áŁ¡
ĠáŁģ áŁģ
ĠRe al
áŀ¶. ,
Ġ197 9
Ġexp ansion
ĠáŁ¦áŁ¢ áŁ¡
Ġmon ks
olv e
Ġco al
Ġpar ad
áŀļáŀĸáŀĽ áŀľáŀĶ
ett ers
ĠRo ak
Ġinst ruct
Ġext rem
Ġbel ong
ĠáŁ¨áŁ§ áŁ§
Ġ193 6
Ġcommun ist
ĠáŁ©áŁ¢ áŁ¨
ĠComm on
Ġgiv ing
Ġcur ve
Ãª u
unct ion
ĠThere fore
Ġident ity
Ġelect ronic
Ġcost s
por ation
à¸£à¸° à¸ģ
Ġview s
ĠáŁ¡áŁ¢áŁ¨ áŁ§
Ġchick en
Ġmat ter
Ġstruct ural
ns ylvania
Ġappear s
enic ill
Ġthink ing
cl us
Ġadv ant
Ġeas tern
Ġcamp aign
ij ing
ĠPen nsylvania
Ġfall ing
cent ury
uge ot
Ġfarm ers
Ġpoet ry
Ġhaemorrh age
Ġiss ues
Ġexec ut
Ġexec ution
Ġjo ined
Ġsugg est
Ġflo ors
Ġconcern ed
ouv ong
Ġfav or
Äĥ n
Ġrad io
Ġrefus al
Ġur ban
Ġaccept ed
ĠPers ian
Ġvict ory
ĠAustral ian
ĠZh ang
Ġminist er
Ġsaf e
verse as
Ġstrain s
Ġbron ch
ĠChÃ¢ teau
ĠOff ice
Sw ift
ĠKir by
ĠOb ama
Ġinfect ious
Ġcam era
ĠCath olic
Ġdesp ite
Ġaward ed
Ġaver age
Ġmetaph ys
Ġproventric ulus
ĠHeb rew
Ġimposs ible
Ġwides pread
% ,
5 2
A G
A meric
B et
B irds
C E
D e
D r
H A
I mage
J ac
M a
N e
N Channel
V I
W ith
] ,
b um
f all
i at
l it
l ong
l eness
o a
t re
t ech
Å «
Î ¹
ä ½
å Ł
Ġ ri
Ġ eth
Ġ ïģ
ĭ å
áŀĦ áŀĴ
áŀĦ áŀļáŀĺ
áŀĦ áŀĢáŀĺ
áŀĢ áŀĢáŀļ
áŀĢ áŀļáŀıáŀĵ
áŀĻ áŀĪ
áŀĺ áŀĴáŀĺ
áŀĺ áŀĦáŀħ
áŀĶ áŀļáŀĸáŀĽ
áŁĨ áŁĨ
áŁĨ áŁĤ
ĠáŀĢ áŀĻ
áŁģ áŀ¶
Ġáŀĳ áŀıáŀĳ
áŀ¼ )
Ġáŀ¢ áŀľáŀĽ
áŀĩ áŀĻáŀľáŀĺ
áŀĴ áŀī
ĠáŀĹ áŀĶ
áŀ¢ áŀĩ
ĠáŀĻ áŀŁáŀĢ
áŀĶáŀŁ áŀļ
áŀĲ áŀĲ
áŁĮ áŁĦ
Ġa flat
Ġáŀ¯ áŀĢáŀĺ
áŁĬ ,
on n
áŀļáŀİ áŀĶ
en ozoic
Ġo v
ĠáŀĶáŀļ áŀĻ
Ġáŀ¢áŀŁ áŀĻ
Ġs and
Ġs ons
al ed
or b
Ġw ing
áŀļáŀĬ áŀļ
áŀĽáŀĶ áŀĺ
ic le
ic ide
Ġp an
Ġf urn
Ġf ields
Ġf ruits
Ġb al
Ġb attle
Ġb odies
Ġd ur
Ġm un
il ation
ro c
ĠC la
áŀļáŀľ áŀī
Ġl es
Ġl ines
ĠS S
ĠS or
ĠS il
ĠáŀĦ áŀĽ
áŁ¤ áŁ¦
ĠT ri
Ġh ap
Ġh arm
ĠM u
ĠM es
ĠáŀŁáŀł áŀı
os ure
Ġn ort
Ġn ames
ĠR ut
ĠR em
ĠB our
ĠB ast
ĠB rad
ĠE C
ĠE M
ĠE uro
ur u
Ġ. ),
ul ent
ĠP ale
ĠP ailin
ir t
Ġ? -
im g
im s
ad y
ad el
Ġg ot
Ġg rav
Ġg izzard
Ġe un
ĠD am
ĠD iv
ĠD irect
ĠD rake
ĠH ug
ĠI ce
ĠF er
ĠF lor
ch a
od ern
un k
st and
st ein
áŀĺáŀĳ áŀŁ
ĠG ia
Ġcon sequ
ĠáŁ¡áŁ¨ áŁ©áŁ¨
Ġv ary
th a
th at
Ġst ages
Ġst ock
Ġpro f
Ġpro gress
à¹ Ĭ
ĠV ision
ĠV ictor
áŀĽáŀı áŀĺáŀĢ
ĠJ ump
ĠJ ews
eg a
ri ze
Ġhe ard
Ġhe ns
se ud
Ġr ising
Ġex amin
ell o
ell ig
áŀ£ áŀĤ
ĠIn v
ew ish
Ġcont ext
ĠáŁ£áŁł áŁ¨
Ġ/ /
ik it
Ġ4 7
iz ard
rit ing
Ã© ric
Ġun its
à¸²à¸ Ħ
à¸²à¸ Ī
Ġim pl
Ġres erv
Ġwe b
Ġpl ans
ens us
ĠáŁ£áŁ¡ áŁł
ĠAn ton
olog ist
ĠAs watthama
ĠIt alian
ne ys
Ġpre p
ons in
ĠáŁ£áŁ£ áŁł
ĠáŁ£áŁ£ áŁ¢
ĠáŁ£áŁ£ áŁ£
ĠáŁ£áŁ£ áŁ©
Ġev olved
Ġro t
ft en
ick ens
ĠáŁ¡áŁ©áŁ£ áŁ¤
ild ing
oph ag
Ġgr ass
ĠZ e
ĠáŁ£áŁ¦ áŁł
12 6
ke y
Ġvar iation
à¸¥ à¹Ģà¸Ńà¸ģ
anc ed
ĠáŁ¡áŁ©áŁł áŁ¦
Ġdiffer ences
bo x
Ġdec ided
Ġgovernment s
Ġexp ressed
Ġdist rict
kh yun
Ġmon archy
ĠáŁ¨áŁ¨ áŁ¡
ĠáŁ¨áŁ¨ áŁ§
áŀŁáŀł áŀļáŀĬ
Ġimport ance
Ġpar all
Ġwar ning
Ġext ensive
Ġra ised
Ġmov ements
sc he
Ġmus ical
Ġ195 9
ĠÃ Ĺ
ĠPl ato
arg oyle
ĠáŁ¡áŁ¥áŁ¦ áŁ§
lo ading
Ġpos it
Ġdet ailed
Ġgood s
Ġinvolv es
áŀĢáŀ¢ áŀļáŀŁ
ĠEx o
ĠáŁ¡áŁ§áŁ¨ áŁ©
Ġoper ations
Ġcomb s
Ġarchitect s
ĠUS A
áŀĢáŀĻáŀĢ áŀĺáŀĢ
ĠAd d
ival ent
Ġident ification
Ġrest rict
Ġallow ing
Ġpopular ity
Ġpract ices
isc onsin
SE AN
ĠAt l
occ idi
Ġgl ass
Ġplan et
Ġtechn iques
Ġcare er
Ġann ounced
Ġsuff ered
ĠáŁ¢áŁ¤áŁ¨ áŁ¨
Ġimm unosupp
esp ite
Ġfarm s
tain ment
Ġantib ody
Ġjo ints
Ġteach ing
ĠTal iesin
Ġgre y
Ġsugg ested
ĠáŁ¢áŁ¥áŁ¦ áŁ¢
Ġport ion
Ġwant ed
Ġorigin ally
ĠBell um
Ġsha red
ĠCH NChannel
Ġsoft ware
Ġder ived
Ġteac hers
lar ation
Ġcompon ents
Ġsurround ing
Ġcapt ured
áŀļáŀ® áŀı
Ġpull ets
Ġvill age
sing leness
Ġtrav el
Ã©p ce
Ġdescript ion
Ġfail ure
ht m
Ġdomest ic
ĠFound ation
ĠCart ier
Ġeun uch
A ut
B en
B ress
B ull
G eneral
J ames
J ump
M ed
N one
P R
S N
U R
V espucci
W orld
d iv
d own
f ire
g color
h ood
h old
j i
k t
l ov
l og
p o
p op
s m
t hen
z i
Â º
Ê °
Ø §
à ´
é ĺ
áŀļ áŀļáŀĸ
áŀļ áŀĤáŀĺ
áŀı áŀļáŀħ
áŀĻ áŀĻ
Ġáŀĵ áŀľáŀĢ
ĠáŀĢ áŀļáŀľáŀı
ĠáŀĢ áŀļáŀĩáŀĢ
Ġáŀĸ áŀĤ
áŀľ áŀļáŀŁ
áŀľ áŀļáŀĶáŀĳ
áŁĤ áŁĪ
áŀĸ áŀĳáŀĳ
ĠáŀĤ áŀł
Ġáŀģ áŀļ
ĠáŀĲ áŀĻáŀĺáŀĢ
áŀģ áŀļáŀĹ
áŁĥ áŁĸ
Ġ( âĢľ
Ġt ry
áŀļáŀĸ áŀİ
Ġ) ]
in ch
áŀŁáŀĵ áŀŁáŀĺ
en berg
at us
at ers
Ġáŀ¥ áŀĺáŀŁ
áŀĶáŀĵ áŀĶáŀı
Ġáŀ¢áŀŁ áŀĺáŀı
Ġ" [
Ġ" ),
Ġs ays
ar n
al ities
Ġc and
Ġc ease
Ġc orn
Ġc ross
Ġc elebr
Ġc risis
it Ã©
or us
or ation
or ks
ĠáŁ¤ áŁ¡áŁł
Ġp heas
Ġb ad
Ġb gcolor
Ġd og
à¸ ĺ
il ib
ĠC IA
Ġl y
Ġl iqu
áŀĦáŀı áŀĩ
ĠS ab
ĠS erv
ĠT O
ĠT own
ĠáŁ§ áŁłáŁłáŁł
ev i
áŀĸáŀĽ áŀģ
am ing
ĠA cc
ĠA ward
et ts
ĠM el
ĠM os
ĠM iss
Ġre in
Ġre asons
ĠáŀŁáŀł áŀľáŀı
Ġn av
ĠáŀĵáŀĤáŀļ áŀĪ
Ġth r
ĠR h
ĠR ock
Ġáŀ¢áŀĹ áŀĸ
id ad
ig an
ir th
ly wood
iv ism
ĠD en
ĠD ire
ĠH ome
ut t
Ġáŀ£ áŀľ
ĠK al
ĠáŁ¡áŁ¢ áŁ©áŁ¥
ĠW isconsin
th rop
Ġ19 14
áŀĦáŀħ áŀı
av irus
ud es
Ġan ore
ĠáŀıáŀĲ áŀĹ
ĠEvil I
ĠV Äĥn
áŀĽáŀı áŀĶáŀŁ
end ar
ĠáŀĢáŀı áŀľ
ĠáŁ¡áŁ§ áŁłáŁł
Ġhe nce
ate au
Ġr ich
Ġex cess
Ġex ception
ĠO S
ĠO ng
ĠáŀļáŀĲ áŀŁ
Ġy ield
ĠU C
ĠU NESCO
ĠU EFA
áŀ£ áŀĶ
pp ing
Ġ... "
ĠáŀĻáŀĢáŀĺáŀĢ áŀĸ
Ġinc l
ib et
Ġar rest
Ġwor m
Ġ4 1
Ġ4 3
Ġ5 1
Ġáŀľáŀļ áŀĩáŀĵ
iz es
à¸²à¸ ĭ
ip ment
Ġwe bs
ĠáŀĵáŀĤ áŀļáŀİ
ach us
ĠY eti
Ġpr int
Ġpr inciples
ĠFran co
Ġcomp any
Ġph osph
ĠáŁ£áŁ¢ áŁ¦
ĠáŁ£áŁ¢ áŁ§
Ġtr ich
ĠAn ouvong
Ġme al
Ġ9 7
Ġ9 8
Ġpre ced
âĢ¦ ..
ĠX uyÃªn
Ġcaus ing
ĠáŁ¡áŁ©áŁ£ áŁ¨
Ġtw enty
Ġ199 7
up s
ĠZ en
Ġinv ented
Ġatt ract
ĠáŁ¡áŁ¨áŁ¦ áŁ¡
ruct ure
áŀ® áŀĢ
à¹Ģà¸ Ī
ĠSoda F
ĠPro cess
Ġacc ur
Ġacc omp
ollow ing
Ġ197 3
Ġresp ond
Ġpres erv
Ġsc reen
ĠáŁ¨áŁ¨ áŁ¦
Ġpar as
ĠRo ach
ophy ll
ĠáŁ¡áŁ¨áŁ§ áŁ£
ĠAnd roid
Ġ193 3
Ġconc luded
ĠáŁ¡áŁ¥áŁ¢ áŁ§
ĠComm ittee
Ġpos itions
Ġpower ful
ats u
Ġtrad itions
rav ada
Ġcoll ect
Ġleg al
Ġoffic ers
Ġoffic ially
ĠSc ott
Ġpartic ip
Ġarchitect ural
Ġfour th
ĠÄĲ á»ĵng
Ġreport s
Ġpract ical
ĠáŁ¡áŁ¥áŁ£ áŁ©
ena ult
ĠAb omination
ĠMus eum
Ġappear ance
ĠáŀŁáŀļáŀĹ áŀĦ
ĠáŀŁáŀļáŀĹ áŀĶáŀļ
Ġpropos ed
Ġcal cium
Ġrepresent ed
Ġarg ument
ĠTw itter
ĠMa ha
Ġsuff ering
ĠJack al
Ġfac ilities
Ġunivers e
á»Ļ i
á»Ļ ng
Ġrun ning
Ġleng th
Sp read
Ġregard ed
ĠCarL otus
Ġsch olar
IS MO
ĠLi Ãªu
ĠIm perial
áº£ i
ĠNot re
Ġheav y
ĠCyst e
ĠRes earch
ĠMad rid
struct ion
Ġagre ements
Ġsit uation
Ġthous and
âĶĢâĶĢ âĶĢâĶĢ
ĠSir ikit
Ġdistingu ished
à¸ĵ à¸°
Ġens ure
ĠDis ease
Ġrecomm ended
Ġpiec es
Ġinstit utions
Ġfinanc ial
Ġabsol ute
Ġburs a
àº° àº
Ġbill ion
Ġnut rit
ĠEnter tainment
ĠSodaD iet
ĠElect ric
Ġoccasion ally
Ġspok en
Ġgramm atical
ĠIndones ia
Bress on
ilib rium
+ +
. /
4 00
B er
B ut
E D
G B
G ia
G ran
I L
I T
L ee
M ark
O L
P at
T T
U P
Y R
a rent
b our
d is
e ast
i u
j o
l s
l av
m et
m iss
n ers
o ir
p ool
r Ã©
t an
t ype
u ous
v ette
w ife
Ã £
Å Ľ
É Ļ
Ð °
å ·
å ¸
å Ĳ
æ Ī
Ġ Ä
Ġ id
ģ n
áŀļ áŀĴáŀĺ
áŀĵ áŀŁáŀĦ
áŀĦ áŀĻáŀĢ
áŀĢ áŀĨ
áŀı áŀ®
áŀĺ áŀļáŀĺáŀĵ
áŀĶ áŀĸáŀĽ
áŀĶ áŀĴáŀĵ
ĠáŀĶ áŀļáŀĸ
áŁĩ áŁģ
ĠáŀĢ áŀ¡
ĠáŀĢ áŀĦáŀĽ
áŁģ ,
áŀ¸ )
ĠáŁ ĥ
áŀ¼ áŁĴ
Ġáŀ¢ áŀĽáŀĺ
áŀĳ áŀħ
Ġáŀļ áŀĦáŀĳ
ĠáŀĤ áŀĳ
ĠáŀĤ áŀļáŀł
áŀĩ áŀħ
áŀĴ áŀıáŀĶ
ĠáŀĻ áŀĿ
áŀ¡ áŀĢáŀİ
áŀĵáŀĢ áŀ¢áŀĹ
áŀĲ áŀĴáŀĺ
Ġ( -
Ġt on
Ġ) :
in ar
Ġa f
Ġa udi
ĠáŀĺáŀĢ áŀŁ
Ġáŀ¯ áŀĽ
Ġáŀ¯ áŀĢáŀĵ
re al
en um
Ġc age
Ġc ement
Ġc oup
it i
it ations
or p
or gan
or ption
ed an
áŀļáŀı áŀĶáŀŁ
Ġáŀ± áŀĹáŀı
áŀŁáŀĺ áŀķáŀĽ
ĠáŁ¤ áŁ¡áŁ£
áŀļáŀĬ áŀĦ
ic ard
ic ine
Ġin herent
Ġáŀ§áŀĶ áŀłáŀħ
Ġp H
Ġp aper
Ġp rior
Ġf reedom
Ġb a
Ġb rain
Ġd ucts
el op
Ġm ess
Ġm icro
Ġm exic
il ateral
ĠC ond
ĠC ler
ĠC AM
ĠS om
ĠS av
ĠS uch
ĠT uring
áŁ¦ áŁ§
ac ement
ĠáŁ¦ áŁ£áŁł
áŀĸáŀĽ áŀĸ
us c
ĠáŀĸáŀĽ áŀ²
ĠáŀĸáŀĽ áŀļáŀĲ
ĠA k
ĠA mp
áŀĸáŀŁ áŀĶ
ol ate
ĠM id
ĠM ir
ĠM ess
os ter
Ġth or
ĠR a
ĠR ights
ĠB a
ĠB ra
ĠB irds
ĠB Ã¬nh
ĠB otan
ĠP C
ĠP op
ir ie
ir med
ĠáŀŁáŀļáŀŁ áŀļ
Ġg as
ĠD ou
ĠD om
ĠH al
ĠH ok
ĠH uman
áŀ§ áŀĶáŀľ
ce ived
áŀļáŀļ áŀŃáŀĢ
em y
un ci
ist ance
Ġcon vention
ĠL og
ĠL ater
ĠL ank
ĠáŁ¡áŁ¥ áŁłáŁłáŁłáŁł
ter ior
ra ham
Ġv an
ĠW ater
Ġst ress
Ġ19 10
Ġ19 23
Ġal ign
av ati
est ive
ĠáŁ¡áŁ¤ áŁ©áŁ¢
ant ry
ab eth
ĠJ ones
ap ura
ĠCh ild
ĠCh ÃŃ
Ġ3 7
Ġ3 000
se y
áŀ« áŀŀ
ĠáŁ©áŁ ©áŁ
art ers
pt ions
all eng
Ġch ann
Ġch oice
gh an
Ġar ts
áŀļáŀĪ áŀĶ
ub l
pl ate
pl ete
aus s
ĠTh i
iz ations
áŀıáŀħ áŀħáŀĢ
Ġun s
ass er
ok yo
ord ination
ĠáŁ¤áŁł áŁ¥
Ġpl aces
Ġpl anning
erm atitis
Ġfe et
Ġcomp et
Ġab dom
ll a
áŀĽáŀĺ áŀļáŀıáŀĢ
ail s
ric s
Ġfl ock
olog ies
Ġel ev
Ġme et
Ġqu ail
In t
Ġ9 9
Ġapp arent
áŀľáŀļáŀİ áŀĵ
ob lin
we b
ĠáŁ£áŁ£ áŁ¦
à¹Ģ à¸¡
à¹Ģ à¸¥
ĠáŁ¡áŁ©áŁ£ áŁ¡
ci ences
ĠAr thur
az ole
Ġatt ain
ĠáŁ£áŁ¦ áŁ¥
oth ing
ĠQ uang
30 6
the less
à¹Ģà¸ ŀ
Ch an
ĠSoda S
Ġsec ular
Ġexp osure
Ġpop ulations
ĠáŀĶáŀľ áŀļáŀĢáŀī
Ġfollow s
ĠáŁ¤áŁ¤ áŁ£
Ġsc rim
ĠáŁ¡áŁ¨áŁ¨ áŁ¦
ful ly
Ġpar liament
Ġcell ulose
=" #
acc ul
à¸§ à¸²à¸¡
ĠáŁ¡áŁ¨áŁ§ áŁ¦
Ġed ition
ours es
Ġresult ed
ĠTr ade
iev al
ÄĲ á»ĵng
arg et
Ġprocess es
ĠáŁ¡áŁ¥áŁ¦ áŁ¦
Ã¨ s
Ġmed ical
Ġ194 9
Ġáŀ±áŀĳ áŀĶáŀı
Ġins ectic
Ġnec k
Ġhelp ed
áŀĢáŀ¢ áŀĴáŀĺ
Ġmark ets
ĠáŁ¡áŁ¨áŁ£ áŁ¤
ĠAd ult
ĠDe ad
Ġappro ved
à¸Ī à¸°
Ġprot ection
ĠCol on
Ġvacc ination
Ġopp os
Ġmar ried
Ġz one
ĠJul iet
Ġfunct ions
Ġstrong ly
ĠCor vette
uck er
Ġproduc ing
ane ous
Ġshow ing
Ġbeliev e
Ġpal ace
unn el
Ġpur ch
Ġconv ey
Ġattack ed
Ġstandard s
Ġsev en
Ġtransl ated
Ġdefin ition
unt u
ĠHT C
ozo ites
Ġfung al
Ġheav ily
Ġsepar ated
Ġ5030 5
Ġdocument ation
ĠGuard ian
Ġsum mer
cast le
Ġteac her
Ġembry on
bor ne
ĠMand arin
Ġleaders hip
Ġmaint ained
Ġsut ras
Ġtool s
Ġjournal ists
ĠDew ey
ĠOper ation
Ġempt iness
Ġtel evision
Ġconscious ness
Ġethn ic
Ġfa ith
Ġsym ptoms
ĠRoad ster
Ġhyd ro
ĠBae khyun
ĠGa on
ĠCarR enault
YP E
din and
áŀĢáŀıáŀĶ áŀĸ
ĠVirgin ia
nee zing
ĠAlf red
Ġhap pen
ĠBast ille
occidi osis
achus etts
Ġscrim mage
' ,
A F
A X
A c
B o
E X
H omo
J oseph
V itamin
W right
[ ?
b untu
c est
c hen
c raft
c alled
e on
g ans
h ot
i ar
i ological
j oy
j amin
l ow
m ang
r m
s en
t d
w ich
Ð µ
æ °
æ ĺ
è Ī
Ġ rib
Ġ urg
Ġáŀ ¹
áŁĴ áŀ·
áŀĦ áŀľáŀĦ
áŀĢ áŀļáŀŁ
áŀĢ áŀ§áŀĶ
áŀĽ áŀľáŀı
áŀĻ áŀĤáŀı
áŀĻ áŀıáŀŁ
áŁĭ )
ĠáŀĶ áŀ¡
Ġáŀĵ áŀİ
ĠáŀĢ áŀĩ
ĠáŀĢ áŀĬ
ĠáŀŁ áŀĶáŀļ
áŀ¸ áŁĪ
áŀħ áŀľáŀĽ
Ġáŀ¢ áŀİáŀı
Ġáŀĩ áŀħ
áŀĤ áŀĶáŀĵ
áŀĤ áŀłáŀĶ
Ġáŀļ áŀ¡
áŀİ áŀľáŀĢ
Ġáŀı áŀĤ
áŀĬ áŀĻ
Ġáŀģ áŀ¡
Ġáŀģ áŀŁáŀĵ
áŀĴ áŀĢáŀħ
ĠáŀĹ áŀĺ
ĠáŀĻ áŀĩ
áŀĵáŀĢ áŀŁáŀĵ
áŀĵáŀĢ áŀ§áŀĶáŀı
áŀĲ áŀļáŀŁ
áŀļáŀĢ áŀĳ
áŀĭ áŀı
áŀĭ áŀĸáŀĽáŀĸ
Ġt able
Ġt ouch
in an
Ġa ware
Ġa erosol
Ġáŀ¯ áŀĺ
áŀļáŀĺ áŀı
áŀķ áŀĽáŀĶ
Ġáŀ§ áŀĹ
er ob
re f
re hens
en ue
Ġo d
Ġo verseas
at on
ĠáŀĻáŀĢ áŀĬ
Ġ" -
Ġs ap
Ġs ever
Ġc e
Ġc at
Ġc ul
Ġc oun
it led
or ing
Ġáŀĩáŀĵ áŀľ
Ġw ear
Ġw isdom
ĠáŁ¤ áŁ¡áŁ§
áŀļáŀĻ áŀĵ
áŀļáŀĻ áŀĦ
Ġáŀī áŀĻ
Ġin act
Ġp ra
Ġp ict
Ġf ert
Ġf illed
Ġf irm
Ġb ring
Ġb rown
áŀĢáŀĬ áŀĢ
Ġd ates
ou is
ĠáŀħáŀĦ áŀĸ
à¸ ©
as m
as is
Ġm ist
Ġm ild
Ġm ycoplasma
Ġm oment
ĠC C
ĠC atal
ĠC enozoic
áŁİ áŀ¶
áŀļáŀľ áŀĵ
Ġl etters
ĠS and
ĠS ap
ĠS olar
ĠT el
ĠT ang
ĠT ime
ĠáŁ§ áŁ¥áŁł
áŁ¦ áŁł
am ic
am et
am ph
ĠáŀĸáŀĽ áŀıáŀı
ĠA B
ĠA p
ĠA ut
ĠA ff
ĠA mb
ĠA gre
et y
ĠM arek
oc t
oc ytes
Ġn od
ĠR un
ĠR ob
áŀĵáŀĦ áŀĹ
ĠB an
ĠB ord
ĠB áº£o
id ae
ir ation
Ġis n
Ġg ent
Ġg ames
Ġg arden
iv en
iv irus
ĠD an
ĠD al
ĠD aily
ĠI BM
ĠF ront
ĠF ighter
ch an
em ic
st ag
ĠâĢĿ )
ĠG el
ĠG ryphon
ĠL oc
ĠL ich
ĠL ike
ĠL ife
Ġáŀ£ áŀİ
Ġáŀ£ áŀĴ
ĠáŁ¡áŁ¥ áŁ¡áŁ©
ĠáŁ¡áŁ¨ áŁ©áŁ¦
ĠáŁ¡áŁ¨ áŁ©áŁ©
ĠáŁ¡áŁ¨ áŁ©áŁ§
Ġv ert
Ġv ote
Ġv ectors
ĠN on
ect re
ĠW izard
Ġst ep
ĠThe ir
Ġor gans
av an
Ġan sw
Ġan cest
áŀıáŀĹ áŀļ
uc as
uc ation
ĠEvil W
ĠáŁ¡áŁ¦ áŁ¡áŁ¨
ĠV o
ĠJ u
ap es
ĠCar Pe
ĠCh ap
ĠCh urch
Ġhe ar
og en
Ġr ivers
Ġr ival
ĠO f
Ġat m
our ces
art ial
ell es
ell ular
ell inan
all s
Ġsp ent
Ġk il
Ġch air
áŀħáŀŁ áŀļáŀŁ
ĠIn s
Ġcont ained
Ġcont ract
Ġcont agious
Ġ/ .
ast s
Ġ4 8
Ġ4 9
ough ing
ĠTh under
iz ont
iz abeth
Ġse as
Ã© m
Ġun it
Ġun ique
à¸²à¸ §
à¸²à¸ Ń
ĠSt ar
ĠSt and
act ed
act ions
Ġim per
Ġ18 0
Ġ18 39
ĠY ang
ress ive
ram ural
Ġinf est
áŀĳáŀŁ áŀĸáŀĽ
Ġpart ly
olog ically
Ġ9 2
Ġapp ly
ĠáŁ£áŁ¥ áŁ¤
ĠáŁ£áŁ¥ áŁ©
ĠPh ys
Ġ10 6
Ġpre v
ai h
Ġla id
Ġsign ed
ĠAr m
Ġrec on
Ġrec ords
Ġrec overy
Ġsome one
ĠZ ombie
Ġatt ention
ĠáŁ¡áŁ¨áŁ¦ áŁ¨
ĠáŁ£áŁ¤ áŁ¥
ĠáŁ£áŁ¤ áŁ¢
ĠáŁ£áŁ¤ áŁ¤
rib e
áŀĵáŀļáŀĦ áŀĦ
Ġnew ly
ĠáŁ£áŁ§ áŁł
Ġ16 00
à¹Ģà¸ ª
Ġne ither
Ġne utral
com p
à¸µ à¹ī
ĠPro d
ĠPro ject
ĠPro fess
Ġdec ision
Ġsim pl
Ġmod els
Ġ197 2
ĠáŁ¤áŁ£ áŁł
yc line
ingu istics
aw a
ĠáŁ¨áŁ¨ áŁ¤
ĠSp or
ĠSe e
Ġgener ation
ĠCon c
ĠCon stitution
Ġperiod s
Ġequ ivalent
Ġequ ipment
Ġlead s
ĠIs land
Ġgo es
Ġcommun ities
An t
à¤ °
Ġmo on
ĠáŁ¡áŁ¥áŁ¢ áŁ¢
Ġ195 3
Ġtyp ed
Ġclass ified
lo ad
Ġlingu ists
ham ma
Ġart ist
Ġdet er
ĠáŁ¡áŁ¢áŁł áŁ£
Ġ194 6
Ġthough ts
epend ing
Ġorig ins
Ġcharacter ised
Ġhost ed
Ġ/> </
Ġcomput ers
Ġview ed
Ġexpl icit
à¸¸ à¹Ī
Ġsw allow
à¸Ħ à¸§à¸²à¸¡
Ġgl ott
Ġgl obal
ĠSo ft
Ġpropos ition
ĠAm ong
ĠSer ies
ĠChamp a
ĠChamp asak
Ġann ual
Ġsyn ov
Ãº c
Ġnov els
roph ic
cop e
Ġrecogn ition
Ġess entially
Ġhttp s
ĠCont in
Ã§ a
ĠMal aysia
Ġfocus ed
Ġcr uc
Ġbord ers
Ġtransl ation
Ġconcept s
Ġconsider able
Ġobserv ed
Ġprovinc ial
Ġentire ly
ĠEc onomic
Ġamount s
iter ran
Cambod ian
Ġmusc les
ĠCommun ist
reg ular
ĠMc G
Ġphilosop her
åľ °
ĠSI NA
ĠSI LV
Ġrapid ly
Ġmer ch
Ġdeb ate
Ġsuccessful ly
LE T
Ġdeterm ine
ĠKamp uc
Ġult imately
ĠHind u
Ġtoxic ity
Ġir regular
Ġcompil er
Ġdou ble
ĠMass achusetts
Ġkid neys
Ġconduct ed
Ġanaly tic
Ro bert
Ġbric ks
ĠMax well
Ġstreng th
Ġdrug s
Jack ie
Ġdiscipl ine
Inc ubation
ĠChampions hip
ĠPrem ier
ĠWil helm
Ġmicroscop ic
Ġrefuge es
Ġinscript ions
Ġhabl antes
ĠAristot le
è¶ Ĭ
bur gh
zak lan
ancell or
ĠSecret ary
ĠNap ole
enicill in
Americ an
ĠSor cer
ĠRut gers
ĠBotan ite
Ġchann els
ghan istan
ĠCarPe ugeot
Ġglott al
ĠSILV IA
) )
1 60
8 00
A f
B ar
E ast
E ng
H O
L ouis
M V
M icrosoft
N or
P L
R X
S a
S er
U I
V iet
W W
W OR
Y ou
b ut
c ing
c art
c ome
d i
e es
g ing
h an
i est
j una
k el
m m
n on
n ormal
o om
p ects
r fi
s we
s uch
u it
w orld
z er
z ech
Î ³
Ï ĥ
á ¸
ã ĥ
å £
å ¹
ç ľ
è ĩ
é ģ
Ġ à¸ª
Ī Ĵ
áŀĦ áŀ®
áŀĢ áŀĻáŀŁ
áŀĽ áŀıáŀĳ
áŀĻ áŀĺáŀı
áŀ» ,
áŀ» áŁĸ
áŀŁ áŀĽáŀĦ
áŀĶ áŀļáŀĢ
áŀĶ áŀĺáŀı
ĠáŀĬ áŀĵ
áŀ¸ áŁĩ
áŀ¼ (
áŁĤ áŀ¾
Ġáŀ¢ áŀĶáŀŁ
Ġáŀĩ áŀĵáŀĢ
áŀĸ áŀļáŀŁ
áŀĸ áŀ¢áŀĵ
áŀİ áŀĬ
áŀĩ áŀĸ
áŀĩ áŀħáŀĵ
Ġáŀł áŀĳáŀĻ
ĠáŀĽ áŀĻáŀĢ
ĠáŀĽ áŀĶáŀĶ
áŀģ áŀĢáŀĺ
áŀĴ áŀļáŀŁ
ĠáŀĹ áŀĸáŀĽ
ĠáŀĻ áŀĺáŀı
áŀ¡ áŀĸáŀĽ
Ġáŀķ áŀĵ
áŀĵáŀĢ áŀļáŀŁ
áŀħáŀĢ áŀĳ
áŀĭ áŀļáŀŁ
áŀļáŀĶ áŀħ
Ġt ens
Ġt rip
Ġt ube
in ates
in ese
Ġa x
Ġáŀ¯ áŀĶ
er ia
er ick
er als
áŀĥ áŀĶ
en burg
en ovirus
at iv
ĠáŀĻáŀĢ áŀĢ
ĠáŀĻáŀĢ áŀĺáŀĵ
is hes
Ġs ig
Ġs ort
Ġs accul
ar ath
Ġc in
ĠáŁ£ áŁ©áŁ§
ed ic
áŀĢáŀļ áŀ¢
Ġáŀĩáŀĵ áŀŁáŀļáŀŁ
ic ians
Ġin hab
Ġb an
ĠáŀĢáŀĵ áŀĶáŀļ
Ġd ermatitis
Ġm el
Ġm ature
il age
áŀĽáŀĦ áŀĻ
ĠC ast
ĠC ub
ĠC anton
áŁ¢ áŁ©
Ġto ward
Ġl ot
ĠS edan
ĠáŀĦ áŀĢ
Ġ1 12
ĠT re
ĠT en
ĠT ech
ĠT YPE
Ġh arvest
ĠáŁ¦ áŁ¡áŁ¨
om as
us ter
Ġ[ âĢ¦
áŀļáŀĹ áŀĢ
et les
ĠM er
ĠM ov
ĠM ich
ĠM ee
ĠM obile
Ġre ality
Ġn emat
Ġth irst
ĠR en
ĠR et
ĠR oger
ĠB est
ĠB all
ĠE ach
ur b
ur t
Ġ. /
ĠP ath
ĠP ower
ir al
im ir
im ents
Ġáŀ§áŀĳ áŀļ
ot he
ad en
ly can
ĠD j
ĠH ard
ĠH ans
ĠH á»ĵ
ĠH VT
áŀ± áŀľ
ĠI ll
ĠF ort
ch ang
od o
em ony
ay er
áŀīáŀı áŀī
ĠG oth
ĠG Ã¶
ĠL y
ĠL es
ĠL ion
ĠL ake
ĠL td
ĠáŁ¡áŁ¥ áŁ¥áŁł
ĠáŁ¡áŁ¥ áŁ©áŁ¤
ĠK now
ĠáŁ¡áŁ¨ áŁ¡áŁł
ĠáŁ¡áŁ¨ áŁ©áŁ¤
ter m
ra ve
ĠN inh
ĠáŁ¡áŁ¢ áŁ¡áŁ¨
ĠW ol
ĠW RX
Ġst one
Ġst abil
op t
ĠThe n
av arman
áŀļáŀĨ áŀĶ
ov is
Ġáŀĺáŀļáŀİ áŀĳ
ĠáŁ¡áŁ£ áŁłáŁł
ong yang
áŀĻáŀĳ áŀŁ
ĠCar Gran
Ġ3 9
Ġ3 50
áŀĶáŀĬ áŀľ
ĠO x
ĠO tt
oun ce
Ġsu gar
art a
pt on
Ġsp iro
Ġcont ents
Ġcont rib
ren ess
ast ic
Ġ]] [[
ph ab
ĠTh Ã©
pe ang
Ã© g
Ã© l
ĠáŀĻáŀŁ áŀŁ
à¸²à¸ ¥
ĠSt r
ass ion
Ġ6 6
Ġ6 9
Ġ18 60
âĢĿ )
Ġ7 2
ĠáŁ¤áŁł áŁ¨
ind er
Ġpr ison
ount ain
Ġcomp anies
Ġab st
iss ions
Ġ8 2
Ġ8 3
Ġ8 6
Ġfl ood
ĠAn other
Ġle aving
ĠáŁ£áŁ¥ áŁ¢
ob acter
Ġ10 4
19 1
Ġpe ak
Ġev al
ĠX X
Ġinv aded
Ġprov ides
Ġbl ind
ĠAl so
ĠAl bert
Äģ t
ĠáŁ£áŁ¤ áŁ¡
ĠáŁ£áŁ¤ áŁ£
ĠáŁ£áŁ¤ áŁ¨
ĠáŁ£áŁ¤ áŁ¦
Ġsub m
Ġsub script
ĠQ t
ĠáŁ£áŁ¨ áŁ¤
ĠáŁ£áŁ¨ áŁ¦
ĠInd ust
Ġdo ing
Ġuse ful
ĠáŁ£áŁ§ áŁ¥
ĠáŁ£áŁ§ áŁ£
ĠáŁ£áŁ§ áŁ¦
ĠMar sh
Ġdep th
ert ed
ĠáŁ¤áŁ¢ áŁ¥
áŀĤáŀł áŀľáŀı
ĠSh akes
Ġob t
Ġob sc
Ġexp ensive
à¸Ļà¸ ª
Ġent re
yc lop
inc luding
ĠáŁ¡áŁ¨áŁ¨ áŁł
ox ide
Ġwrit ers
ĠáŁ¢áŁ¥áŁł áŁ¦
Ġincre ases
ĠCon vention
ilit ary
=" "
ĠHan oi
Ġstud ied
à¸§ à¸¢
Ġext inct
ĠáŁ¥áŁ¨ áŁ©
ĠáŁ©áŁ¡ áŁł
Ġord inary
Ġcap able
ĠáŁ¡áŁ¨áŁ¥ áŁ¤
Ġed it
áŀĵáŀĤ áŀļáŀĶ
à¤ ¤
à¤ ¾
ym e
Ġ195 6
ĠáŁ¡áŁ¨áŁ¤ áŁ¡
Ġtyp ical
ĠPl an
ĠPl ant
ĠPl ateau
ograph s
Ġdisc over
Ġdisc ourse
Ġpolit ics
Ġ198 7
ĠComm ission
Ġstr ing
ĠáŁ¡áŁ¨áŁł áŁ¦
oe ing
ĠáŁ¡áŁ¤áŁ£ áŁ¤
Ġsuc ceeded
Ġrequ ires
Ġ194 8
Ġmin eral
Ġmin imum
Ġprom pt
Ġcharacter istics
ĠáŁ¡áŁłáŁ¥ áŁ§
Ġauth ors
Ġbacter ium
ĠCent re
Ġblood y
Ġvacc ines
Ġhand s
ĠáŁ¡áŁ¡áŁ¤ áŁ¥
gre g
Ġhistor ian
ĠáŁ¡áŁ¢áŁ¤ áŁ£
ĠCarS RT
Ġtechn ical
Ġdoes n
Ġtre es
Ġturke y
Ġturn ed
Ġlist ed
ĠPre y
à¹Ģà¸Ľ à¸£à¸¡
á»Ļ c
Ġattempt s
ĠáŀŁáŀļáŀĳ áŀŁáŀĺ
ĠMo on
Ġintest ines
Ġunderst ood
Ġdistinct ion
Ġantib iotics
Ġorganism s
Ġsignificant ly
Ġprinc ipal
Ġdefin itive
Ġrespons ibility
Ġesc rit
Ġimplement ation
Ġhab it
Ġpron unci
Ġsel enium
Ġinvest ment
Ġ5030 6
Ġvol ume
Ġconsist ing
Ġapplic ations
Ġtrain ing
Ġforest s
fect ious
Ġmix ing
Ġfeature d
Ġachiev ed
Ġnuc le
Ġmuc osa
Ġcompon ent
Ġspeak ers
ĠTra peang
ĠDep ression
Ġpot ential
Ġcer emony
à¸¶ à¹Ī
Ġalg ae
Ġdou b
Ġkid ney
ĠSL R
ĠEvilF rost
ĠSpec ial
Ġreduc es
ĠTon le
Ġgar rison
Ġtrem ors
var avati
Ġswe et
Ġreform s
Ġexact ly
Ġdispl ay
ĠEchinococc us
ĠNik aya
Ġweap ons
Ġdropp ings
Ġ25050 3
abin et
Ġdehyd ration
ĠCarAl fa
ĠFlor ida
à¸¥à¹Ģà¸Ńà¸ģ à¹Ģà¸Ľà¸£à¸¡
Ġpheas ants
ĠMos c
Ġanore xia
ĠáŀĶáŀļáŀĸ áŀĽáŀŁ
aih atsu
ĠKampuc hea
Ġ[âĢ¦ ]
ĠGoth ic
ĠShakes pe
' .
1 01
2 50
2 20
A g
A pp
A ct
B h
D ev
G E
G od
H an
H arvard
I B
J apan
L imited
M ichael
O W
O ut
P N
P op
S an
S ince
T C
T im
T AC
Y oung
a ur
b u
b sp
f ly
f ort
g iving
h o
h ard
h orn
l arg
l ightenment
m o
m ic
p ed
r c
r un
r and
t w
u er
v ation
y les
¥ ¿
Â ®
Ã ½
á Ģ
ç ¾
Ġ áŁĭ
Ġ 00
áŀĢ áŀĭ
áŀĢ áŀľáŀĦ
áŀı áŀĢáŀĵ
áŀĺ áŀļáŀı
áŀŁ áŀŁáŀļ
áŀŁ áŀłáŀĢáŀĺ
áŀĶ áŀĢáŀı
áŀĶ áŀĽáŀĵ
áŁĭ -
Ġáŀĵ áŀľ
ĠáŀĢ áŀĢáŀĢ
áŁģ áŁĸ
ĠáŀŁ áŀĤáŀĽ
ĠáŀŁ áŀĶáŀī
áŁĦ áŁĶ
Ġáŀĳ áŀĴ
áŀľ áŀļáŀĺ
áŀľ áŀĺáŀĦ
áŀħ áŀħáŀĵ
Ġáŀ¢ áŀĽáŀĩ
Ġáŀĩ áŀľ
áŀĸ áŀĤ
áŀĸ áŀĨ
áŀĤ áŀĵáŀĵ
áŀĤ áŀļáŀĶáŀļ
áŀī áŀĹ
áŀī áŀĴáŀĺ
Ġáŀı áŀĬ
áŀĩ áŀĵáŀĢ
áŀĬ áŀ¢
Ġáŀģ áŀĦ
ĠáŀĲ áŀĢ
áŀł áŀĶáŀī
áŀĴ áŀĦ
áŀĴ áŀĻáŀĢ
Ġáŀľ áŀī
áŀĹ áŀ¢áŀĢ
áŀĵáŀĢ áŀļáŀĢáŀŁ
áŀĶáŀŁ áŀ¥áŀŁ
áŀĲ áŀŁáŀħ
áŀļáŀĢ áŀĵ
áŀļáŀĢ áŀĥ
áŀļáŀĦ áŀı
Ġt ag
Ġt ri
Ġa wa
he im
Ġáŀ¯ áŀļ
áŀļáŀĺ áŀł
áŀĶáŀı áŀİ
áŀļáŀİ áŀĵ
áŀĥ áŀĽáŀĦ
en ues
Ġo es
at u
at y
at ha
ĠáŀĻáŀĢ áŀĳ
Ġs leep
Ġs neezing
âĢ ĳ
Ġc av
Ġc ant
Ġc ard
Ġc yan
it ar
it ism
it hel
or ance
ĠáŁ£ áŁ©áŁ¨
ed d
áŀļáŀĢáŀĶ áŀĳ
Ġw ish
áŀĽáŀĶ áŀĳ
Ġ- >
ic les
Ġp ure
Ġp enicillin
Ġf ed
Ġf le
Ġf if
Ġf ill
Ġf ought
Ġb or
Ġb odhisatt
áŀĶáŀĳ áŀĽ
Ġd im
Ġd ang
Ġd aughter
ou ble
Ġm ention
ro ak
ĠC ost
ĠC ER
ĠC rus
ĠC IV
ĠC á»Ļng
ent on
Ġl ake
ĠS qu
ĠS ite
ĠS outhern
ĠáŀķáŀĽ áŀī
áŁ£ áŁ¡
áŁ¤ áŁ¢
ĠT er
ĠT om
ĠT od
ĠT oul
ĠT okyo
Ġh ull
Ġh uge
Ġh arb
áŁ¦ áŁ¢
ac u
ac he
am est
us hed
ĠáŀĸáŀĽ áŀĻáŀĢ
ĠA F
ol s
et o
et her
et ary
ĠM D
ĠM R
ĠM ol
ĠM au
áŀıáŀĶ áŀī
os en
Ġn orm
áŀĻáŀĺ áŀĳ
ĠR aj
ĠB re
ĠB inh
ĠB ook
ĠB rown
ĠB áº¡c
ĠB roadwing
ĠE P
ul y
ul ph
ĠP ot
ĠP ass
ĠáŀĶáŀĳ áŀŁ
ĠáŀĶáŀĳ áŀĶáŀĦ
id og
ig on
Ġg rew
iv ated
ĠD ry
ĠD ury
ĠD Ã¢
ĠH i
ĠH all
ĠH aw
ĠáŀĢáŀĦ áŀľ
ĠI ron
ut ra
ĠF u
ĠF reedom
Ġfor t
áŀĢáŀļáŀİ áŀŁ
un te
st yle
st ances
um a
um ption
ĠG rain
ĠG ener
ĠG SR
ĠG argoyle
ĠL ist
ĠL ama
ĠáŁ¡áŁ¥ áŁ£áŁł
ĠK am
ers ey
Ġv o
Ġv oc
ĠN FL
ĠW alker
ĠÂ» áŁĶ
op les
Ġ19 17
Ġ19 05
ĠThe ravada
Ġor al
and on
Ġan tic
ia h
ĠáŁ© áŁłáŁłáŁłáŁł
ab uri
ĠEvil R
qu in
áŀĺáŀĤ áŀĴ
ĠV inh
ĠV ampire
ill on
ĠJ ak
ĠJ ICA
ĠJ ewish
ĠJ ersey
ĠáŁ¡áŁ£ áŁ¥áŁł
Ġ= ==
áŀĻáŀĬ áŀĳ
ap ers
ĠCar ol
ĠáŁ¡áŁ§ áŁ©áŁ¦
Ġr ig
ĠO cc
ĠO pen
Ġat rophy
ĠU nd
ĠU se
pt idog
Ġsp lit
Ġch urch
ĠIn ternet
Ġcont ributed
Ġ]] "
ph ia
Ġdis miss
ĠáŀķáŀŁ áŀŁ
Ġ4 6
Ġ5 9
ĠáŀłáŀĦ áŀ¯áŀĦ
oy s
Ġáŀļáŀİ áŀľ
Ã© t
Ġun loading
à¸²à¸ Ĥ
ĠSt an
ass es
áŀĦáŀ¢ áŀĶ
Ġ6 7
Ġ6 8
Ġen joy
Ġres idential
Ġpl anned
amb i
ack ing
Ġcomm it
ind a
ram a
ver t
ĠFran c
Ġag ar
Ġcomp ounds
ĠUn like
Ġab ility
Ġ8 00
ric k
ric ts
ĠAn n
Ġel ement
Ġ9 1
ĠáŁ£áŁ¥ áŁ¦
ob old
Ġpe oples
ambod ia
ĠáŁ£áŁ£ áŁ¨
ied a
ĠX IV
Ġout put
Ġover all
Ġtrans port
Ġatt ached
Ġprov e
Ġprov ed
ĠáŁ¡áŁ¨áŁ¦ áŁ¥
ivers al
Ġdef orm
ĠCom put
int on
Ġsub s
Ġsub stant
à¸¥ à¸łà¸²à¸©
anc re
Ġinter v
Ġnew sp
ĠInd o
ĠMar c
Ġpo ints
à¹Ģà¸ §
ĠSh aman
ĠSh rike
Ġ197 4
Ġdist ress
ins ula
ĠáŁ¤áŁ£ áŁ¥
ĠáŁ¤áŁ£ áŁ¢
ĠAmeric ans
Ġmon itor
Ġman ifest
Ġco ins
ĠáŀĹáŀĤ áŀľáŀĵ
acc inate
ĠáŁ©áŁ¤ áŁ§
Ġmain tain
Ġmov ing
ien ne
à¤ µ
à¸Ĺ à¸¢
ym b
Ġmill ing
Ġ195 2
Ġchar ge
Ġdisc overed
Ġ198 8
ĠComm and
Ġstr ugg
Ġcontin ue
LI CA
Ġant is
Ġdirect ed
Ġ194 2
Ġ194 4
Ġcoll ections
Ġnec rotic
Ġoper ating
à¹ĥ à¸Ĭ
ĠáŁ¡áŁłáŁ¨ áŁł
Ġdem anded
ĠáŁ¡áŁ¥áŁ¤ áŁ¡
err ari
son ian
Ġgreat ly
ĠáŁ¡áŁ¥áŁ¥ áŁ¥
Ġexist ential
Ġconsum ed
ĠÄĲ áº¡i
Ġdom ain
ĠáŁ¡áŁ§áŁ¦ áŁ§
Ġpass age
Ġval ley
Ġopp osition
ĠEd ucation
empt iness
Ġgu arant
EC D
ĠáŁ¡áŁ£áŁ¦ áŁ©
ĠáŁ¡áŁ¥áŁ§ áŁ¦
à¸¹ à¹ī
ĠCarS uz
ĠSer otype
Ġvis ual
Ġmor al
Ġimm igr
Ġopen ed
Ġinit ially
Ġattempt ed
iot ic
Ġdest ruct
ĠDev our
ĠHer itage
Ġhaemorrh agic
Ġindust rial
Ġclaim s
Ġinteg rated
rast ructure
asc al
Ġviol in
Ġcolon ies
ĠEc onom
Ġsurv ived
Ġcontinu ing
ĠMount ain
Ġimpro ved
ĠCommun ity
itz er
Ġfeel ing
lad imir
Ġsan itation
ĠPhot ography
Ġeffort s
Ġfoot ball
ĠHol lywood
Ġpresident ial
vi ew
Ġmuc ous
TI ON
ĠVen om
Ġchemical s
eps i
Ġrare ly
ĠPra irie
ĠGram my
èĢ ĥ
Ġbric k
ĠHam as
áºŃ n
Ġperman ent
Ġstrict ly
Ġwr ite
Ġdeg ree
ĠPhilipp ines
ĠMic hel
Ġattend ant
Def iciency
Ġtiss ue
Ġaltern ative
apew orms
Ġarm ies
ĠSing apore
Ġprote in
Ġbeg ins
Ġconstitution al
Ġsovereign ty
Ġtheore t
Ġcogn itive
ĠFuj ieda
ĠCarD aihatsu
Ġopportun ity
Ġbehav ior
Ä© nh
Ġreject ed
Ġfig ures
ellig ence
Ġeunuch s
éĺ ®
Ġcand id
Ġincl usion
ĠCler k
rehens ive
Ġcoun ter
Ġatm osphere
Ġcruc ial
cart es
ĠáŀĻáŀĺáŀı áŀĤ
ĠShakespe are
ĠCIV IC
ptidog lycan
ĠCarSuz uki
" |
' ll
1 50
A B
A E
A tt
B N
B uddh
D I
E O
E c
E s
G u
I P
I rak
K ar
L es
N B
N i
P o
P ure
Q ueen
R ec
T P
T e
T ube
V OV
W ater
W here
W hat
Y O
b a
b at
b ot
e o
e ph
g a
j na
k ind
m i
m or
m inist
p ing
r ite
t l
u per
v ing
v ara
w ory
y nam
z z
z sche
Ã ¤
Î »
à ¶
ä ¼
å »
å Ī
å Ľ
æ ³
æ Ķ
ç ¦
ç ¶
ç Ľ
ð Ł
Ġ ~
Ġ áŁĨ
Ġ à¹
Ġ idi
áŀ ©
Ġáŀ º
áŀ¶ âĢĿ
áŀĵ áŀĨ
áŀĢ áŀĬáŀĽ
áŀĢ áŀĸáŀı
áŀı áŀļáŀı
áŀĽ áŀıáŀı
áŀĻ áŀıáŀĳ
áŀĺ áŀļáŀľ
áŀŁ áŀļáŀĬ
áŀŁ áŀŁáŀĦ
áŀĶ áŀļáŀŁ
ĠáŀĶ áŀĩ
ĠáŀĶ áŀľáŀı
Ġáŀĵ áŀĹ
áŁĩ ,
áŁĨ áŁĴ
ĠáŀŁ áŀģ
ĠáŀŁ áŀĲ
áŀľ áŀĻáŀĺ
áŀľ áŀļáŀıáŀĵ
áŀ¼ áŁģ
áŀĸ áŀŁáŀĵ
áŀĸ áŀľáŀĵ
Ġáŀħ áŀŁ
áŀĤ áŀĤ
áŀĤ áŀļáŀł
áŀİ áŀĺ
Ġáŀł áŀĶ
áŀ¢ áŀħ
áŁī áŀ½
áŀĹ áŀĴáŀĺ
áŀĵáŀĢ áŀļáŀĽáŀı
áŀĵáŀĢ áŀ¢áŀĶ
áŀĲ áŀĻáŀħ
ĠáŀĨ áŀ¡
áŀĭ áŀĢáŀĵ
áŀļáŀĶ áŀĲ
Ġt ort
Ġt ons
Ġt aught
Ġa ffects
Ġáŀ¯ áŀĤ
áŀĤáŀĽ áŀı
áŀķ áŀĤ
áŀļáŀİ áŀĢáŀĺ
Ġáŀ¬ áŀŁ
áŀĶáŀĦ áŀĶ
Ġ] [
áŀĶáŀĵ áŀĬ
Ġ" '
Ġs ist
Ġs ector
áŀľáŀĶ áŀļ
ar an
al so
Ġc ore
it ness
it udes
or ate
ĠáŁ£ áŁ©áŁ¥
ed er
áŀĻáŀĢ áŀĶ
ic ense
Ġin ner
ĠáŁ¥ áŁ¡áŁ¤
Ġp il
Ġf um
Ġf ast
Ġf air
Ġf ashion
Ġb at
Ġb uy
Ġb ank
Ġb omb
áŀıáŀĺ áŀĹ
áŀĢáŀĬ áŀļ
Ġd ow
Ġd ys
Ġd raft
Ġd aily
Ġd ucks
el a
el ve
as i
as ions
Ġm ac
il ic
áŀĽáŀĦ áŀĽ
áŀĽáŀĦ áŀ²
ro v
ro ke
áŁ¥ áŁ§
ĠC op
ĠC ivil
ĠC ulture
ĠC zech
áŀŁáŀı áŀľáŀı
áŁ¢ áŁłáŁł
Ġl ov
Ġl ies
Ġl ex
ĠS P
ĠS ant
ĠS ony
áŀĵáŀĵ áŀĵ
ĠT ower
ĠT iff
ĠT arant
áŁ¨ áŁ¨
Ġh ang
ac a
ĠáŁ¦ áŁ¡áŁł
om ycin
áŁ§ áŁ¥
am i
am ber
am ente
ĠáŀĸáŀĽ áŀŁ
ol n
ol o
ol ism
et ime
áŀŁáŀļ áŀĲ
ĠM en
ĠM att
ĠáŀŁáŀł áŀĵ
oc ated
Ġn hat
Ġáŀ® áŀļáŀĵ
ĠR ay
ĠR ab
ĠB ag
ĠB ab
ĠB owl
ĠB oeing
ĠE mer
Ġ2 40
ul ous
ĠP ut
ĠP ay
ĠP rize
áŀĵáŀĢáŀŁ áŀļáŀŁ
ig er
ig her
ot te
ad ers
Ġg ame
ĠD a
ĠD ar
ĠD ut
ĠD ame
ĠD uong
ĠD varavati
ag ne
ĠH arb
ĠI d
ĠF ree
Ġfor ward
od om
em n
Ġáŀ¢áŀĶ áŀĽ
ĠL iver
Ġas pect
ĠáŁ¡áŁ¥ áŁ©áŁ£
Ġbe autiful
ĠK a
ĠK m
ĠáŁ¡áŁ¨ áŁ¡áŁ¥
ĠáŁ¡áŁ¨ áŁ¡áŁ©
ra wn
Ġv ast
ĠN u
ĠN ec
ĠN iet
ĠN ext
ĠN ash
Ġst ret
áŁīáŁģ áŁĴ
Ġ19 27
Ġpro of
Ġpro hib
áŀļáŀĨ áŀĢ
Ġcom ing
ĠEvil Ro
ĠJ ules
ĠJ amest
eg el
ment ed
ĠCar J
se a
Ġex change
ĠU s
ĠU nder
ian a
ard e
ard ed
per ature
Ġch ol
áŀļáŀģ áŀĢáŀħ
Ġ... )
Ġnot able
ast e
ĠáŁ¢áŁ¤ áŁ©áŁ¥
Ġinc om
Ġinc idence
ere Bull
ct ic
ub ble
áŀĢáŀľ áŀĬ
Ġ5 4
ĠTh anh
Ġse ems
Ġun st
Ġun able
Ġun less
Ġun iform
Ġall ows
áŀĢáŀĩ áŀļ
ĠSt e
ĠSt ory
act ers
ip ter
Ġ18 9
Ġ18 00
Ġ18 70
ep ing
ĠKh orat
Ġ7 1
Ġ7 6
ĠáŁ¤áŁł áŁ¡
ĠáŁ¤áŁł áŁ§
á» §
ack ed
fer ences
à¸Ļ à¸Ń
ational ism
red erick
iss a
Ġph ase
áŀĳáŀŁ áŀľáŀı
Ġ8 1
Ġper ception
áŀľáŀħ áŀļáŀħ
olog ists
à¸ģ à¸£à¸°
Ġme at
lic k
Ġj ournalism
Ġapp ropri
áŀĺáŀĽ áŀĴáŀĺ
te en
hed ral
âĢ¦ âĢ¦
Ġro c
Ġro ad
ann on
áŀĤáŀľ áŀĺ
Ġtrans fer
Ġprov iding
ĠáŁ£áŁ¦ áŁ¡
Ġbl ess
Ġbl ocks
à¸¡ à¸Ļà¸ķ
áŀ® áŀı
Ġair flow
ĠáŁ£áŁ¨ áŁ¡
ĠáŁ£áŁ¨ áŁ¥
ĠáŁ£áŁ¨ áŁ¢
lin ed
ather ine
ĠáŁ£áŁ§ áŁ§
Ġdep os
Ġac adem
Ġoff ensive
Ġpo x
à¹Ģà¸ Ĺ
Ch rist
Ġdevelop ments
ĠSh ang
ilos ophy
ĠRe b
Ġ11 7
ĠáŁ¡áŁ¥áŁł áŁ¤
Ġ197 6
Ġexp ected
Ġass ume
ĠáŁ¤áŁ£ áŁ¡
ĠáŁ¤áŁ¤ áŁł
à¹Ħ à¸Ľ
Ġsc ene
ĠáŁ¡áŁ¨áŁ¨ áŁ¡
à¸° à¹Ħà¸Ķ
ĠSp anish
Ġgener ate
ĠBe e
ĠáŁ¦áŁ¥ áŁ¦
ĠNew castle
rat or
ĠáŀħáŀĽ áŀĢáŀļ
ĠáŁ¥áŁ¦ áŁł
Ġext ens
ĠáŁ¨áŁ§ áŁł
ĠáŁ¡áŁ¨áŁ§ áŁ¤
Ġ25 8
Ġgo al
Ġmov es
Ġser otypes
ĠáŁ¡áŁ¥áŁ¢ áŁ©
Ġcar ry
Ġchar acters
ĠáŁ¡áŁ¨áŁ¤ áŁ©
Ġmet ropolitan
Ġ198 4
Ġref l
Ġanal ys
Ġmark eting
ĠáŁ¡áŁ§áŁ¨ áŁ¢
Ġposs ibly
Ar t
ĠEn lightenment
ER EV
à¹ģ à¸ķ
ĠáŁ¡áŁ¤áŁ¤ áŁ¦
Ġappro aches
ipp ed
ĠPe ace
Ġold est
Ġtest ing
ĠWe b
Ġsee ing
ĠáŁ¡áŁłáŁ¦ áŁ¦
ĠEd ward
ĠáŁ¡áŁ¤áŁ¢ áŁ¤
ĠáŁ¡áŁ£áŁ¥ áŁ¡
Ġgl ob
ĠáŁ¡áŁ¤áŁ¨ áŁ¥
Ġlast ed
Ġchang ing
ele phone
ĠAb h
Ġbreed ing
Ġz ero
Ġproper ly
ĠSy rie
Ã« n
Ġfunct ional
Ph il
Un iversity
http s
gl ut
Ġ2507 14
ĠCor poration
Ġvis ited
Ġsent ences
Ġdev ice
Ġeff icient
ĠYou Tube
Ġcamp s
áŀıáŀļáŀŁ áŀī
Ġcirc ular
Ġfac ility
ĠDev ice
ĠAir port
Ġread ing
Ġantib odies
Ġgen us
ĠBo ar
Ġjo in
Ġmy th
ĠCarF errari
Ġtax es
Ġbre ast
ĠTa urus
Ġconcern s
ĠHo a
odh ana
Ġwood en
lad y
Ġsat ell
Ġpa rents
Ġgrad ually
Ġgrad ient
Ġtrain ed
Ġsol id
Ġdig estive
Ġmass ive
ĠMark eting
Ġamb ient
ĠEvilN autiloid
Ġrout es
elet on
ĠCH EV
Ġemploy ed
Ġbhikkh uni
Ġachiev e
ĠTe am
Ġrul ed
ĠDes cartes
raf ts
ĠPort land
Ġbron ze
Ġpain ting
ĠJust in
ĠConf uc
Ġmaint aining
Ġdrink ing
Ev oker
Ġstun ting
Ġrecomm end
Ġpiec e
Ġremember ed
Ġprop ag
ĠWild life
Ġstreng then
Ġengine ering
Ġlink ed
Ġ06020 9
Ġhor izont
à¸£à¸²à¸ Ĭ
itro Ã«n
RO LET
ĠFair lady
Ġneigh bor
Ġdomin ant
Europe an
Ġcaec al
ĠCong ress
Ġmuseum s
Æ°á» Ŀ
æĽ ¸
Ġdut ies
Ġthreat ened
ĠSup reme
Ġhund red
Ġconvers ion
Ġincor por
Ġcrow d
Ġextrem ely
Ġnort heast
ĠBrad y
adel phia
Ã©ric a
Ġparall el
Ġly rics
Ð° Ð
ĠDury odhana
ambi Ã©n
ĠTarant ula
ĠLiver pool
ĠNiet zsche
ĠNash ville
à¸¡à¸Ļà¸ķ à¸£
EREV AN
ĠCHEV ROLET
( )
- )
? '
A L
A ry
C O
C a
C an
D K
F eed
G P
H u
I G
L R
L ist
L Ãª
M N
M al
N ote
N ews
P ol
Q L
R Y
R oyal
S en
T Y
W D
b h
b ar
b us
b and
b ell
b orn
b ird
c am
c hem
d ist
g ov
g ill
h arm
h aps
i em
i ence
k i
k m
k ha
k ega
l ets
m g
m us
p ine
p ha
p ublic
r ong
r ift
r Ãª
s ub
t og
v is
v as
v ey
x i
y th
y gen
Ã ī
Ù Ĭ
å ¼
å Ń
æ ļ
æ Ł
áŁĴ áŀ¸
áŀļ áŀĭ
áŀļ áŀļáŀľáŀĽ
áŀļ áŀ³
áŀĵ áŀĸáŀĽ
áŀĦ áŀ¢áŀĦ
áŀĢ áŀĦáŀĢ
áŀĽ áŀ£
áŀĺ áŀľáŀĦ
áŀ» áŁį
áŀŁ áŀļáŀĦ
ĠáŀĶ áŀĤ
Ġáŀĳ áŀļ
Ġáŀĸ áŀĸáŀŁ
áŀľ áŀŁáŀĹ
áŀľ áŀĻáŀī
áŀħ áŀļáŀĦ
áŀħ áŀļáŀĶ
áŀħ áŀŁáŀĦ
Ġáŀ¢ áŀĢáŀļ
Ġáŀĩ áŀĽáŀŁ
áŀĸ áŀĲ
Ġáŀļ áŀŁáŀı
áŀī áŀİ
áŀĬ áŀľ
áŀĬ áŀī
áŀĬ áŀĹ
áŀĬ áŀĤáŀļ
áŀĬ áŀļáŀĴ
áŀĬ áŀļáŀŁáŀĢ
ĠáŀĲ áŀĽ
ĠáŀĲ áŀŁ
áŀģ áŀļáŀĸ
áŀł áŀļáŀı
áŀĴ áŀľáŀĵ
áŀ¢ áŀĺáŀļ
ĠáŀŁáŀĺ áŀī
ĠáŀŁáŀĺ áŀĻáŀľ
áŀĲ áŀŁáŀĦ
áŀº áŁĩ
áŀļáŀĢ áŀİ
Ġt ick
Ġa part
ĠáŀĪ áŀļáŀĩ
Ġáŀ¯ áŀ¡
Ġáŀ¯ áŀĢáŀĺáŀĵ
áŀķ áŀĢ
on ne
an ied
ĠáŀĶáŀļ áŀħ
Ġáŀ¢áŀĵ áŀļ
is a
is f
Ġs av
Ġs olar
Ġs rc
Ġc rim
Ġc ateg
Ġc overed
Ġc occidiosis
Ġc oughing
or um
or gh
ĠáŁ£ áŁ©áŁ¤
áŀļáŀı áŀı
Ġw oman
áŀĽáŀĶ áŀħ
Ġp p
Ġp et
Ġp ick
Ġp aint
Ġp seud
Ġf ear
Ġf olk
Ġb ig
Ġb anned
áŀıáŀĺ áŀħ
áŀĶáŀĳ áŀĳ
áŀ¯ áŀĢáŀļ
Ġd ict
Ġd ense
ou ra
ion e
as her
as ure
Ġm ir
Ġm ort
Ġm Ã¡s
áŀĻáŀŁ áŀĢáŀĺ
ro se
ro vers
áŀĻáŀĵ áŀĹ
Ġáŀ¢áŀı áŀĶ
ĠC ore
ĠC ross
ĠC ream
Ġto mb
Ġl iv
ĠS C
ĠS ix
ĠS und
ĠS cience
ĠS anta
ĠS auss
áŀľáŀĢ áŀī
áŁ£ áŁ©
áŀıáŀĳ áŀı
ĠT ag
ĠT ibet
Ġh oles
áŀĢáŀŁ áŀħ
áŁ¦ áŁ¥
am ine
ec ond
ec urity
áŀĢáŀĤ áŀĵ
ĠáŀŁáŀĺáŀİ áŀĹ
ol ph
et rac
ĠM Y
ĠM ong
ĠM ach
ĠM erc
Ġre now
Ġre action
oc he
Ġn ood
Ġn ative
Ġn ull
ĠáŀŁáŀĢ áŀĦ
ĠR am
ĠR ats
ĠR acing
áŀļáŀĤ áŀļáŀĶáŀĢ
ĠB on
ĠB us
ĠE s
Ġ2 20
ur ban
áŀģáŀİ áŀŁ
ĠP a
ĠP om
id ow
ig ion
ig ital
ir ty
áŀĽáŀĢ áŀĶ
áŀĽáŀĢ áŀľ
Ġáŀ§áŀĳ áŀĻáŀĸ
ad er
Ġg old
Ġe go
ĠD o
ĠD on
ĠD uc
ĠD ron
ĠD ream
ĠD ynasty
ĠD aguerre
ĠH ow
ĠH ue
ĠH egel
ow ing
ut ely
ĠF in
ĠF BI
od hi
em pl
ĠG ood
ĠL ev
ĠL ine
ĠL ORD
Ġas pects
Ġon line
ĠK ier
ĠK ola
ĠáŁ¡áŁ¨ áŁ¢áŁł
Ġv eh
ang el
ĠW ed
Ġst ir
Ġst able
Ġst yles
op er
áŀĽáŀĺáŀĢ áŀľ
Ġpro ced
if ference
av en
av id
and e
and y
ia e
ia u
ov ers
Ġcom ments
ant ly
uc lear
ĠEvil Sh
qu ir
ĠV er
ĠV OD
ĠJ r
ĠJ ournal
eg o
ak ka
end er
ary a
ri age
ri ef
áŀĢáŀĳ áŀļ
Ġr ats
Ġex ud
Ġex erc
áŀĤáŀĵ áŀĻ
áŀ£ áŀļ
Ġsp orts
Ġus age
Ġk h
per gill
Ġch osen
Ġch amber
ew is
ha w
The n
Ġform ally
ib h
áŀĤáŀĩ áŀı
Ġ5 3
Ġ5 7
Ġ5 8
Ġun ion
Ġall iance
ĠSt ev
act ic
Ġ6 3
Ġen emy
ĠáŁ¥áŁł áŁ¥
ĠáŁ¤áŁł áŁ£
ĠáŁ¤áŁł áŁ©
á» ī
Ġpl ate
ĠY es
ĠY ao
ĠY ellow
Ġcomm ission
ver y
Ġpr ince
ĠFran Ã§ois
Ġag greg
áŀ§áŀĶ áŀĢáŀļáŀİ
Ġab normal
Ġab andon
Ġmay or
Ġpart ners
Ġfl ash
áŀľáŀħ áŀĽáŀĵ
port s
Ġqu alities
Ġle uc
ĠáŁ£áŁ¥ áŁ¡
ne um
Ġpe ep
Ġev ap
ĠX uyen
àº Ĭ
àº Ķ
Ġrel ation
row s
ĠAr ts
ug u
Ġtrans itional
Ġatt acks
att y
Äģ da
Ġdef ense
Ġvar ied
anc y
ĠáŁ¡áŁ©áŁł áŁ©
Ġinter val
Ġdi oxide
ĠáŁ¤áŁ¢ áŁ§
ĠáŁ¤áŁ¢ áŁ©
à¹Ģà¸ Ĭ
ĠSoda P
ĠSh iva
ĠRe ut
Ġexp ression
Ġdist ricts
Ġass igned
Ġent itled
Ġáŀ¢áŀĺáŀı áŀĴ
ĠáŁ¤áŁ£ áŁ£
ĠáŁ¤áŁ£ áŁ©
yc ot
inc oln
ĠSp ace
und ai
ĠáŁ¥áŁ¥ áŁłáŁł
ĠáŁ¥áŁ¥ áŁ§
ĠBe ijing
Ġsur re
ict ed
Ġstud ent
Ġstud io
à¸´ à¹Ī
Ġext end
Ġext reme
ĠáŁ¡áŁ¨áŁ§ áŁ©
Ġ193 7
ĠáŁ¦áŁ£ áŁ§
ĠIs lam
ours elf
Ġdel iv
Ġser p
Ġpers ist
Ġpers pect
Ġ195 5
Ġ195 7
Ġ195 8
ĠáŁ¡áŁ¨áŁ¤ áŁ¨
ĠáŁ¡áŁ¨áŁ¤ áŁ§
Ġsk eletal
ĠOr ig
pos es
Ġclass es
à¸ļ à¸Ĺ
Ġsom ew
iá» ģn
ĠáŁ¡áŁ¨áŁł áŁ©
Ġcontin ues
hel sea
ĠáŁ§áŁ§ áŁ¡
Ġgiv es
Ġdet ect
Ġdirect or
ĠNational e
Ġáŀ³ áŀĢ
Ġ194 3
idd en
Ġprom oted
ĠOn ce
Ġident ify
Post ed
Ġcomput ing
ĠÄĲ á»ĭnh
Ġhand ling
Ġexpl o
ĠEd ition
ĠáŁ¡áŁ§áŁ¥ áŁ¢
Ġsus p
ĠAugust e
ns worth
Ġ196 8
ract ion
Ġbreed er
ĠáŁ¡áŁ¢áŁ£ áŁ¨
ĠáŁ¡áŁ¤áŁ§ áŁ¡
Ġproper ty
cl ass
Ġtox ins
ĠMa ur
ĠAng lo
ĠáŁ¡áŁ£áŁ§ áŁ¢
ĠáŁ¡áŁ£áŁ§ áŁ£
ĠPre ah
Ġrece ive
amm ation
Ġrepl acement
str anded
Ġsem i
Ġpur poses
Ġsett led
ĠCap tain
Ã² n
do or
for ated
ĠWal ter
Ġiss ued
à¸²à¹Ħ à¸Ľ
ĠCE LICA
Ġfaec al
asp ing
asp ian
agu ar
Ġimplement ed
Äĥ ng
Ġaff ord
Ġaff airs
Ġscient ists
ĠReich stag
Ġsac s
áŀĦáŀĹ áŀĻ
Ġsha re
Ġbroad cast
Ġdeterm ined
cher y
Ġoffer ed
Ġembry os
Ġult imate
ĠRuss ell
Ġgovern or
Ġbo ard
ĠFar nsworth
ĠHind enburg
ĠNic olas
Ġgod s
ĠChÃ¢ u
Ġaddress es
Ġtrib ut
ĠBern ard
ĠJust ice
ĠGeorg es
Ġarr ived
tec a
Mar ie
éĻ ³
Ġinsp ired
Ġbreat hing
ĠLin ux
Ġmanufact uring
ĠOrgan ization
Ġcop ies
ĠTig er
ĠHay es
Ġasc ites
Ġox ygen
Ġhom es
ĠMot ors
Ġcart ilage
ĠTu ol
open h
Ġinterpret ation
Ġbelief s
Hen ri
ĠDV D
Ġartic le
Ġcorrespond ing
ĠNob el
Ġsubsequ ent
ieg e
Ġsqu are
Ġcust om
Ġrepe ated
Ġconstrain t
Ġcos m
ĠTechn ology
ĠHyper text
Ġstrateg y
ĠSodaM ountain
Ġdemon str
Ġingred ient
Ġded icated
ĠEgypt e
Ġcontem porary
Ġagric ultural
Ġcoal ition
Ġadvant age
Ġexecut ive
Jac ques
ĠHug o
à¸²à¸Ħ à¸¡
ophag us
ĠAtl antic
Ø§ Ù
Ġrein for
Ġwebs ite
Ġphosph orus
Ġaccomp anied
elop ed
Ġthor ough
ucker berg
iterran ean
Ġmerch ants
ĠNapole on
Eng lish
WOR LD
kel ey
ãĥ »
ĠMee Go
ĠOx ford
Ġobt ained
Ġawa reness
Ġoes ophagus
Ġcav ity
ĠDÃ¢ ng
VOV WORLD
YO TA
ĠJamest own
kega ard
rÃª k
ĠSauss ure
Ġrenow ned
ĠKier kegaard
" [
% ).
' m
, âĢĿ
/ .
6 00
A ge
B BC
C ode
E S
E ar
F l
H S
H a
H ome
J ohann
K ing
L P
L et
M ad
N ot
N ext
P G
P ali
R ome
R ep
R oman
S m
S ing
T ype
T ER
T otal
V ideo
c y
c ons
c ura
d es
g i
g overnment
h ar
h ist
i ary
i per
m al
m ong
m ore
n es
n el
n ut
p aper
r ang
r ust
r ations
r Äģ
s a
s he
s pe
s hell
t ra
t rans
u o
u ing
u ent
v et
w eg
w ak
y rie
¬ åŁ
Ï Ĥ
Ð ¾
Ø ±
æ ī
æ Ń
Ġ Å
Ġ é
Ġ rom
Ġ à¹ģà¸¥à¸°
Ġáŀ į
áŀļ áŀļáŀĤ
áŀĵ áŀļáŀŁ
áŀĵ áŀļáŀİ
áŀĵ áŀĤáŀĺ
áŀĦ áŀĹáŀı
áŀ· áŁĨ
áŀ· áŁĪ
áŀĽ áŀľáŀĵ
áŀĺ áŀļáŀıáŀĵ
áŀ» áŀ»
áŀŁ áŀļáŀĳ
áŀŁ áŀļáŀıáŀĵ
áŀĶ áŀļáŀĽáŀı
Ġáŀĵ áŀļáŀĵ
ĠáŀĬ áŀĢáŀħ
Ġáŀĸ áŀŁáŀĸ
áŀħ áŀļáŀĬ
áŀħ áŀħáŀĺ
Ġáŀ¢ áŀļáŀİ
áŀĳ áŀŁáŀĺ
áŀĳ áŀŁáŀħ
áŀĳ áŀĢáŀĹ
áŀĳ áŀľáŀł
Ġáŀĩ áŀĻáŀĺ
áŀī áŀĴ
áŀī áŀĶáŀı
áŀİ áŀľáŀĦ
Ġáŀı áŀĶáŀĵ
ĠáŀĤ áŀĸ
áŀĩ áŀŁáŀĹ
áŀĩ áŀĻáŀľ
áŀĬ áŀŁáŀī
áŀł áŀŁáŀĺ
áŀĴ áŀĢáŀľ
áŀ¢ áŀĲ
áŀ¢ áŀłáŀĦ
ĠáŀĻ áŀŁáŀĩ
áŀ¡ áŀłáŀı
áŁĪ ,
áŀĵáŀĢ áŀļáŀĶ
áŀĵáŀĢ áŀļáŀħáŀĵ
ĠáŀŁáŀĺ áŀĴáŀĺ
áŁīáŀ¶ )
áŀº áŁĴ
áŀº áŁģ
áŀħáŀĢ áŀĦ
áŀļáŀĢ áŀ²
áŀļáŀĢ áŀĦáŀĳ
Ġ( --
Ġt ried
Ġt arget
in ity
áŀļáŀĺ áŀļáŀıáŀĢ
áŀ¿ áŁĴ
on ian
er ic
áŀļáŀİ áŀı
áŀļáŀİ áŀŁ
áŀŁáŀĵ áŀŁ
áŀŁáŀĵ áŀĳ
re str
áŀĩáŀĵ áŀĹ
an j
an os
an ne
áŀĮ áŀĩ
áŀĺáŀĢ áŀĢ
áŀĺáŀĢ áŀı
at ur
at ics
ĠáŀĻáŀĢ áŀŁ
Ġs en
Ġs outheast
Ġs iege
ar ter
ar ium
al t
it ure
or ter
or ient
ĠáŁ£ áŁ©áŁ©
ed a
ed y
Ġáŀ± áŀŁáŀı
áŀĢáŀļ áŀģ
Ġw atch
ĠáŁ¤ áŁ¡áŁ¥
ĠáŁ¤ áŁ¡áŁ¤
Ġáŀļáŀĺ áŀĵ
Ġ- )
ic y
ic ular
ĠáŁ¥ áŁ¡áŁ£
ĠáŁ¥ áŁ©áŁ¨
Ġp av
Ġp all
Ġb es
Ġb ins
Ġb rief
áŀĶáŀĳ áŀĬ
áŀĢáŀĬ áŀŁ
ing ly
áŀ¯ áŀĳ
áŀļáŀħ áŀļ
áŁ¡ áŁ©áŁ§
ou x
el d
el ess
as er
Ġm ol
Ġm and
Ġm agn
Ġm yst
il ed
áŀĽáŀĦ áŀ¢
ĠáŀŁáŀĵ áŀĶ
áŀŁáŀĽ áŀľ
áŁ¥ áŁ¥
ĠC ell
ĠS A
ĠS in
ĠS is
ĠS amb
ĠS everal
ĠS igns
ĠS nail
áŀľáŀĢ áŀĵ
áŁ¤ áŁ§
áŀıáŀĳ áŀĵ
áŀĵáŀĵ áŀļáŀĢ
ĠT am
ĠT est
ĠT ak
ĠT ony
áŁ¨ áŁ¥
áŁ¨ áŁ¢
ĠáŁ¨ áŁ©áŁ£
ac ch
ĠáŁ¦ áŁ¥áŁł
ĠáŁ¦ áŁ¡áŁ¥
ĠáŁ¦ áŁ¡áŁ§
om odo
am ent
áŀĢáŀĽ áŀĺ
áŀĵáŀĩ áŀī
ĠÂ ²
ol ation
et es
ĠM em
ĠM ary
ĠM all
ĠM ust
áŀĢáŀĵ áŀļáŀĩáŀĵ
áŀıáŀĶ áŀĴáŀĺ
ĠáŀŁáŀł áŀľ
os cope
Ġn ar
Ġn ests
Ġth ym
le in
ĠR ama
áŀļáŀĤ áŀĵ
ĠB ol
ĠB ul
ĠB ack
ĠE in
ĠE gg
ur ance
ur ai
ur ches
ul um
ĠP ak
ĠP ure
ĠP oultry
ĠP ascal
ĠâĢ¦ (
ĠáŀĶáŀĳ áŀĢ
id um
ig ation
ig ue
áŀĢáŀħ áŀı
áŀĽáŀĵ áŀĻáŀĽáŀĢ
ad i
ad ha
ad Ã©m
Ġg erm
Ġg etting
iv itis
ĠD ang
ĠD isc
ĠD PP
ĠD onald
ĠD espite
ag a
ag in
ĠH ir
ĠH IV
ut o
ut ing
ĠF ern
ĠF ord
ĠF orm
ĠF ields
ch i
od s
od ing
od ore
ĠáŁ¢áŁł áŁ¢áŁł
áŀļáŀļ áŀī
st e
st ore
ay an
um en
um es
um ber
ĠL ut
ĠL ud
ĠL arv
ĠL ewis
Ġon set
Ġbe etles
ĠK C
ĠK el
ĠK rish
Ġv ision
Ġv ocal
ĠN et
ĠN ong
ĠN OD
ĠW at
ĠW ay
ĠÂ» ,
Ġst ations
Ġst eps
Ġst reet
op es
op her
op oly
Ġ19 26
Ġ19 24
if fer
av ery
áŀŁáŀĳ áŀĺ
áŀ·áŁį áŁĴ
ov ann
ĠáŁ¡áŁ¤ áŁłáŁł
ĠáŁ¡áŁ¤ áŁ¡áŁ¦
ant ra
ab a
ĠEvil H
ĠáŁ¡áŁ¦ áŁ¡áŁ£
ĠáŁ¡áŁ¦ áŁ¢áŁł
ĠV e
ĠV y
ĠV ar
ĠV alk
ĠJ im
ĠJ uan
ak er
end e
end um
ĠCh oms
ri ent
ri arch
ich i
og ue
Ġr ural
Ġr het
Ġex ists
Ġex hib
Ġex clus
our age
Ġy olk
ell i
áŀ£ áŀĢ
ian o
Ġk n
Ġk ern
Ġcont rad
Ġnot ice
Ġinc o
áŀĵáŀļ áŀĩáŀĵ
ub y
ĠáŀĶáŀļáŀĺ áŀĶ
pl ates
Ġdis ciples
Ġ5 2
aus t
ĠTh ough
ĠTh anks
ĠTh Ãłnh
ĠáŁ¢áŁ¡ áŁłáŁłáŁł
Ġse ats
à¸²à¸ ª
à¸²à¸ «
à¸²à¸ ķ
ĠSt aph
ever theless
áŀĽáŀĻáŀĢ áŀĺáŀĢ
Ġint ent
Ġáŀļáŀıáŀĵ áŀĶáŀĽ
ip ede
Ġsh aped
Ġ18 93
Ġres ources
Ġ7 8
Ġ7 9
Ġcl ub
ord er
ĠáŁ¤áŁł áŁ¢
ĠáŁ¤áŁł áŁ¦
ond e
á» Ń
Ġpl ot
ĠY EREVAN
oll is
à¸Ļ à¸ģ
ition ally
Ġcomp assion
Ġcomp rehensive
Ġph il
---- -
Ġ8 8
Ġáŀ¢áŀĸ áŀĺáŀĦ
Ġpart e
Ġpart ial
Ġper forated
Ġfl ight
Ġel abor
Ġel eph
Ġcent re
Ġ9 6
Ġj oint
à¸£ à¸ĩ
br id
ĠáŁ£áŁ¥ áŁ¥
ĠáŁ£áŁ¥ áŁ¨
ĠPh um
ĠPh ra
Ġpre st
Ġpre cept
à¹Ģ à¸ģà¸¥
ĠHe art
Ġro om
Ġro ll
Ġro of
Ġro ads
ener ation
Ġem pir
cess or
Ġwill ing
ĠZ wory
Ġatt ained
ĠáŁ£áŁ¦ áŁ¨
ĠáŁ£áŁ¦ áŁ¦
ĠáŁ£áŁ¦ áŁ§
à¸± à¹Ī
Ġbl og
18 0
ĠáŁ©áŁł áŁ§
att ro
áŀ¯áŀĢ áŀĩáŀĵ
ĠAl an
Äģ s
ĠáŁ£áŁ¤ áŁ©
ivers e
ĠCom te
Ġvar ies
Ġvar iations
ĠLa ure
Ġair craft
ĠáŁ£áŁ¨ áŁ£
sp ot
Ġinter ior
Ġinter ests
Ġthem e
ĠáŁ£áŁ§ áŁ¡
ru ong
áŀĢáŀĩáŀĵ áŀĶáŀĳ
à¹Ģà¸ «
áŀĤáŀł áŀĴáŀĺ
Ġdec ades
Ġdec isions
oul ts
Ġfound ing
Ġfound ations
Ġob tain
Ġmod e
Ġexp and
ins on
ĠáŁ¤áŁ£ áŁ¦
own ed
Ġwork ers
Ġfollow ers
à¹Ħ à¸¡
Ġmon arch
ĠáŁ¡áŁ¨áŁ¨ áŁ¢
ĠáŁ¡áŁ¨áŁ¨ áŁ¨
ĠáŁ¡áŁ¨áŁ¨ áŁ©
Ġprogram m
Ġsupp lies
Ġred uction
ĠLe on
ĠSp irit
Ġco in
Ġimp act
ĠBe ast
ĠBe fore
ĠáŁ¢áŁ¥áŁł áŁ§
ĠáŁ¢áŁ¥áŁł áŁ©
ĠáŁ¤áŁ¨ áŁ¤
Ġsur pr
Ġbro ken
ĠRo ber
ĠáŁ©áŁ¤ áŁ¡
la im
ĠGT O
ĠGT S
ĠáŁ¥áŁ¨ áŁ¡
Ġ13 5
Ġcult ures
Ġ193 5
ĠáŁ¦áŁ£ áŁ¥
ĠáŁ¡áŁ¨áŁ¥ áŁ¡
ĠáŁ¡áŁ¨áŁ¥ áŁ¨
Ġed its
Ġed itor
Ġrep ublic
ĠáŁ©áŁ¢ áŁ¡
áŀĵáŀĤ áŀłáŀĶáŀı
Ġ195 1
Ġcompl icated
ĠÃ ģ
och inch
Ġdisc ol
Ġ198 2
Ġ198 5
ĠáŁ©áŁ¥ áŁ¡
Ġorgan ized
Ġorgan ization
Ġorgan izations
ĠáŁ¡áŁ¨áŁł áŁ¤
Ã¨ ne
Ġsl avery
Ġart ific
Ġart istic
Ġet ernal
Ãł i
Ġcond emn
Ġlater ally
Ġ194 7
ĠáŁ¦áŁ¨ áŁ¡
Ġins ects
ĠSu pp
less ness
áŀĢáŀ¢ áŀļáŀİ
Ġeven ing
ĠGi Ã¡p
Ġdem ocracy
Ar m
ĠáŁ¡áŁ¨áŁ£ áŁ¢
ris ing
Pre vious
ĠBl ue
ĠDe ath
Ġspe aking
Ġjust ice
ĠWe i
Ġval ues
Ã´ n
ĠUN DP
Ġdepend s
rid ges
ĠáŁ¡áŁ§áŁ¥ áŁ§
Ġmar ks
Ġadminist ered
ĠMus Ã©e
rah ok
ĠBar b
Ġlog ical
Ġarg ues
Un ited
Ġthink ers
Ġtre nd
erman ent
ĠAng kor
Ġvis it
Ġmor ph
Ġabs ence
ä¸ Ń
Ġpal ab
Ġpal eness
Ġmult i
Ġassoci ation
Ġexperi ences
áŁĴáŁĴ áŁĭ
ĠáŀŁáŀļáŀĳ áŀļáŀĬ
Ġrefer endum
ĠDem on
ĠDem ocracy
af e
IN I
ĠFl ag
wh ite
wh ile
Ġexec uted
Ġindust ries
Ġcyc les
ĠFrank lin
Ġobserv ation
Ġphot ography
go ing
Ġran ked
Ġimpro ve
Ġep ithel
ores cent
osp ital
sych ology
Ġur ates
Ġsan ctuary
Ġpa id
Ġrequire ments
Ġmer ely
ococc us
Ã©n Ã©
Ġlaun ch
Ġestablish ing
Ġmathem atic
Ġill ust
ĠPy th
ĠPy ongyang
ïģ Į
ĠâĢĺ âĢĻ
ĠRuss ia
Pl ato
Ġrul er
ĠGl obal
Ġaccount s
Ġcapt ure
Ġ25070 7
Ġhapp ens
Ġassum ed
Ġabsol utely
zh ou
ĠâĢĻ âĢĻ
Ġbreat h
Ġseek ing
Ġreduc ing
ĠFed eration
ĠFore ign
Ġprefer red
Ġdiacrit ics
Ġtiss ues
apew orm
comm un
Ġencour age
Ġcoast al
ĠST i
Ġcong estion
ĠStart ups
Ġabol ished
Ġtransc end
Ġresid ents
ĠUnic ode
Ġdipl omatic
Ġinstr ument
Ġelectric ity
ĠNep om
Ġspirit ual
Ġslight ly
Ġpattern s
Ġvel oc
rn st
Ġrough ly
ordan ie
Ġwealth y
àºĩ àº
Ġgrant ed
Ġparad igm
Ġbronch itis
Ġaflat oxin
Ġmun ic
Ġprep ared
htm l
lov ak
Ġarrest ed
à¸²à¸ĭ à¹Ħà¸ĭà¸¢à¸²à¹Ħà¸Ļà¸Ķ
ĠScott ish
Ber lin
ĠLank a
Ġoppos ite
[? ]
erob ic
Ġfert ility
ĠDal ai
ucas us
Ġkil omet
Ã§a ise
ĠMcG ill
Viet nam
ĠMich igan
ĠIndust rial
ç¾ ħ
áŀĶáŀĢáŀı áŀı
ĠCER N
ĠToul ouse
ĠJak arta
Ġdestruct ion
ĠEconom ics
Ġtheoret ical
ĠCarJ aguar
Ġappropri ate
ĠReb ellion
ĠConfuc ian
Æ°á»Ŀ ng
æļ ¹
ĠMY FC
Ġsurre nder
ĠDÃ¢ng rÃªk
shell ed
ĠáŀĩáŀĻáŀĺ áŀĦ
restr ial
iffer ent
ĠValk yrie
ĠChoms ky
Ġrhet or
" ("
) |
7 00
A rab
A lex
B r
B ac
B ush
C amp
C yst
E t
G reat
G ram
G ross
H in
H al
J ean
J oom
L F
L in
L ord
L ove
L ike
L abor
M C
M I
M Y
M ore
O ff
O cc
P an
P ers
P ort
R D
R el
S al
S oc
S ch
S ha
T w
U nder
V al
V ND
_ ,
a uc
a igns
b i
b ec
b ud
c m
c os
c ard
d og
d rake
e i
f ree
f ij
f eline
h mar
i ew
j ad
l eth
l aw
m ind
m outh
n y
r ant
s is
s ara
t ains
t rophy
u v
u as
w ig
w all
w estern
w orks
y r
z il
z ine
| "
Â ´
Ã Ł
Ñ Ģ
å ¥
å ½
å Ĭ
æ Ŀ
ç ¨
é Ģ
Ġ ice
Ġ à¸Ħ
Ĥ £
Ķ å¯
Ġáŀ ¾
áŁĴ áŀ¼
áŀļ áŀļáŀł
áŀļ áŀļáŀľ
áŀļ áŀļáŀ¢
áŀļ áŀĵáŀĦ
áŀĵ áŀĻáŀĢ
áŀĵ áŀ¯
áŀĵ áŀľáŀĢáŀĺ
áŀĦ áŀĻáŀŁ
áŀĦ áŀ¢áŀī
áŀĦ áŀ°
áŀĢ áŀĲ
áŀĢ áŀļáŀĦ
áŀı áŀĢáŀĽ
áŀĽ áŀĺáŀł
áŀĽ áŀļáŀĦáŀĤ
áŀĻ áŀĺáŀł
áŀĻ áŀĲáŀĻ
áŀŁ áŀļáŀĺ
ĠáŀĶ áŀĢáŀļáŀİ
ĠáŀĢ áŀĩáŀĦ
áŁĦ âĢ¦..
Ġáŀĳ áŀī
Ġáŀĳ áŀıáŀĶ
áŀľ áŀĨ
áŀ¼ .
áŀħ áŀģáŀĵ
áŀħ áŀľáŀĤ
Ġáŀ¢ áŀĵáŀĢ
áŀĸ áŀĺáŀĢ
áŀĸ áŀĺáŀĵ
Ġáŀħ áŀĻ
áŀĤ áŀĬ
áŀİ áŀħ
Ġáŀı áŀħ
áŀĩ áŀŁáŀĸ
Ġáŀģ áŀĻ
Ġáŀł áŀĻ
ĠáŀĽ áŀŁ
áŀĴ áŀļáŀı
ĠáŀĹ áŀľáŀĶ
ĠáŀĻ áŀĺáŀĳ
áŀĹ áŀĽ
áŀĹ áŀī
áŀĹ áŀ¡
áŁĪ âĢ¦)
Ġ( [
áŀļáŀŁ áŀļ
áŀļáŀŁ áŀłáŀĶ
Ġt al
Ġt ells
Ġt ambiÃ©n
ĠáŀĪ áŀĺáŀĺ
he ar
áŁĬ áŁĨáŀ»
Ġáŀ¡ áŀĶ
Ġáŀ§ áŀī
Ġáŀ§ áŀļáŀĤ
er ts
áŀļáŀİ áŀĻ
áŀļáŀİ áŀľáŀı
re c
re ci
re ased
áŀĩáŀĵ áŀŁáŀĦ
áŀĺáŀĢ áŀĵ
en ia
Ġo m
Ġo ocysts
at em
at hered
Ġs ab
Ġs ell
Ġs ections
Ġs ulf
Ġs ciences
es ar
áŀĢáŀĺ áŀł
ar ides
al ign
Ġc le
Ġc abinet
Ġw aters
Ġáŀĺáŀł áŀĽ
áŀļáŀĬ áŀļáŀıáŀŁ
ic ollis
Ġf onts
Ġb ind
Ġb io
áŀ¯ áŀľ
Ġd a
Ġd os
áŁ¡ áŁ©áŁ¨
el i
Ġm i
Ġm il
Ġm ut
Ġm ites
Ġm ission
Ġm ott
Ġm ele
Ġm olds
Ġm obile
Ġm igr
áŀĻáŀŁ áŀĶ
áŀĻáŀŁ áŀļáŀŁ
áŀĽáŀĦ áŀĩ
áŀĽáŀĦ áŀĴáŀļáŀİ
ro ve
áŁ¥ áŁ¨
ĠC F
ĠC G
ĠC amb
ĠC oup
ĠC ode
ĠC rypt
Ġl ie
Ġl ooks
Ġl exic
ĠS N
ĠS R
ĠS ign
ĠT H
ĠT op
áŁ¨ áŁłáŁł
áŁ¨ áŁ©
Ġh ocks
ĠáŁ§ áŁ¡áŁ§
áŁ¦ áŁ¤
áŁ¦ áŁ¨
ac ute
ĠáŁ¦ áŁ¡áŁ¦
am ander
ĠáŀĸáŀĽ áŀļáŀĶáŀŁ
ĠA N
ĠA le
ĠA AS
áŀĸáŀŁ áŀĢ
áŀļáŀ¢ áŀĺ
ĠM am
ĠM ain
ĠM og
ĠM ind
ĠM ean
ĠM ellinan
Ġre new
ĠáŀŁáŀł áŀĸáŀĵ
oc aust
os por
Ġn ick
Ġn Ãº
ĠáŀŁáŀĢ áŀľ
ĠR av
ĠR CA
ĠR ider
ĠB av
ĠB ant
ur ge
ur rent
ur rence
ul o
ul et
ul osis
ĠP le
ĠP ir
ĠP un
ĠP up
ĠP ope
ĠP ermanent
id ia
ig e
ig o
ig ration
Ġ: "
im ental
ad ine
Ġg em
Ġg ait
Ġg olden
iv ation
ĠD et
ĠD Ã¢n
ĠD Æ°Æ¡ng
ĠH our
ĠH mong
ĠáŀĢáŀĦ áŀĩáŀī
áŀ± áŀł
ĠI X
ĠI r
ut th
ĠF r
ĠF ly
ĠF ab
ĠF act
ĠF und
ĠF ox
ĠF oot
ĠF ocus
áŀŁáŀĢ áŀł
od ak
ĠáŁ¢áŁł áŁ¥áŁł
áŀĵáŀĢáŀĬ áŀĢ
em perature
un ting
st an
um i
ĠG ir
ĠG ord
ĠG ott
ĠG reg
ĠG irl
ĠG olden
ĠL ec
ĠL arge
ĠL ittle
ĠL incoln
ĠK o
ĠK ra
ĠK oh
ĠK iernan
ĠáŁ¡áŁ¨ áŁ©áŁ¢
ra ith
ra ine
Ġv ess
Ġv ice
Ġv isc
Ġv ault
ĠáŀĹáŀĸ áŀģ
ĠN h
ĠN one
ĠN ey
ĠN DV
ĠáŁ¡áŁ¢ áŁ©áŁ¦
Ġst re
Ġst ars
Ġ19 04
Ġ19 28
Ġpro port
Ġpro tozo
if etime
Ġor th
and o
Ġan throp
ia o
ĠáŁ¡áŁ¡ áŁłáŁł
ĠEv en
ĠEv ery
áŀĴáŀĵ áŀĴ
Ġde als
ĠV II
ĠV oice
ill i
ill ery
ĠJ un
ak ers
ong k
áŀĻáŀľ áŀħ
ran es
ĠCar dam
ĠCh u
ĠCh and
ĠCh au
ĠCh annel
ĠCh iang
ri ers
ĠáŁ¡áŁ§ áŁ©áŁ¥
Ġhe p
og y
Ġr ace
Ġr ales
Ġr anges
ĠO h
ĠO ak
Ġat he
áŀĸáŀī áŀī
áŀ« áŀıáŀļ
áŀĵáŀ¢ áŀľáŀĢ
ĠU sonian
ell an
ĠáŁ¢áŁ¥ áŁ¡áŁł
ĠáŁ¢áŁ¥ áŁ¡áŁ¡
Ġsp r
Ġsp ot
Ġsp end
Ġk new
Ġch ain
ĠIn put
ine a
ib er
ern e
Ġdis h
ĠTh u
ĠTh ong
ĠTh ird
Ġse arch
Ġun f
Ġun known
Ġall oy
à¸²à¸ °
ĠSt one
ass apa
áŀĦáŀ¢ áŀĴ
Ġ6 2
áŀĤáŀİ áŀĵ
ip it
Ġsh all
Ġsh oot
Ġsh arp
Ġ18 80
Ġ18 95
ep hen
ish ment
ok a
áŀıáŀľ áŀĺ
Ġ7 3
Ġcl ing
ord ers
ĠáŁ¤áŁł áŁ¤
ĠáŀĵáŀĤ áŀļáŀĸáŀĵ
á» ĩ
Ġpl ain
amb orgh
Ġpr ints
Ġcons ensus
Ġag encies
Ġcomp osition
ĠUn c
Ġph r
Ġ8 7
ric ted
áŀļáŀĢáŀĶáŀļ áŀļáŀĶáŀļ
Ġper haps
ĠAn ur
à¸ģ à¸°à¹Ħà¸Ķ
ys acch
Ġ14 1
Ġel se
ĠAs pergill
Ġqu attro
ath ag
In ternational
Ġ9 3
Ġ9 4
Ġj ob
Ġle uk
ts burgh
Ġ10 3
Ġ10 8
Ġ10 9
ffect ive
Ġpe as
Ġpe pper
Ġpe ptidoglycan
à¸Ń à¸Ļ
à¸Ń à¸¡
ick en
ung le
Ġout let
ug al
Ġgr up
az ines
ĠDec laration
att re
Ġspec ification
à¸¡ à¸²à¸ģ
au v
à¸ĩ à¸«
Ġdef ine
ĠCom ments
Ġfeed ers
ke ys
Ġvar iant
Ġáŀ§áŀŁáŀĹ áŀļ
form ation
ĠáŁ£áŁ¨ áŁ¨
ĠáŁ£áŁ§ áŁ¢
ĠáŁ£áŁ§ áŁ¨
ĠMar aud
Ġ0 9
Ġ12 1
Ġ12 3
ull s
ĠáŁ¤áŁ¢ áŁ¡
ĠáŁ¤áŁ¢ áŁ¢
ĠáŁ¤áŁ¢ áŁ£
Ch ina
ĠáŁ¤áŁ¥ áŁ¤
ĠPro gress
Ġdec or
à¸¢ à¸ĩ
Ġ11 3
Ġ197 1
Ġexp osed
Ġdist ance
ĠEm press
Ġresp iration
Ġáŀ¢áŀĺáŀı áŀĶáŀĳ
ĠAmeric as
inc ent
aw n
Ġmon opol
Ġman aged
ĠSp ring
ĠSp ectre
ift y
ox ins
ĠáŁ¢áŁ¥áŁł áŁ¨
Ġwar s
ett leth
ĠáŀĹáŀĤ áŀľáŀı
=" /
Ġbro ke
ophy te
à¸§ à¸ĩ
onom ous
ĠBuddh ists
áŀıáŀĤ áŀłáŀĶ
ĠáŁ¨áŁ§ áŁ©
ĠáŁ¡áŁ¨áŁ§ áŁ¢
ĠáŁ¡áŁ¨áŁ§ áŁ¨
Ġinflu enz
Ġinflu encia
tic a
Ã³ ng
à¸ķ à¸³
à¸ķ à¸£à¸°à¸ģ
Ġ193 1
ĠáŁ¦áŁ£ áŁ¢
ĠáŁ¦áŁ£ áŁ©
ĠáŁ¡áŁ¨áŁ¥ áŁ¢
ĠIs lands
ĠáŁ©áŁ¢ áŁ£
An other
à¤ ¿
à¸Ĺ à¸³
Ġmo ist
Ġhel i
pos itive
Ġret ain
à¸ļ à¸£
Ġdisc ourses
ĠáŁ¡áŁ¥áŁ¦ áŁ¨
Ġ198 6
ĠFor ce
Ãł ng
Ġmed ieval
pen se
ĠEng ine
áŀĺáŀļáŀİ áŀĵ
Ġcoll abor
Ġleg it
Th omas
Ġins ect
unct ivitis
rac onite
Ġmin ds
ush ita
Ġposs ibility
Ġprom ote
yd ay
Ġdesc end
ĠáŁ¡áŁ¥áŁ¤ áŁ¨
ER O
ĠAd minist
Ġconf irmed
ĠPe ak
ih ara
200 3
200 4
Ġrest ricted
ĠáŁ¡áŁ¥áŁ¥ áŁ¦
Ġsuccess or
ĠáŁ¡áŁ£áŁ¨ áŁ£
ĠáŁ¡áŁ£áŁ¨ áŁ¤
Ġpresent ed
Ġown ed
ĠCent ipede
Ġdiv ine
ĠáŁ¢áŁłáŁ¦ áŁ¨
ĠáŁ¡áŁ¦áŁ¢ áŁ£
== =
Ġhand le
Ġopp a
ĠáŁ¡áŁ¤áŁ¢ áŁ¡
Ġgu id
Ġgu err
Ġ26 3
raw ler
ĠáŁ¡áŁ¥áŁ§ áŁł
Ġter restrial
Ã± Ã±
Ġ196 1
eter an
ĠMus lim
ĠáŁ¡áŁ¡áŁ¦ áŁł
Ġsal vation
Ġrepresent ation
Ġconstruct s
ĠChamp ion
Ġ2507 12
Ġadv is
ĠQu á»ĳc
Ġrev ival
Ġweight ed
ĠWilliam s
Ġproduc er
Ġdev ices
Ġeff iciency
bs erv
ĠAust ria
Ġeas ier
equ ate
Ġcivil ians
Ġshow ed
Ġturn ing
Ġcamp aigns
Ġsyn the
Ġstart ing
rystal on
ĠWind ow
Ġobject ive
Ãº n
Ġrepl ace
Ġexperi enced
ĠMo isture
ĠDev il
Ġdescrib e
ĠCap ital
Ġaut omatic
Ġterrit orial
Ã¼ r
Ġregard ing
Ġess ay
ĠCarL amborgh
Ġdistinct ive
áŀ¢áŀľ áŀĻáŀľ
ĠCont ents
Ġgen oc
Ġvand al
Ġresist ant
gn an
Ġindic ated
Ġwhe el
Ġloss es
ĠPhil adelphia
Ġearth w
Ġviol ence
ĠEvilD raconite
Ġsugg ests
Ġimplement ations
Ġindividual s
We b
enn is
ĠMont real
Ġsurv ive
Ind uction
ĠAM G
aro que
ĠOlymp ics
ĠDel hi
Ġspray ing
ĠSan ctuary
Ġprob ability
Ġsit uated
ĠBu ilding
ĠGar uda
Ġestablish ment
Ġbhikkh us
ĠHol ocaust
Ġminist ers
ĠMat riarch
ĠRuss ian
Ġgovern ing
Ġphon etic
iction ary
raf ÃŃa
ĠArch itect
Wh ile
Ġdistingu ish
Ġspeak er
Ġlib eral
ĠVen us
Ġign orance
Ġcreat ing
ĠTrans l
ĠEvilC rystalon
Ġexpress ions
File Man
Ġcer emon
ĠEvilB roadwing
Ġjournal ist
emat ous
Ġstun ts
ĠOut put
Ġscript ures
Ġtradition ally
Ġenvironment al
ĠCur ie
cript ion
Ġconqu ered
Ġacqu ire
Ġcast les
Ġfr ag
ĠGre ater
ĠGen eva
Ġvers ions
Ġprofess ional
ĠPit tsburgh
ĠNag a
Ġmanufact ur
Ġop in
ĠFed eral
rupt ed
Ġwalk ing
à¸Ĳ à¸¡à¸Ļà¸ķà¸£
ĠLeg ion
ĠKar l
Ġdiacrit ic
Ġbenef its
Ġdisappe ar
Ġslow ly
Cont rol
Ġlymph oid
Ġnob ility
ĠNi Ã©pce
Ġsup reme
Ġregist ered
Ġlegisl ative
Ġsynt ax
Ġsinus es
ĠAlex and
ĠAlex ander
ĠBrah m
ĠDV H
Ġabol ition
Ġcook ing
Ġmag azine
ĠFre ud
Ġpros per
ĠOs lo
Hist ory
Ġmax im
Ġhat chery
ĠUr zaklan
ĠUnic orn
Ġinstr uments
ĠKen ya
Ġpercent age
ĠAy utth
Ġeth ics
Ġbal ance
ĠCla ude
ĠInv est
Ġposit ivism
ĠTO YOTA
Ġpreced ing
Ġnutrit ional
orp feline
Ġba its
Ġmess age
ĠAgre ement
Ġnod ules
ĠLoc ke
Ġdeter ior
ĠSoft ware
ĠSorcer ess
Ġsaccul itis
ĠDj inn
ĠGÃ¶ ring
phab et
Ġfif th
Ġdang erous
ĠCrus her
ĠTod ay
ĠHi ros
Ġvoc ab
ĠDevour er
Ġcandid ate
Ġlex ical
ĠHarb inger
Ġroc ks
æŁ ¬åŁ
ĠáŀļáŀŁáŀı áŀİ
etrac ycline
Ġdeliv ered
Ġtribut ary
openh agen
weg ian
ĠMust ang
adÃ©m ie
Ġinco ordination
ĠRober ts
Ġartific ial
Joom la
Ķå¯ ¨
Ġmele ag
ĠnÃº mer
ĠMaraud er
ettleth orn
ĠCarLamborgh ini
FileMan ager
ĠAyutth aya
æŁ¬åŁ Ķå¯¨
" '
" (
" >
, âĢ¦
- "
. ><
A ir
B ang
C o
C am
C op
C ard
D ay
D rying
E A
E T
F e
F er
G ra
H er
H igh
L ife
L ittle
M T
M e
M y
M or
N am
O p
O pen
P IC
R L
R AN
S P
S em
S ak
T ime
T able
T rans
V N
_ .
b el
c ole
d h
d u
d ose
f ish
g reen
h op
h igh
h ost
i ol
i ography
j ust
j ection
k et
k im
m un
m ail
m ission
n ic
p ng
p resent
s l
s in
w ang
w riting
y undai
Ã Ĺ
Î ¯
à ·
ã ģ
å °
æ ±
æ ķ
ç Ĥ
è ¿
Ġ __
Ġ à¹ĥà¸Ļà¸
ģ Ħ
Ł è
áŁĴ áŀ»
áŁĴ áŀ¶áŁĨ
áŁĴ ...
áŀ¶ (
áŀ¶ :
áŀļ áŀ¢áŀļ
áŀĦ áŀ£
áŀĢ áŀ§áŀĳ
áŀı áŀĩáŀĵ
áŀı áŀļáŀĢáŀĶ
áŀĻ áŀĶáŀļ
áŀĺ áŀ¢áŀŁ
áŀĺ áŀļáŀĽ
áŀŁ áŀ¡
áŀĶ áŀħáŀĢ
áŀĶ áŀļáŀĳ
áŀĶ áŀĻáŀŁ
áŀĶ áŀĽáŀĦ
áŁĭ .
ĠáŀĶ áŀļáŀĢ
ĠáŀĶ áŀĺáŀı
áŁĩ áŁĤ
áŁĩ [[
ĠáŀĢ áŀĽáŀĢáŀľ
ĠáŀŁ áŀļáŀĩ
ĠáŀŁ áŀļáŀĳáŀĢ
áŀ¾ áŁģ
áŀ¸ áŀ¹
ĠáŁ ī
áŀľ áŀ¢
áŀľ áŀ®
Ġáŀ¢ áŀļáŀł
áŀĳ áŀľáŀı
áŀĳ áŀĤáŀı
áŀĸ áŀķ
áŀĸ áŀĥ
áŀĸ áŀĪ
áŀĸ áŀ¢áŀĻ
áŀĤ áŀĻáŀŁ
Ġáŀļ áŀĻáŀŁ
áŀ½ âĢĿ
áŀī áŀ¢
Ġáŀı áŀĶáŀļ
Ġáŀģ áŀĶ
Ġáŀł áŀľ
Ġáŀł áŀ¬
áŀģ áŀĸáŀĽ
áŀł áŀī
áŀł áŀĩ
áŀĴ áŀİ
Ġáŀľ áŀĻ
Ġáŀľ áŀļáŀľ
áŀ¢ áŀĻáŀĽ
áŀ¢ áŀ¡áŀŁ
áŀĹ áŀĢáŀĺ
áŀĵáŀĢ áŀļáŀĦ
áŀĵáŀĢ áŀĩáŀĢ
áŀĵáŀĢ áŀļáŀĦáŀĤ
ĠáŀŁáŀĺ áŀĢ
áŀĲ áŀĦ
Ġ( $
Ġ( ),
áŀļáŀĶ áŀľ
áŀļáŀĶ áŀĹ
Ġt rying
Ġt ales
Ġt icks
áŀ»áŁĩ áŁģ
in p
in ating
in ness
Ġa z
Ġa qu
Ġáŀİ áŀĵ
Ġáŀ¯ áŀĵ
Ġáŀ¯ áŀĻáŀĢ
áŀļáŀĺ áŀłáŀĽ
Ġáŀ§ áŀŁáŀĢ
Ġáŀ§ áŀĢáŀł
on ents
er l
er ry
re v
re land
áŀĩáŀĵ áŀı
an im
Ġthe rm
at ories
at ched
áŀĤáŀı áŀĵ
Ġ" ...
Ġs ure
Ġs oph
Ġs au
Ġs ample
Ġs olution
es ia
áŀĢáŀĺ áŀļáŀİ
ar on
ar it
al ing
Ġc ere
it ish
it abha
áŀĨ áŀĻ
áŀĨ áŀŁ
ĠáŁ£ áŁ©áŁ£
ĠáŁ£ áŁ©áŁ¦
áŀĦáŀĢ áŀĵ
áŀĦáŀĢ áŀĽ
áŁĬáŀ¸ .
áŀĢáŀļ áŀĬ
áŀŁáŀĺ áŀĻ
Ġw in
ĠáŁ¤ áŁ¡áŁ¡
ĠáŁ¤ áŁ¡áŁ©
áŀļáŀĬ áŀĢáŀŁ
áŀĽáŀĶ áŀĬ
ic he
Ġin tern
Ġp y
Ġp ri
Ġf t
Ġf ur
Ġf aster
Ġf atty
Ġb it
Ġb and
Ġb all
Ġb ought
Ġb igg
Ġb ridges
áŀĶáŀĳ áŀĶ
áŀĶáŀĳ áŀħáŀĺ
áŀļáŀħ áŀħ
ou rier
ĠáŀħáŀĦ áŀĶ
à¸ İ
as o
as y
as en
as por
Ġm ap
Ġm artial
ĠC D
ĠC er
ĠC old
ĠC herry
ĠC helsea
Ġto w
Ġto ler
Ġáŀ¢áŀī áŀĺáŀĢ
Ġl in
Ġl un
Ġl oyal
Ġl ists
ĠS n
ĠS ay
ĠS ud
ĠS ection
áŁ¤ áŁ¡
ĠT ab
ĠT ex
ĠT athag
ĠáŁ¦ áŁ¡áŁ¢
ĠáŀļáŀŁ áŀŁ
om aru
am ily
am eter
am ita
am Ã©rica
ec e
ec raft
ĠA x
ĠA st
ĠA SEAN
áŀĢáŀĤ áŀĢ
ol i
ĠM it
ĠM ou
ĠM ur
ĠM ouse
ĠM eth
ĠM ats
ĠM uang
ĠM icroscop
áŀıáŀĶ áŀİ
Ġre ver
Ġre tic
Ġre named
oc a
os o
os ing
os evel
os lovak
Ġn ahu
ĠáŀĵáŀĤáŀļ áŀĽáŀľ
ĠáŀĵáŀĤáŀļ áŀ¢áŀľ
ĠR ap
ĠR oll
ĠR onal
ĠB ir
ĠB iz
ĠB ob
ĠB ru
ĠB eng
ĠB road
ĠE t
ĠE ur
ĠE ug
Ġ2 60
ur ia
Ġ. (
ul c
ĠP age
ĠP MV
ĠáŀĤáŀİ áŀĶ
áŀĵáŀĢáŀŁ áŀŁ
ĠâĢ¦ ..
ĠáŁ¡áŁł áŁ¡áŁł
ĠáŁ¡áŁł áŁ¢áŁł
ig enic
ot ion
ad ium
ad hi
Ġg raph
iv als
Ġe uk
ĠD er
ĠD ur
ĠD im
ĠD rop
ĠD ao
ag an
ag ama
ĠH on
ĠH em
ĠH ence
ĠH ai
ĠH uan
ĠF an
ĠF ul
ĠF ung
ĠF ont
ĠF enton
áŀ§ áŀĶáŀĢ
áŀŁáŀĢ áŀĹ
od ana
ĠáŁ¢áŁł áŁ£áŁł
00 1
st ar
um m
ĠG an
ĠG ot
ĠG old
ĠG Ã²n
Ġcon ference
ĠL h
ĠL ab
ĠL ate
ĠL ibr
ĠL ipp
ĠL ocal
ĠL attre
Ġas k
ĠáŁ¡áŁ¥ áŁ¢áŁł
ĠáŁ¡áŁ¥ áŁ¡áŁ¤
Ġon to
ĠK ras
ĠK hai
ĠK odak
ĠáŁ¡áŁ¨ áŁ£áŁł
ĠáŁ¡áŁ¨ áŁ©áŁ¡
áŀĺáŀľ áŀĤ
ra ight
Ġv ot
Ġv ass
Ġv acu
ĠN orm
ith i
ĠáŁ¡áŁ¢ áŁ¢áŁł
ĠáŁ¡áŁ¢ áŁ¡áŁ©
ect ive
ĠW he
ĠW ars
ĠW omen
th i
ĠÂ» )
Ġst raight
op ar
op eration
Ġ19 11
Ġ19 15
Ġ19 21
her al
Ġal bum
Ġpro l
ĠThe ory
if ically
Ġor tog
av er
av ia
ud io
and om
Ġáŀª áŀľ
est ock
ĠáŁ¡áŁ¡ áŁ©áŁł
ĠáŁ¡áŁ¡ áŁ©áŁ¡
ant i
uc ing
áŀĺáŀĶ áŀĲ
ĠEvil Sp
qu arters
ĠV ladimir
ill er
ĠJ os
ĠJ ane
ak ed
end azole
ĠáŁ¡áŁ£ áŁ£áŁł
áŀĶáŀĲ áŀŁ
ran ce
ary otes
ĠCh ong
ĠCh hmar
áŀĵáŀĢáŀħ áŀĦ
Ġ3 60
ri que
Ġit ems
ich y
ich olas
og rap
Ġr ound
Ġr ugby
áŀĶáŀĬ áŀļ
ĠO c
ĠO ECD
Ġsu nd
Ġsu itable
art re
ĠU buntu
ard er
Ġsp ort
Ġ201 9
Ġch art
Ġch annel
Ġch urches
Ġcont rovers
Ġ... ....
Ġnot ion
Ġnot ably
áŀĵáŀĢáŀı áŀľ
Ġinc ident
Ġwor th
ik es
ph y
ph an
ĠáŀĶáŀļáŀĺ áŀĢ
pl ant
ĠáŁ¢áŁ¡ áŁ¡áŁ£
rit is
Ġun ified
Ġint ellect
áŀĦáŀ¢ áŀı
Ġ6 1
ip heral
Ġ18 89
Ġ18 76
Ġen acted
ĠáŁ¥áŁł áŁ¦
ok ed
ĠKh an
Ġres emb
Ġ7 4
Ġcl othing
ĠáŀĵáŀĤ áŀļáŀı
ach t
ach ment
ond er
á» ¥
á» ±
Ġad vent
Ġad enovirus
Ġpl us
Ġpl enum
áŀĢáŀĦ áŀĢáŀĺ
Ġcomm em
Ġcomm itted
ens ed
ens ity
ĠFran z
Ġcons erv
Ġcons olid
Ġ8 4
Ġfl ed
ĠáŁ¡áŁłáŁłáŁłáŁł áŁłáŁł
olog ic
à¸ģ à¸§
Ġ14 0
Ġqu arter
In f
ĠáŁ¦áŁł áŁ¦
ĠáŁ£áŁ¥ áŁłáŁł
áŀľáŀļáŀİ áŀı
Ġ10 2
Ġ10 5
Ġ10 7
ors hip
19 5
áŀħáŀļáŀİ áŀŁáŀĺ
ĠHe in
âĢ¦ .)
ĠX ieng
Ġro les
ick ets
ron om
Ġout er
ific ations
Ġind ifference
Ġ20 5
Ġ20 6
ĠCambod ge
Ġinv ited
Ġatt itude
Ġprov en
ĠáŁ£áŁ¦ áŁ¢
ĠáŁ£áŁ¦ áŁ¤
ĠáŁ£áŁ¦ áŁ©
att al
12 5
ĠAl ger
Äģ na
à¸ĩ à¸²à¸Ļ
ual s
ke pt
Ġvar iab
Ġrem ote
ool s
Ġcount y
Ġsub stitution
Ġsub urban
ĠQ ue
ĠLa un
ĠáŁ£áŁ¨ áŁ©
ĠáŁ£áŁ§ áŁ©
Ġdi ph
ĠMar se
Ġac ids
Ġ0 3
Ġ12 7
Ġ16 0
Ġpo em
Ġact ing
ĠáŁ¤áŁ¢ áŁ¨
à¹Ģà¸ Ķ
ĠáŁ¤áŁ¥ áŁ¥
Ġ15 00
ĠPro per
Ġfound er
ĠSh i
ĠSh amb
ilos oph
Ġacc um
ĠáŁ¡áŁ¥áŁł áŁ©
Ġsec ure
Ġsec urity
Ġ197 7
à¸Ļà¸ ĺ
Ġpop ulous
ĠEm ail
ax ia
ĠáŁ¤áŁ£ áŁ§
ĠáŁ¦áŁ¢ áŁ§
") :
à¹Ħ à¸Ĺà¸¢
Ġmon k
Ġmon uments
Ġprogram mer
Ġsupp osed
ĠSp ain
Ġáŀ¢áŀł áŀī
Ġwrit ings
Ġimp ression
ĠáŁ¦áŁ¥ áŁ¥
Ġwar ned
Ġsur g
Ġtem porary
Ġadd ing
ĠáŁ¥áŁ¤ áŁ¥
ĠRo osevel
ophy tes
áŀĻáŀĺáŀĵ áŀĸ
ĠáŁ¤áŁ§ áŁł
ĠáŁ¤áŁ§ áŁ©
Ġext ent
uth or
Ġinflu ences
Ġequ ilibrium
Ġord ers
Ġcap s
Ġ193 4
Ġáŀľáŀĵ áŀľáŀħ
ĠáŁ¤áŁ¦ áŁł
ĠáŁ¦áŁ£ áŁ¦
ĠBC S
rem ors
ĠáŁ¥áŁ§ áŁ©
Ġgrow n
ĠáŁ¡áŁ¥áŁ¢ áŁ¡
ĠáŁ¡áŁ¥áŁ¢ áŁ¤
Ġcar rier
Ġsk ills
pos ition
Ġclass ic
à¸ļ à¸²à¸Ĺ
ĠáŁ©áŁ¦ áŁ¡
ĠáŁ©áŁ¦ áŁ§
ĠGu inness
ĠáŁ¦áŁ§ áŁ£
Ġ198 1
Ġ198 3
Ġever yday
Ġorgan ic
aem aul
Ġcontin ental
Ġsl ave
oci ology
Ġloc ation
Ġloc ations
na ire
rav el
Ãł n
Ġmed ium
Ġmed icine
ĠWar ner
ĠWar rior
Ġcur ves
Ġcur tains
Ġdirect ion
Ġinvolv ing
ĠáŁ§áŁ¨ áŁ§
à¸ŀ à¸¥
Ġmin utes
ĠáŁ¡áŁ§áŁ¨ áŁ£
Ġdr um
Ġprom in
Ġpartic les
ĠOn ly
Ġdem ands
ĠCl ub
ĠBl ood
ĠáŁ¡áŁ¤áŁ¤ áŁ¤
Ġalong side
app y
app ing
Ġexper iment
Ġspread s
200 7
ĠáŁ¡áŁ¦áŁł áŁ¥
Ġexist ed
Ġconsum ers
ĠCol umb
ĠMan ila
Ġdiv or
Ġdiv ision
ĠáŁ¢áŁłáŁ¦ áŁ©
Ġexpl an
Ġexpl ains
rid is
ĠáŁ¡áŁ¡áŁ¤ áŁ¢
Ġmat rix
ott om
Ġlast ing
Ġhistor ians
Ġreal m
Ġreal ized
Ġ196 2
Ġ196 3
Ġmar riage
Fran Ã§ois
ĠáŁ¡áŁ¡áŁ¦ áŁ¥
Ġappear ing
ĠáŀŁáŀļáŀĹ áŀĺ
Ġplay ers
ĠáŁ¡áŁ¤áŁ§ áŁ¨
Ġtechn ique
Ġcrit icism
Ġpropos al
Ġrepresent ative
Ġmemb ranes
ĠSer ess
ĠSer ver
iff el
ĠAf ghanistan
Ġproduc ers
Ġsent ence
ĠáŁ¡áŁ¨áŁ¢ áŁ¦
ĠRepublic an
Ġeas y
ãĢ Į
ãĢ į
Ġopen ing
Ġcirc um
Ġfac ult
Ġfac ilit
esp iratory
áŁĴáŁĴ áŀ»
Ġfarm ing
áŀŁáŀļáŀİ áŀĤáŀĺáŀĵ
opl asts
ĠCarA cura
ĠCap it
IN G
ĠHer o
Ġrecogn ised
Ġdoc t
Ġread er
ĠCarC itroÃ«n
Ġ* *
ĠBo ard
ĠBo eng
Ad d
Ad ult
ĠSam sung
Ġinteg ral
Ġut ility
ĠMed iterranean
ĠCa ill
Ġreason ing
Ġcontamin ation
CD C
Ġáŀĩáŀľáŀĵ áŀħ
Ġsel ected
As ia
Ġep och
Ġtend ency
Ġpred omin
ĠChen la
Ġ186 1
Ġ186 2
åı Ĭ
ĠMad ison
ĠDel ta
Ġspecial ized
ĠâĢį Â»
ĠAct ion
ĠRec ords
Ġvict ims
ĠVi per
ĠCan ada
leg iate
ĠGar n
Ġbhikkh unis
á¹ Ń
ĠSa igon
Ġsil ence
Ġregular ly
IM F
ĠInf antry
ĠProt ector
Ġsurround ed
Par is
back ground
Go ogle
æľ ¬
Ġtour ism
Ġtour ists
Ġtrib ute
Ge org
Ġarr ang
ĠEvilS k
Ġjud g
Comm on
ĠMet ropolitan
ĠBh ad
Ġgall inar
Ġcompar able
Ġemphas is
Ġemphas ized
Ġcover ing
ĠPit aka
ĠPet ers
ĠOper a
Ġfat igue
ĠFore st
Ġdiscipl ines
Ġemerg ing
ĠPlay tech
Ġdiscuss ion
Cons umption
ĠMi ata
riz ona
hamm ad
Ġast ra
Ġfriend s
Ġprote ins
Ġsup ran
Ġnegot iations
Ġsinus itis
Ġcaec a
omon as
Ġcong ested
Ġwithdraw al
Ġic on
Ġmag azines
ĠCP U
ĠGh ost
Ġsequ ences
Ġflat ten
Ġdepart ments
atar agama
Ġdivers e
ĠMil an
ĠIb n
Ġsubsequ ently
Ġpromot ing
Ġinj ection
Ġdram atic
ĠSang ha
ĠRod as
imm ler
Ġconj unctivitis
opath ology
Ġmetab olism
Av ian
Ġtub es
Ġsudden ly
ĠNok or
Ġseem ed
Ġmetaphys ical
Ġri pe
Ġïģ ¶
ĠVictor ia
Ġimmunosupp ressive
Aut umn
kt op
Âº C
Ġliqu id
ĠServ ices
dis cipl
ĠÄ Ģ
ĠáŀĤáŀļáŀł áŀĳ
ĠCAM RY
ĠMess i
Ġconvention al
Ġabdom inal
Ġsap iens
ĠStand ard
ĠConc ert
å£ «
ĠOtt oman
Ġspiro cha
Ġprison ers
Ġblind ness
Ġescrit ura
ĠMosc ow
Ġnorm ally
Ġmonitor ing
Ġguarant ee
Ġimmigr ants
ç¶ ĵ
Ġà¹ Ĩ
Ġtort icollis
ĠCzech oslovak
glut ination
Ġneighbor ing
Ary an
quir y
ugu ese
ĠReut ers
Ear ly
iper azine
Ġpall idum
ĠKrish na
ĠThanks giving
ĠZwory kin
ĠNepom uk
ĠCamb ridge
ĠCoup Ã©
Ġrenew ed
Ġvess els
ĠChand ler
ysacch arides
Ġmonopol ies
Ġinfluenz a
Ġceremon ies
Ġmeleag ridis
Ġsau ce
Ġbigg est
ĠRoosevel t
' ve
, ><
. ).
0 20
A ust
A DN
A SEAN
B at
B el
C F
C d
C ong
C ap
C ha
D is
D es
D em
D ep
D inh
D avid
E nd
E SET
F ollowing
G en
G DP
H R
H o
J an
L U
L eng
M us
M id
M odern
P I
P res
P eter
Q R
R uss
R ichard
S c
S iam
T y
T al
U G
U r
V ir
V accinate
W il
a fter
b ing
b ra
b uri
c at
c al
c ell
c ond
c laim
d f
d on
d ou
d el
e aux
f ers
f rom
g arden
h al
h as
h ol
h ow
h all
h olds
i our
k o
l t
m ile
m aking
m odern
n ews
n bsp
o en
p es
p ol
p iec
r ine
r ons
r ific
s i
s am
t el
t ure
t emperature
u rol
u Ã©s
v ir
v ant
v ision
w right
y ellow
{ }
¿ Ĺ
Å ĵ
É ĳ
Ì ģ
Î ½
Ï Ģ
Ï Ħ
Ð »
Ñ ģ
ã Ĥ
ç ¥
è ª
è ´
è ¾
è ĳ
è ¥¿
é İ
é Ľ
ì Ħ
í ķ
Ġ Level
Ġ à¸Ļ
Ġ à¸«
Ġ ille
Ġ ä¸
Ġ à¹Ħà¸Ķ
Ļ Ĥ
áŀ¶ áŀ»
áŀ¶ áŁĲ
áŀ¶ áŀ»áŁĩ
áŀļ áŀŃáŀĢ
áŀļ áŀ¥áŀı
áŀĵ áŀĩáŀĵ
áŀĵ áŀĺáŀĵ
áŀĵ áŀĤáŀĶ
áŀĦ áŀłáŀı
áŀĢ áŀĶáŀŁ
áŀĢ áŀľáŀı
áŀĢ áŀĽáŀĦ
áŀĢ áŀıáŀĳ
áŀĢ áŀĳáŀĦ
áŀı áŀļáŀĤ
áŀ· áŀ·
áŀĽ áŀĻáŀĩ
áŀĽ áŀ¡áŀĦ
áŀĻ áŀħáŀĵ
áŀĻ áŀĤáŀĵ
áŀĺ áŀļáŀĤ
áŀĺ áŀļáŀĵ
áŀ» áŁĲ
áŀ» áŀº
áŀŁ áŀļáŀĶ
áŀŁ áŀļáŀĻ
áŀŁ áŀĳáŀĵ
áŀĶ áŀĵáŀĢ
áŀĶ áŀĺáŀī
Ġáŀĵ áŀļáŀĦ
Ġáŀĵ áŀľáŀĢáŀĺ
áŁģ (
Ġáŀĺ áŀĸ
Ġáŀĺ áŀľáŀĵ
áŁĦ )
áŀ¸ áŁģáŁĩ
ĠáŁ Ģ
áŀľ áŀļáŀı
áŀ¼ áŁĶ
áŀħ áŀĽáŀı
áŁĤ áŀ¸
áŀĳ áŀĩ
áŀĳ áŀĢáŀĽ
áŀĳ áŀıáŀİ
áŀĸ áŀļáŀł
áŀĤ áŀ¢áŀĵ
áŀĤ áŀķáŀĦ
áŀī áŀĺáŀł
áŀİ áŀľáŀı
Ġáŀı áŀļ
Ġáŀı áŀĩ
ĠáŀĤ áŀĦáŀĸ
ĠáŀĤ áŀĩáŀŁ
áŀĩ áŀĶáŀī
áŀĬ áŀĩ
Ġáŀł áŀĳ
Ġáŀł áŀĬ
ĠáŀĽ áŀĩ
áŀģ áŀİáŀı
áŀĴ áŀľáŀĦ
ĠáŀĹ áŀĸáŀı
áŀ¢ áŀĳ
áŀĹ áŀħ
áŀĹ áŀĬ
áŀĵáŀĢ áŀĳáŀĵ
áŀĵáŀĢ áŀıáŀĢ
áŀĵáŀĢ áŀ®
áŀĶáŀŁ áŀĩ
áŀĲ áŀĸ
áŀĲ áŀĤ
áŀļáŀĢ áŀĶáŀı
áŀļáŀĦ áŀĦ
áŀļáŀĦ áŀĳ
Ġ( ).
áŀļáŀĶ áŀĤ
Ġt i
Ġt ab
Ġt ell
in oc
Ġa u
Ġa er
Ġa ds
ĠáŀĪ áŀĵ
he ra
Ġáŀ¯ áŀĴ
Ġáŀ¯ áŀıáŀĺ
áŀĤáŀĽ áŀİ
on itis
er on
Ġáŀ¬ áŀĽ
ĠáŀķáŀĦ áŀħ
áŀļáŀł áŀĦ
an Bet
Ġthe or
áŀĥ áŀľ
áŀĮ áŀĵ
áŀĮ áŀļáŀĢ
áŀĺáŀĢ áŀĸ
áŀĺáŀĢ áŀĬáŀİ
en ne
at en
at ri
ĠáŀĻáŀĢ áŀĩ
is ure
Ġs n
Ġs ang
Ġs tern
Ġs ets
Ġs aving
Ġs elling
Ġs ulph
es ian
es la
áŀĢáŀĺ áŀĤ
ar at
ar is
al em
Ġc oc
Ġc out
Ġc yt
it ime
it ting
or o
ĠáŁ£ áŁ©áŁ¡
ed ed
áŀļáŀı áŀĶáŀı
áŀļáŀı áŀĳáŀĽ
Ġáŀ± áŀģ
Ġáŀ± áŀ¢áŀī
áŀĢáŀļ áŀĵ
áŀļáŀĢáŀĶ áŀĢ
ĠáŁ¤ áŁ¡áŁ¦
ĠáŁ¤ áŁ¡áŁ¨
ĠáŁ¤ áŁ¡áŁ¢
ĠáŁ¤ áŁ©áŁ©
áŀļáŀĬ áŀĺ
áŀĻáŀĢ áŀħ
Ġin nov
ĠáŁ¥ áŁ¡áŁ¥
Ġáŀ§áŀĶ áŀī
Ġp ow
Ġp ests
Ġp oults
Ġf o
Ġf u
Ġf ine
Ġf ans
Ġf ief
Ġf ellow
Ġf ifty
Ġb ure
Ġb ile
Ġb right
Ġb und
Ġb ases
Ġb anks
Ġb aroque
ĠáŀĢáŀĵ áŀı
Ġd in
Ġd il
Ġd ose
Ġd uck
áŀļáŀħ áŀİ
áŁ¡ áŁ©áŁ¤
ou m
ou ri
ĠáŀħáŀĦ áŀļ
ĠáŀħáŀĦ áŀĤ
as g
Ġm eg
Ġm ice
Ġm arg
Ġm erg
Ġm iles
áŀĽáŀĦ áŀŁ
áŀĽáŀĦ áŀĶ
ro t
ro om
ro ot
ro ck
áŀĺáŀı áŀĶ
áŁ¥ áŁ¤
ĠC ro
ĠC ree
ĠC ai
ĠC ru
ĠC over
Ġto t
Ġl b
Ġl amp
Ġl ifetime
ĠS B
ĠS em
ĠS ave
ĠS oy
ĠS elf
ĠS ino
ĠS UP
ĠS ymb
ĠS aemaul
ĠáŀķáŀĽ áŀļáŀĶáŀļ
ĠT itan
ĠT Ã´ng
ĠT iÃªn
ĠT ouch
ĠT otal
Ġh us
Ġh ier
Ġh air
ĠáŁ§ áŁ¡áŁ¦
ĠáŁ§ áŁ£áŁł
ĠáŁ§ áŁ©áŁł
áŁ¦ áŁłáŁł
áŁ¦ áŁ¡
áŁ¦ áŁ¦
ac ia
ac iones
áŀĤáŀĺ áŀł
ĠáŁ¦ áŁ¡áŁ¡
áŀĸáŀĽ áŀĢáŀļ
om ites
am as
ĠáŀĸáŀĽ áŀļáŀĢ
ĠA w
ĠA tt
ĠA hm
ĠA rizona
et ics
et hel
ĠM r
ĠM ud
ĠM exic
Ġre verse
ĠáŀŁáŀł áŀĳ
oc ation
oc ate
oc arp
ĠR A
ĠR H
ĠR Z
ĠR os
ĠR inp
áŀĵáŀĶ áŀī
áŀļáŀĤ áŀĢ
ĠB ron
ĠB acter
ĠE r
ĠE u
ĠE le
ĠE ag
ĠE sp
ĠE iffel
Ġ2 16
ur m
ul as
ul ants
ĠP rom
ĠáŀĤáŀİ áŀĢ
áŀĵáŀĢáŀŁ áŀħ
id os
Ġ? =
im il
im pl
im ming
Ġáŀ§áŀĳ áŀĢ
ĠáŀĳáŀŁ áŀĸáŀĽ
ation ally
Ġg ast
Ġg ather
Ġg aining
iv eness
Ġe ating
ĠáŀļáŀĻ áŀĸ
ag ram
ag mat
ĠH el
ĠH ag
ĠH erm
ĠH immler
ow ed
ĠI v
ĠF at
ĠF urther
ĠF ollowing
ĠF rederick
ch ronic
áŀ§ áŀĶáŀĳ
áŀ§ áŀĳáŀĦ
Ġfor cing
áŀŁáŀľ áŀĬ
ce ment
áŀļáŀļ áŀĵ
em ploy
ist ing
ist ical
ĠG N
ĠL en
ĠL at
ĠL abor
ĠL aks
ĠL DP
ĠL EG
ĠáŁ¡áŁ¥ áŁ¡áŁ¡
Ġbe ar
ĠK y
ĠK on
ĠK ai
ĠK ey
ĠK obold
ĠK assapa
ĠáŁ¡áŁ¨ áŁ¡áŁ£
áŀĺáŀľ áŀĬ
ĠN T
ĠN U
ĠN ation
ĠN eg
ĠN atural
ĠN akh
ĠN etwork
ĠN azi
ĠN ISMO
ĠN evertheless
ĠN icholas
Ġáŀ« áŀĤ
ect rum
ang ered
ĠW here
ĠW ikipedia
ĠW ereBull
ĠW idow
ĠW raith
th rift
Ġst iff
Ġst roke
op ter
áŀį áŀĢ
Ġ19 02
Ġ19 09
Ġ19 22
Ġ19 06
áŀ¢áŀĵ áŀı
if ies
if iable
and al
ĠáŀŁáŀĳ áŀŁ
áŀĺáŀļ áŀĩáŀĵ
Ġan a
est ore
est inal
ĠáŁ¡áŁ¡ áŁ¡áŁ¢
ov a
ov arian
Ġáŀ¢áŀľ áŀħ
ĠáŁ¡áŁ¤ áŁ¡áŁ§
ant ine
ĠEvil K
ĠEvil V
ĠEvil Jack
ĠEvil Ven
qu ie
Ġde gre
ĠáŁ¡áŁ¦ áŁ£áŁ¥
ĠV R
ĠV in
ĠV acc
ĠV Æ°Æ¡ng
ĠV ichy
ill ary
ĠJ i
ĠJ in
ĠJ ay
ĠJ ens
ĠJ ose
ĠJ ohann
ak is
ial mente
áŁ©áŁ ©áŁ
ĠCar V
ĠCar d
ĠCh any
ĠCh air
áŀļáŀĲ áŀĻáŀĵ
Ġ3 20
Ġ3 65
Ġhe ight
Ġhe ating
ld er
áŀ¥ áŀħ
áŀĶáŀĬ áŀĳ
ĠO RT
ĠO LP
ĠáŀļáŀĲ áŀ¢
ĠáŀļáŀĲ áŀ²
áŀ« áŀĶáŀı
Ġsu icide
art ment
ĠU I
ĠU MN
áŀ£ áŀĹ
ĠáŁ¢áŁ¥ áŁłáŁłáŁł
pt ure
Ġsp aces
ous in
Ġch ose
Ġch alleng
Ġch ancellor
ew art
Ġform ing
Ġform ulated
Ġar ise
Ġar ises
Ġcan on
áŀļáŀĪ áŀļáŀĪ
ph p
ph ore
áŀĢáŀľ áŀļáŀł
pl asia
Ġ4 50
ĠTh ree
pe i
ĠáŀıáŀĶ áŀĺáŀĢ
oy ang
rit ten
Ã© es
Ġun iversity
ism s
ism an
à¸²à¸ Ķ
ĠSt ein
ĠSt reet
ĠSt rait
Ġint ensive
ip utra
Ġim ages
Ġsh ot
Ġ18 1
Ġ18 30
Ġ18 98
Ġ18 90
Ġ18 97
Ġ18 87
Ġen z
Ġen orm
ish n
ĠKh ou
out e
Ġ7 00
Ġcl im
Ġcl ay
ach ing
á» ©
Ġad equate
amb o
ĠY ing
ex p
ind o
Ġfe as
ens is
Ġpr iv
Ġag ency
red it
Ġinf rastructure
Ġpart ner
Ġtr ace
Ġper it
Ġper ceived
ĠAn y
à¸ģ à¸²à¸¢
Ġel d
ĠAs car
Ġqu iet
Ġcent ers
Ġcent ered
Ġcent rif
In ter
Ġj it
à¸£ à¸§
ĠPh ilosophy
ts er
Ġ10 80
Ġpre par
Ġpre gn
ade j
ons ored
ĠX ian
Ġro ost
Ġreg ister
à¸Ń à¸ª
à¸Ń à¸²à¸ģ
áŀıáŀī áŀī
Ġem ail
Ġout bre
ug en
Ġrec ip
Ġdif er
Ġind uction
Ġ20 2
ten uated
ĠZ ero
ĠZ hao
ĠZ uckerberg
Ġinv aders
12 9
Äģ ra
à¸ĩ à¸ĩà¸²à¸Ļ
Ġdef ault
aj a
Ġrem ark
ĠQ in
ĠQ ing
11 1
form s
áº ¯
Ġair borne
Ġinter pre
ĠInd ic
ĠáŁ£áŁ§ áŁ¤
Ġ0 23
Ġ12 2
Ġ16 8
ert y
ru ption
à¹Ģà¸ Ħ
Ch ickens
ĠáŁ¤áŁ¥ áŁ¦
ĠSoda B
Ġdec line
Ġdec lar
ĠSh in
ĠSh an
Ġacc ent
ĠRe ference
Ġob vious
Ġ11 4
Ġ11 5
Ġexp ect
à¸Ļà¸ §
Ġass ass
Ġass ert
kh un
Ġent ertain
ĠáŁ¤áŁ£ áŁ¤
ĠáŁ¦áŁ¢ áŁł
ĠáŁ¦áŁ¢ áŁ¢
ĠáŁ¦áŁ¢ áŁ¨
.) ]
ĠáŁ¤áŁ¤ áŁ¥
ĠáŁ¤áŁ¤ áŁ¤
Ġsc enes
Ġmon aster
Ġmon opoly
ĠáŁ¨áŁ¨ áŁł
ĠáŀŁáŀľ áŀĵáŀĢáŀĺ
ĠáŁ¡áŁ¨áŁ¨ áŁ£
Ġsupp lied
olv ing
áŀŁáŀł áŀĤáŀĺ
ash i
ash irs
ĠSp read
elf ast
201 1
201 5
ĠáŁ¤áŁ¨ áŁ£
ĠáŁ¦áŁ¥ áŁ§
Ġcol ors
Ġwar n
ĠáŁ¥áŁ¤ áŁ£
man uel
ĠáŁ¥áŁ¢ áŁ¥
ophy ta
ĠáŁ©áŁ¤ áŁ¨
ĠáŁ©áŁ¤ áŁ¦
Ġend ing
ĠáŁ¥áŁ¦ áŁ¡
Ġinst all
Ġinst alled
ĠáŁ¥áŁ£ áŁ¥
ĠáŁ¥áŁ£ áŁ£
ĠáŁ¥áŁ£ áŁ¤
ĠáŁ¥áŁ¨ áŁł
ĠGerm ans
ek o
Ġra ids
Ġra ising
ta ic
Ġ25 2
ĠáŁ¤áŁ¦ áŁ¦
ĠáŁ¡áŁ¨áŁ¥ áŁ¥
ĠáŁ¡áŁ¨áŁ¥ áŁ§
Ġed itors
ĠIs an
Ġrep rod
ien na
ĠáŁ¡áŁ¥áŁ¢ áŁ¦
ĠTr uth
Ġcar riers
yl um
ĠOr der
pos ing
ĠÃ Ĳ
áŀĵáŀĢáŀ¢ áŀľáŀı
ĠPl at
Ġret arded
lo om
to ine
ĠFor ces
Ġstr anded
Ġlow est
Ġlow ered
ĠáŁ§áŁ§ áŁł
Ġref ers
ĠáŁ¡áŁ¤áŁ£ áŁ§
Ġdet ail
rent ice
Ġrequ est
Ġterm ed
Ġnational ist
ĠSu z
Ġhead s
Ġhead ed
rac ellular
pr int
Ġhelp s
Ġhelp ing
ĠSc ot
Ġmin im
ĠEx t
ĠáŁ¡áŁ§áŁ¨ áŁ¨
Ġsupport ing
Ġoper ated
ĠJohn son
Ġdem ol
Ġdem ocratic
ĠCl inton
ĠEn v
Ġorig inated
ĠCarH yundai
Ġcour ts
ilis k
Ġident ical
ĠEl ise
ĠEl izabeth
Ġconf ig
Ġconf irm
Ġtemper ing
Ġexper t
Ġrest ore
Ġfin ite
ĠáŁ¡áŁ¥áŁ¥ áŁ¨
Ġsuccess ive
Ġconsum e
ĠPol it
ĠáŁ¡áŁ§áŁ¦ áŁ£
Ġphys ic
Ġphys ician
áŀĵáŀĢáŀŁáŀĺ áŀĤ
ĠáŁ¢áŁłáŁ¦ áŁ¦
Ġstat ements
Ġexpl ained
Ġkill ing
ĠUN TAC
áº¡ o
Ġtur b
occ id
Ġback wards
Ġhistor ically
Ġland sc
Ġ196 6
Ġ196 7
Fran k
Ġå ®
Ġplay wright
Ġrepresent ing
ĠSal amander
Ġshort ly
OR T
cl iff
Ġperson ality
Ġadv anced
Ġrev enues
Ġvis itors
Ġdev ast
ĠáŁ¡áŁ¨áŁ¢ áŁ¡
ĠáŁ¡áŁ¨áŁ¢ áŁ¤
Ġabs orption
ãĢ ģ
ä¸ Ģ
Ġindepend ently
ĠPen insula
Ġge ese
Ġey el
Ġinit iated
Ġsignific ance
áŁĴáŁĴ áŀ¸áŁĴ
Ġdiff use
echan ical
Ġdiet ary
Ġconv uls
ĠNS F
Ġenc yclop
PA NET
PA LA
ĠIndoch inese
Ġeduc ational
Ġregard less
ĠChe y
ĠPer l
ĠáŁ¡áŁ§áŁ¤ áŁł
Ġfind ings
Ġread y
ĠBer keley
Ã§ ais
ify ing
Ġmem e
asc ular
Ġconcept ual
Ġphot ographic
Ġphot ographs
Ġviol ent
ĠCa uda
ĠEvilD ire
ĠEvilD ark
ĠMag ellan
Ġsurv ey
Ġconstit ute
Ġran ks
Ġimpro v
äº º
Mah ayana
Ġpred icate
ĠIM PALA
Ġenlarg ement
Äĥ k
åľ ĭ
áŁĴáŁĤ áŀ¾
ĠEvilG iant
Ġconsist ed
Ġoccup ation
Ġsat isf
Ġrequire ment
struct ural
Ġsix th
Ġhold ing
ĠVi eng
Ġlook ing
à¹Ĥ à¸Ķ
Ġemploy ment
ĠBu ff
ulk anBet
Ġexc av
Ġexc ell
Ġembry onic
Ġsil k
agg a
agg ots
à» Ħ
à» į
ĠCam aro
Ġsaf ety
ĠChristian ity
ĠArch ae
ser ies
Re al
Ġcreat ures
Ġing estion
Ġpull orum
Ġreach ing
ĠInter ior
Ġmot or
Ġnerv es
Ġvill ages
ĠNor wegian
ĠEvilB ugbear
Ev en
å® ī
å® ļ
rel ated
Ġadop t
ĠSk eletal
ĠBen jamin
ĠPra krit
Ġassum ption
Ġassum ptions
å¤ §
èĢ Į
éĥ ¨
éĥ İ
Ġacqu ired
Ġfundam ent
Ġfr ust
Ġlab our
ĠSim ilar
ĠTem ple
ĠTem plate
Ġprofess or
Ġhourglass es
Ġwr ong
Ġpsych ological
ĠGaul le
Ġempt y
áº¿ n
ĠPhilipp e
ä¾ Ĩ
Ġfran ca
ĠSpe ed
Ġemerg ence
ĠPhan om
ĠSodaC herry
gr oup
ĠMot or
ĠAnt ar
Ġcool ing
ĠFrancis co
word press
Ġpap ers
ĠEchinococc osis
ĠLib eration
Ġartic les
Ġcompos ers
ĠCP K
ĠAR PANET
Ġreve al
Ġrat io
oxic osis
Ġphenomen a
ĠNob le
blog spot
Ġerr or
ĠCN N
Ġhyper trophy
ĠWork ers
Ġstream s
éļ Ĩ
onym ous
ĠAre a
Ġmetab olic
==== ====
Ġsubc linical
Ġbelong ing
ĠEC MA
ĠEM U
ĠFer dinand
Ġvary ing
Ġexamin ation
Ġreserv oir
Ġthr one
ĠSodaF anta
Ġaccur ate
Ġpreserv ed
ophyll um
å· Ŀ
Ġcoup le
icard itis
Ġinsectic ides
ĠAdult s
sen al
èĪ Ĭ
Ġtouch down
Ġvert ically
Ġancest ry
Ġinfest ation
ĠProfess or
Ġexplicit ly
è¶Ĭ åįĹ
ĪĴ "
Ġcin ema
ĠRen Ã©
Ġsubm itted
Ġobsc ura
Ġextinct ion
Ġpronunci ation
App le
PN LF
Ġsleep iness
Ġbodhisatt va
Ġmention ed
ĠUnd ong
Ġcommit ment
Ġsubstant ial
Ġnewsp apers
Ġantis em
ç¦ ı
ĠRay mond
ĠEvilRo ach
Ġglob ally
Ġpropag anda
Ġhorizont al
Ġincorpor ated
Ġcateg ories
Ġliv estock
Ġkh mer
Ġleuc osis
àºĶ àº
ĠMaur ice
spe aking
áŀĩáŀĻáŀľ áŀĴ
Ġsen ior
Ġthym us
Ġcontrad ict
Ġcondemn ation
ĠBarb arian
Ġpalab ras
Ġmathematic ian
Ġveloc ity
Ġmunic ipal
Hin omaru
Ġmott led
ĠBant u
adine jad
ĠFoot ball
ĠAspergill us
Ġleuk osis
ĠProgress ive
ĠBrahm ashirs
ĠnÃºmer o
ĠRonal do
Ġortog rafÃŃa
Ġdivor ce
ĠCaill iau
éİ ®
ethel ess
ĠRinp oche
ĠNakh on
ĠEvilJack al
Ġdegre es
ĠUMN O
Ġentertain ment
ĠBrahmashirs ha
" ;
' d
) [
- ]
/ ,
2 10
? âĢĿ
B B
B al
B rit
B inh
C S
C ent
C ur
C la
D S
D on
D ec
D ark
E E
F F
F acebook
F resh
F lies
H T
H is
H ar
H Ãł
K S
K iÃªn
L O
L ater
L uang
M ag
M ind
N Y
N ic
O A
O l
O lig
P ublic
P ierre
Q ÄĲ
R ed
R estore
S ir
S un
S ri
S outh
S ee
S econd
T H
T on
T re
T hai
T EG
U B
V A
V B
V R
Z X
] "
a ac
a res
a ire
b les
b urn
b iting
b irth
c odice
c iones
c ambodia
d isc
d rying
e z
e ons
e ung
f ast
f ields
g eneral
i ants
k al
k it
k ae
k ins
l ev
l os
l ass
m as
m id
m ain
m are
m und
m aggots
n is
n em
p res
p son
r ical
r age
r Ã¡
r Ä«
s u
s ar
v re
v id
w u
w on
w olf
w etting
y ou
y ard
z antine
© Ĩ
« ĺ
» į
Â ²
Î µ
Î º
Ð ½
Ø ¨
à ¯
à µ
å ±
å ĭ
æ Ģ
æ ĵ
æ ĻĤ
ç §
è ¦
è ı
è »į
é ł
é Ĥ£
Ġ á
Ġ ï
Ġ ect
Ġ à¸ģ
Ġ à¸Ń
Ġ à¸Ķ
Ŀ ¤
áŁĴ áŁģ
áŀ¶ áŁģ
áŀ¶ áŁī
áŀļ áŀļáŀĶ
áŀĵ áŀĻáŀľ
áŀĵ áŀİáŀĽ
áŀĢ áŀĻáŀĺ
áŀĢ áŀķáŀĽ
áŀı áŀĶáŀŁ
áŀı áŀĻáŀŁ
áŀı áŀļáŀľ
áŀ· -
áŀĽ áŀĺáŀĵ
áŀĻ áŀĸáŀŁ
áŀĺ áŀļáŀł
áŀĺ áŀĸáŀŁ
áŀĺ áŀļáŀĽáŀĢ
áŀĺ áŀļáŀıáŀĢ
áŀ» >
áŀŁ áŀĶáŀŁáŀĺ
ĠáŀĶ áŀĳáŀĵ
Ġáŀĵ áŀĺ
Ġáŀĵ áŀģ
Ġáŀĵ áŀļáŀŁ
Ġáŀĵ áŀľáŀĵ
Ġáŀĵ áŀĻáŀĽáŀĢ
áŁĨ [
ĠáŀĢ áŀĤ
ĠáŀĢ áŀĦáŀĶ
ĠáŀĢ áŀ±áŀĵ
áŁģ áŀ¶áŁĩ
ĠáŀŁ áŀļáŀĢ
ĠáŀŁ áŀ±
ĠáŀŁ áŀľáŀĽ
áŀ¾ áŀ¶
Ġáŀĳ áŀħ
Ġáŀĳ áŀĬ
Ġáŀĸ áŀĻ
ĠáŁ Ĭ
áŀľ áŀŁáŀī
áŀ¼ áŀ¼
áŀ¼ áŁĸ
áŀ¼ âĢĿ
áŁĤ áŁĭ
áŁĤ áŁİ
Ġáŀ¢ áŀĶáŀĳ
áŀĳ áŀĤ
áŀĳ áŀļáŀŁ
áŀĳ áŀĵáŀĵ
áŀĳ áŀĻáŀĴáŀĺ
áŀĸ áŀļáŀĬ
áŀĸ áŀĺáŀłáŀĵ
áŀĤ áŀļáŀĩ
áŀĤ áŀ²
áŀĤ áŀĻáŀĢ
Ġáŀļ áŀ®áŀĢ
áŀī áŀ¡
áŀī áŀŁáŀĺ
áŀİ áŀļáŀĽáŀı
ĠáŀĤ áŀĥ
áŀĩ áŀ¡
áŀĩ áŀ¢áŀĦ
áŀĩ áŀĻáŀĸ
áŀĩ áŀĤáŀİ
áŀ¶áŁĨ áŁĨ
áŀ¶áŁĨ áŁĸ
Ġáŀģ áŀľáŀı
Ġáŀł áŀł
ĠáŀĽ áŀĶáŀħ
áŀĴ áŀıáŀĺ
ĠáŀĹ áŀļáŀİ
áŁı áŁģ
áŀ¢ áŀľáŀĽ
ĠáŀĻ áŀĺáŀĶ
Ġáŀķ áŀľ
áŁĲ áŀ»
áŀĹ áŀĹ
áŀĹ áŀİáŀĹ
áŀĵáŀĢ áŀļáŀĬ
áŀĲ áŀĶáŀĬ
áŀ»áŁĨ áŁĶ
Ġ( '
Ġ( [[
Ġ( **
áŀļáŀŁ áŀł
áŀļáŀŁ áŀĹ
áŀļáŀŁ áŀĶáŀī
áŀĭ áŀĺáŀĢ
áŀĭ áŀķáŀĽ
Ġt ip
Ġt err
Ġt aste
Ġt elephone
Ġ) |
Ġ) âĢĿ
Ġ) Â»
in ite
in cess
in ement
Ġa p
Ġa head
ĠáŀĺáŀĢ áŀİ
ĠáŀĺáŀĢ áŀĬáŀĦ
he ating
he astern
Ġáŀ¯ áŀ¢
áŁĬ áŁħ
áŁĬ áŁĢ
Ġáŀ¡ áŀĢ
Ġáŀ¡ áŀĢáŀ¡
Ġáŀ§ áŀĹáŀĻ
on ut
er b
Ġáŀ¬ áŀľ
re ds
re asing
áŀĩáŀĵ áŀļáŀĦáŀĤ
áŀĺáŀĢ áŀŁ
en ge
áŀĺáŀİ áŀĶáŀļ
at an
at ag
at ern
at tered
ĠáŀĶáŀļ áŀļáŀĳ
Ġáŀ¢áŀĵ áŀŁ
ĠáŀĻáŀĢ áŀĸ
ĠáŀĻáŀĢ áŀĥ
ĠáŀĻáŀĢ áŀĺáŀĤ
is er
is an
is ition
is ans
is bon
Ġ" .
Ġs ight
Ġs ave
Ġs oy
Ġs oul
Ġs oup
Ġs ister
es c
âĢ į
al ia
al ph
Ġc overs
it ial
it rac
it ches
áŀĨ áŀĳ
or i
or ig
or ph
or ious
ĠáŁ£ áŁ©áŁ¢
ed es
Ġáŀ± áŀĸ
Ġáŀĩáŀĵ áŀ¯
Ġw el
ĠáŁ¤ áŁ©áŁ¡
áŀĽáŀĶ áŀİ
ic as
ic orn
Ġin ch
Ġin her
Ġin fer
Ġin put
Ġin let
Ġáŀ§áŀĶ áŀĻ
Ġp atch
Ġp ancre
Ġp ione
Ġp neum
Ġf on
Ġf est
Ġf ever
Ġf ue
Ġf ibr
Ġf estival
Ġf omites
Ġb ait
Ġb ilateral
Ġb ottom
áŀĶáŀĳ áŀĹ
Ġd ating
Ġd rawn
Ġd rafts
Ġd irty
el itis
ĠáŀħáŀĦ áŀĳ
à¸ Ł
as ang
Ġm g
Ġm es
Ġm ang
Ġm ite
Ġm ould
Ġm erc
Ġm ales
Ġm anner
Ġm akers
il i
il ing
áŀĽáŀĦ áŀĬáŀļ
ro g
áŀĺáŀı áŀľ
áŁ¥ áŁ¡
áŁ¥ áŁ¢
áŁ¥ áŁ©
ĠC y
ĠC ave
ĠC are
ĠC RT
ĠC aspian
ĠC ochinch
ĠC openhagen
áŀļáŀĽ áŀĵ
Ġto es
áŀļáŀľ áŀĩáŀĵ
Ġl ent
Ġl ect
Ġl ift
Ġl uong
ĠS G
ĠS v
ĠS ok
ĠS cient
ĠS even
ĠS ource
ĠáŀķáŀĽ áŀĴ
áŁ¤ áŁ©
ĠT ran
ĠT ext
ĠT yp
ĠT rip
ĠT ruong
áŁ¨ áŁ£
Ġh d
Ġh y
Ġh all
Ġh ope
Ġh idden
ĠáŁ§ áŁ©áŁ¢
ĠáŁ§ áŁ©áŁ¤
ac ent
ac ular
áŀĤáŀĺ áŀŁ
ĠáŀļáŀŁ áŀĶ
ĠáŀļáŀŁ áŀŁáŀī
áŁ§ áŁ£
áŁ§ áŁ¤
am om
ec ut
ec ess
ec onomic
áŀĢáŀĽ áŀĢ
us a
us k
ĠA I
ĠA ver
ĠA ERO
ĠÂ µ
ĠáŀŁáŀĺáŀİ áŀĢáŀĺ
ol m
ol an
ĠM ap
ĠM ult
ĠM Ã©
ĠM ike
ĠM ajor
ĠM icro
ĠM ycoplasma
áŀĢáŀĵ áŀļ
áŀĢáŀĵ áŀľáŀĢ
Ġre nder
Ġre aring
Ġre actions
Ġre jection
oc rates
os es
Ġáŀĭ áŀĢáŀĢáŀĺ
Ġn m
Ġn am
Ġn et
Ġn est
Ġn oun
ĠáŀĵáŀĤáŀļ áŀĽ
ĠR at
ĠR io
ĠR atch
ĠB ig
ĠB ible
ĠB urn
ĠB erg
ĠB rian
ĠB iÃªn
ĠB odhisatt
ĠE F
ĠE N
ĠE sc
ĠE ck
Ġ2 11
ur ne
ul i
ul er
áŀĢáŀı áŀħ
ĠP R
ĠP av
ĠP ell
ĠP ast
ĠP owers
ĠP sychology
id is
id al
id able
ig a
ir ce
ir able
áŀĻáŀĶ áŀĬ
ad as
ad atta
ĠáŀĳáŀŁ áŀĩ
Ġg ly
Ġg ut
Ġg un
Ġg ang
Ġg one
Ġg rave
ĠD ion
ĠD iet
ĠD eng
ĠD inh
ĠD epending
ĠD igital
ĠH E
ĠH in
ĠH udd
ĠH ob
ĠH uss
ĠH onda
ĠH ipp
ĠH ua
ĠH ume
ĠH oly
áŀ± áŀı
ĠI CC
ĠI rish
ut ation
ut ta
ĠF M
ĠF a
ĠF ixed
ĠF ocal
ĠF resh
ch y
ch ild
Ġfor th
áŀĭáŀĢ áŀĹáŀĳ
ce ans
áŀĶáŀļáŀĺ áŀĵ
un ion
st age
st atus
ist ocene
ist omat
áŀħáŀļ áŀĵ
áŀľáŀĽ áŀĹ
ĠG il
ĠG ent
ĠG ust
ĠG oblin
Ġcon ception
Ġcon ceived
ĠL um
ĠL ink
ĠL iter
ĠL anna
ĠL ady
ĠL aden
ĠL icense
Ġáŀ£ áŀĢ
ĠáŁ¡áŁ¥ áŁ¡áŁł
ĠK he
ĠK il
ĠK id
ĠK art
ĠK ah
ĠK illing
ers field
ra zy
ĠN ang
ĠN ature
ĠN anth
th ritis
Ġst ain
Ġst ore
Ġst orm
Ġst ones
Ġst atic
Ġst unt
Ġst aff
op ing
áŀį áŀı
áŀĦáŀļáŀĢ áŀĺ
Ġ19 0
Ġ19 19
Ġ19 16
Ġ19 29
Ġal ter
Ġal ien
Ġpro claim
if iers
Ġáŀ¯áŀĢ áŀľáŀħáŀĵ
and in
and es
Ġáŀª áŀ¯áŀĦ
ĠáŁ¡áŁ¡ áŁ¡áŁ¥
ĠáŁ¡áŁ¤ áŁ¥áŁł
ĠáŁ¡áŁ¤ áŁ£áŁł
uc cess
ab i
ab y
ab out
ab ling
Ġde br
ĠV ick
ĠV VND
ĠV incent
ĠV ienna
ĠV ulkanBet
01 0
áŀļáŀĹáŀĸ áŀĢ
ess ions
ak y
ak kh
end o
Ġ= =
ary otic
rom ycin
ap il
ment ation
ĠCh amb
ĠCh ao
ri ev
ĠáŁ¡áŁ§ áŁ©áŁ©
Ġhe m
Ġhe ter
Ġhe ated
og ical
og ony
og ether
áŀ¥ áŀĴ
Ġr ang
Ġr ational
ĠO m
ĠO ocysts
ĠO bserv
Ġat roph
ost rid
Ġsu fij
ĠU RL
ell er
ĠáŁ¢áŁ¥ áŁ¡áŁ¥
Ġsp ong
Ġsp inal
Ġsp illed
Ġsp oke
ous se
Ġch at
Ġch ant
Ġch ap
Ġ... ..
ast ra
ast icism
The se
Ġar ist
Ġwor ship
áŀļáŀĪ áŀļ
pl er
pl an
Ġdis aster
áŀıáŀķáŀĽ áŀī
ĠTh rough
ĠTh Ã¡
ĠTh Æ¡
ber wolf
Ġse at
Ġse ized
Ġse asons
Ġse ptic
rit o
Ã© c
Ã© rie
à¸²à¸ ¨
ĠSt ation
ass an
Ġint ention
Ġint elligence
áŀĦáŀ¢ áŀĹ
uct ive
Ġim ag
Ġsh ip
Ġsh ips
Ġen f
ep ers
ĠáŁ¥áŁł áŁ¢
ĠKh am
out ube
Ġcl ients
lud e
ach im
ach lor
á» ³
ĠY ear
ack age
ind ly
ind ex
Ġfe at
Ġother wise
à¸Ļ à¸ģà¸²à¸£
ĠFran ks
Ġcons ervation
Ġag ed
Ġcomp ens
áŀ§áŀĶ áŀĻ
Ġinf ra
Ġph ases
ĠEvilL ich
---- ----
Ġ8 9
Ġpart ially
Ġtr imming
Ġper fect
áŀľáŀħ áŀĽ
áŀļáŀĺáŀĢ áŀł
ĠAn them
ĠAn ti
Ġ14 5
Ġ14 7
Ġel ite
port ant
Ġj ungle
à¸£ à¸£
ĠPh on
ĠPh ong
ĠPh Ãºc
enc ing
we i
Ġpre val
ĠáŀĤáŀļ áŀ§áŀĶ
te j
Ġpe aks
à¹Ģ à¸Ļ
ĠHe id
ĠHe alth
Ġknow ing
ĠX P
ĠX u
Ġro se
à¸Ń à¸Ńà¸ģ
àº «
àº »
àº Ń
Ġem press
Ġrel uct
Ġrel ief
row ser
Ġout post
ĠAr al
ĠAr ound
ĠAr juna
Ġtw ice
Ġtw elve
oph on
Ġover th
Ġrec over
Ġind ex
Ġind irect
Ġind ÃŃ
ĠZ hu
Ġinv asions
Ġatt ended
Ġatt ributed
Ġatt itudes
áŀļáŀĢáŀĶáŀļáŀĶáŀļ áŀļáŀĢáŀŁ
ĠáŁ©áŁł áŁ¡
ĠáŁ©áŁł áŁ£
ĠáŁ§áŁł áŁ¡
ĠáŁ§áŁł áŁ¢
ĠáŁ§áŁł áŁ¦
ĠáŁ¡áŁ¨áŁ¦ áŁ©
ĠAl b
à¸ĩ à¸Ļ
Ġam ph
Ġam pl
Ġdef ines
rib ute
ĠCom mercial
Ġoccur ring
Ġrem ar
anc ia
Ġpol ysaccharides
ral e
áº ¥
ĠáŁ£áŁ¨ áŁ§
lin es
ĠDragon Pure
Ġ17 89
Ġdi pping
Ġdi aspor
Ġdep r
Ġac know
Ġ12 4
ĠáŁ¤áŁ¢ áŁ¤
ĠáŁ¤áŁ¢ áŁ¦
à¹Ģà¸ ĭ
Ch Ã¢
Ġ15 7
ĠPro to
ĠSh ar
Ġcall s
Ġacc used
Ġáŀ§áŀĶáŀŁ áŀĦ
inh o
à¸¢ à¸Ļ
Ġob ey
ĠáŁ¡áŁ¥áŁł áŁ¢
Ġmod ified
Ġ197 8
à¸Ļà¸ Ĥ
Ġdist urb
Ġresp ected
Ġass ess
ĠáŁ¤áŁ£ áŁ¨
ĠáŁ¦áŁ¢ áŁ¥
ĠáŁ¦áŁ¢ áŁ£
ĠáŁ¦áŁ¢ áŁ©
aw s
aw ah
ĠáŁ¤áŁ¤ áŁ¨
à¹Ħ à¸ķ
Ġsc hem
Ġman ip
und ant
Ġco herent
ĠáŁ¥áŁ¥ áŁ¥
Ġimp rison
201 2
ĠBe ach
ĠáŁ¢áŁ¥áŁł áŁ¥
amin ated
ĠáŁ¤áŁ¨ áŁł
ĠáŁ¦áŁ¤ áŁ¢
Ġcol our
Ġcol oured
Ġcol umn
ĠCon n
Ġtem por
ĠáŁ¥áŁ¤ áŁ¡
ĠáŁ¥áŁ¤ áŁ¤
rat ors
ĠáŁ©áŁ¤ áŁ¥
ĠGT I
onom y
ced rake
ĠáŁ¥áŁ£ áŁ©
ĠáŁ¥áŁ¨ áŁ¨
ĠáŁ©áŁ¡ áŁ¨
ĠáŁ©áŁ¡ áŁ¦
Ġequ ipped
Ġra w
Ġra il
Ġ13 2
ĠAnd rew
ĠAnd ela
ĠWorld wide
ĠáŁ¥áŁ§ áŁ§
Ġgo als
lish ing
Ġpublic ly
Ġdel iver
Ġser a
Ġser otype
Ġpers ons
sc ar
sc ribed
Ã¢ tre
à¸Ĺ à¸²à¸ĩ
ym n
Ġmo i
Ġmill ions
Ġcar b
Ġcar c
Ġcar rying
ĠáŁ¡áŁ¨áŁ¤ áŁ¥
ĠPal ais
Ġsk eleton
ĠOr ange
ĠÃ ł
ĠPr ice
ĠPr inc
ĠPr inter
arg o
ograph ies
à¸ļ à¸ª
ĠáŁ©áŁ¦ áŁł
med ia
ĠGu atem
ĠáŁ¡áŁ¥áŁ¦ áŁ¥
lo omy
ĠáŁ©áŁ¥ áŁł
ĠáŁ©áŁ¥ áŁ¢
ĠComm une
Ġpos terior
Ġide alism
ĠáŁ¡áŁ¨áŁł áŁ¡
Ġart work
Ġart illery
Ġloc ally
Ġtrad ed
Ġsuc k
Ġhouse hold
Ġdet ails
ĠáŁ§áŁ¢ áŁ©
Ġinvolv e
Ġcoll ected
Ġcoll aps
ĠAll ies
Th ree
Ġins uff
Ġhead quarters
ĠSc reen
Ġmin imal
ĠEx amples
ĠEx pense
ĠáŁ¡áŁ§áŁ¨ áŁł
Ġdr iven
Ġsupport s
Ġsupport ers
à¹ĥ à¸ķ
Ar istot
ĠáŁ¡áŁ¥áŁ¤ áŁ¥
ĠáŁ¡áŁ¥áŁ¤ áŁ¤
ĠáŁ¡áŁ¥áŁ¤ áŁ©
ĠáŁ¡áŁ¨áŁ£ áŁ£
ĠAd vent
ĠáŁ¡áŁ¤áŁ¤ áŁ¢
ĠáŁ¡áŁ¤áŁ¤ áŁ§
Ġless er
Ġ23 2
ĠáŁ¡áŁłáŁ¢ áŁ¥
Ġhost ing
ĠPe irce
Ġstand ing
app et
Ġexper iments
200 1
200 6
col legiate
à¸Ľ à¸£
ĠáŁ¡áŁ¦áŁł áŁ¡
ĠáŁ¡áŁ¦áŁł áŁ£
Ġsuccess ion
Ġeconom ics
ĠPol ar
ĠPol ice
ĠPol yn
Ġpass ing
Ġdiv ide
Ġval le
ĠRep resent
ĠáŁ¡áŁłáŁ§ áŁ¦
Ġstat istics
Ġexpl ain
ĠáŁ¡áŁ¡áŁł áŁ§
Ġamong st
ĠáŁ¡áŁ¤áŁ¥ áŁ¡
ĠáŁ¡áŁ§áŁ¥ áŁ¥
Ġgu ide
omm e
ĠáŁ¡áŁ¤áŁ¨ áŁł
AC Y
ĠáŁ¡áŁ£áŁ¦ áŁ£
ĠMore over
Ġliter ally
Ġrelig ions
Ġ196 9
Ġaffect ing
Ġmar row
ĠLou vre
Ġå ¤
ĠAb out
fl ies
Ġnear by
ĠBar on
ĠBar cel
Ġcrit eria
Ġpropos itional
Ġcal endar
Ġmemb rane
Ġemb argo
ino is
ĠSm all
Ġperson nel
Ġ2507 100
Ġpath otypes
ĠTw in
ĠáŁ¡áŁ¥áŁ¨ áŁ¡
ĠáŁ¡áŁ¥áŁ¨ áŁ¤
Ġsuff er
Ġstrong er
bl ue
ane ously
Ġlim itations
Ġcentral ized
Ġsouth west
ĠTai pei
Ġstart s
AT O
Ġcirc ulation
Ġcirc uit
Ġrece iving
Ġunivers ities
val ds
Ġsem antic
Ġfall s
mon er
ari ya
Ġvir ulent
ĠNe olithic
ĠThom pson
Ġattempt ing
Ġsett ing
Ġconv inc
Ġleng uas
ĠChe val
Ġfind ing
Ġdoc uments
ĠCont rol
pro of
ĠCE E
ĠCE O
Ad am
Or c
Ġwid th
Ġnecess arily
Ġpub l
Ġmem orial
Ġinteg r
Ġdefin ite
ĠTal ent
Ġsoil ed
Ġobserv ations
Spec ies
UN NY
ĠCarF iat
Ġphot o
ĠPhil ip
Ġearth qu
ĠCa ucasus
ĠCa esar
ĠMe anche
Ġcontamin ate
ĠTa enia
ĠGal en
Ġ01 2
ĠBr un
con os
ĠHigh way
Ġphilosoph ies
Ġpred ators
ĠChen g
sk ara
åľ ¨
Ġvol unte
Ġvol umes
ĠEvilG oblin
Ġpa rent
Ng Ã´
Tr á»ĭnh
Ġwild life
Ġhatch ing
ĠRec ord
Ġbi ological
ĠVi hear
Ġder iv
ĠCan on
à¹Ĥ à¸ķà¸£
åħ ¬
Ġdro it
Ġdoctr ines
Pe ople
Qu ality
Ġill ness
Ġachiev ement
ĠKamp ong
Ġflu orescent
Con f
ĠMat hem
çİ ĭ
Ġà¸ŀ à¸¥à¹Ģà¸Ńà¸ģà¹Ģà¸Ľà¸£à¸¡
Bl ack
ias is
ĠDes ktop
ĠInf lu
Ġnothing ness
ĠProt otype
Wh ite
vi ews
Ġoed ematous
Ġtrib es
ĠBern ers
Ġconn ected
ĠGeorg ia
Ġir rit
Ġsut ta
Ġdrink ers
Ġbran ches
ĠSE A
ĠSha o
ĠAP EC
ĠReg iment
ĠPand ava
Ġweek ly
Ġinstit ution
war f
éĻ ½
ĠMill er
Ġconqu est
ĠKe pler
phal itis
áºŃ p
Ġsettlement s
Be at
Ġprofess ion
Ġcomment aries
Ġcompar ison
isp ens
Ġpsych ology
Ġtown s
Ġcritic ized
Ġburs al
Ġdisp atched
Ġsecret ary
æĸ ¼
áŀĢáŀĶáŀĳ áŀĹ
Ġpig eons
Ġbound ary
ĠPrem ium
ĠVal ley
Ġnom inal
ĠHar ris
Ġdisappe ared
Ġsex ual
Ġencour aged
Ġcheck ed
mark et
Ġseg ments
Ġburn ed
Ġnob les
ĠLight ning
Ġserious ly
Hen ry
Ġlear n
Ġlear ned
Ġhon or
omy elitis
omon iasis
Ġbeg un
ĠYu en
Ġtransc ribed
Ġcook ed
Æ°á» Ľ
Ġaim ed
Ġreve als
igm und
Ġweap on
Ġdepart ment
Ġdut y
Ġmax imum
ĠTor valds
Ġveget ables
Ġchlor oplasts
ĠStud y
Ġerr ors
Ġcred ited
Ġdram at
Ġhund reds
ĠRad io
ĠFour th
Ġlegend s
Ġdemon st
ĠDef ence
Ġsufficient ly
Ġingred ients
Sy philis
rif ice
âĢĺ âĢĺ
ĠRom antic
ĠIN TEG
Ġinstruct ions
Ġdur ation
Ġles ion
ĠMes o
ĠPale ocene
ĠDiv ision
ĠGia p
Ġexamin ed
ĠAnton io
ĠAdd itionally
Ġcease fire
Ġdog s
ĠAcc ess
Ġnav y
Ġexcess ive
âĶĢâĶĢâĶĢâĶĢ âĶĢâĶĢâĶĢâĶĢ
à¸ĵà¸° à¸Ĺ
æĪ Ĳ
Ġcompet ition
Ġparliament ary
Ġinsectic ide
Ġpict ures
amph istomat
ĠAp ache
oct urne
Ġseas onal
Ġsynov iae
ĠContin ue
swe ep
Ġmel ody
ĠTre pon
Ġnemat odes
ĠBall on
othe c
ĠHard ware
ĠLy on
ĠThÃ© Ã¢tre
Ġabst ract
ĠMarsh all
Ġprompt ed
Ġdoub t
larg est
Ġcyan otic
edd ed
ĠMol iÃ¨re
ĠComput er
Ġinterv als
Ġexistential ism
ynam ic
Ġidi oma
Ġsist ema
rov irus
ĠDar win
ĠId ent
Ġchol era
Ġtransfer red
Ġbless ings
à¹Ģà¸Ĺ à¸¨
Ġextens ively
ĠAbh id
Ġsatell ite
Ġcrim inal
Ġmir ror
ĠSund ay
ĠWed g
Ġexud ate
á»ī nh
Ġperspect ive
Ġsomew hat
Ġreinfor ced
Ġgerm ination
Ġkern el
ĠStaph yl
ĠLeon ard
Labor atory
Occ urrence
Ġlexic on
ĠGord on
ĠNey mar
Ġproport ion
ĠCardam om
Ġguerr illa
Ġopin ion
Fer dinand
ket ball
Î¯ Î±
çĤ º
Ġlun ar
ĠTex as
ĠAx is
ĠLh ote
ĠLibr ary
Ġvass al
Ġcircum stances
Ġgallinar um
Ġflatten ed
Leng khun
è´ ¡
Ġille gal
ĠCree per
ĠSUP RA
Ġhus band
ĠAhm adinejad
employ ment
ĠLEG ACY
ĠKhou ang
Ġperit onitis
à¸Ńà¸ª à¹Ĥà¸ķà¸£
ĠSuz uki
Ġconfig ur
áŁĴáŁĴáŀ¸áŁĴ áŀ»
Ġect opar
itrac in
Ġpancre as
Ġdebr is
Ġatroph ied
ostrid ium
Ġinsuff icient
ĠBarcel ona
ĠMeanche y
ĠINTEG RA
! !
$ /
) ",
) ...
, [
. >
/ "
/ )
/ ?
0 80
0 70
1 19
1 10
1 18
A z
A th
A cc
B an
B acter
B ook
C I
C T
C he
C or
C IA
C IN
C lean
C omp
C áº§n
D an
D ame
E W
F T
F in
F ore
F irst
G I
G reen
G ouv
H owever
H oly
I ran
J ust
J PG
K al
K amp
L and
L ib
L Ã½
M H
M W
M in
M at
M od
M ain
M ars
O K
O b
P al
P art
R od
R ush
S el
S im
S ah
S cript
S ource
S uper
S QL
S Ãłi
T M
T a
T en
T ha
T ravel
U L
V C
V ictor
V Ä©nh
W est
W ell
W estern
Y ellow
Z en
b ro
b lic
b au
b ee
c u
c as
c ode
c Ê°
d et
d hat
e ol
e ffective
f ur
f ix
f ront
f aces
f ini
f inder
g iv
h y
h ou
h ose
h ina
h ima
j j
j oon
k l
k am
k ow
k raine
l ia
l Ã©
l ings
l ob
l anguage
m Ã¢
m aster
n l
n n
n ol
n ib
o z
o ks
o oth
o ften
p an
p age
p ass
p ram
q f
r ally
r up
s r
s ay
s ky
t as
t ente
t itle
t remors
u f
u est
u ate
u pt
u ations
u its
u ient
v in
v ol
v est
v ador
w en
w atch
x t
x ovirus
y u
y er
y right
z u
¡ ķ
© ng
Ã ¦
Å Ń
Å ©ng
Ï Ĩ
ä ¿
å İ
å ĸ
æ ¸
æ Ĺ
ç ¸
ç ī
ç ¡ķ
è ¨
è ĭ
ê µ
Ġ ×
Ġ à¸Ĺ
Ġ à¸Ī
Ġ à¹Ģà¸Ľ
Ħ Ø
ħ Ĵ
Ľ à¸£à¸°
ł Ł
áŀ ¦
áŁ ķ
áŁĴ áŁĮ
áŁĴ áŁĶ
áŀ¶ áŁı
áŀĦ áŀļáŀŁ
áŀĦ áŀĺáŀĢ
áŀĦ áŀĽáŀĦ
áŀĦ áŀ§áŀı
áŀĢ áŀħáŀĢ
áŀĢ áŀĤáŀı
áŀĢ áŀŁáŀĽ
áŀĢ áŀŁáŀı
áŀĢ áŀĲáŀī
áŀı áŀĶáŀı
áŀı áŀļáŀĻ
áŀı áŀ£
áŀĽ áŀļáŀĢ
áŀĽ áŀļáŀĶ
áŀĽ áŀĩáŀĵ
áŀĽ áŀľáŀĢ
áŀĽ áŀĢáŀĵ
áŀĻ áŀĵáŀĢ
áŀĻ áŀĶáŀı
áŀĻ áŀĶáŀĳ
áŀĻ áŀĶáŀħ
áŀĺ áŀĽáŀı
áŀ» -
áŀ» áŀ»áŁĩ
áŀ» âĢĿ
áŀŁ áŀĶáŀĦ
áŀŁ áŀķáŀĽ
áŀŁ áŀĢáŀĤáŀłáŀĶáŀı
áŀĶ áŀĶáŀĵ
áŀĶ áŀĢáŀĽ
áŀĶ áŀĢáŀĵ
áŀĶ áŀĽáŀĢ
áŁĭ áŁħ
ĠáŀĶ áŀļáŀŁ
ĠáŀĶ áŀļáŀİ
ĠáŀĶ áŀŁáŀĵ
ĠáŀĶ áŀľáŀļáŀİ
ĠáŀĢ áŀıáŀĺ
áŁģ áŁĦáŁĩ
áŁģ âĢĿ
Ġáŀĺ áŀĶáŀĳ
ĠáŀŁ áŀħáŀĢ
ĠáŀŁ áŀļáŀĸ
ĠáŀŁ áŀ²
ĠáŀŁ áŀĻáŀĵ
áŁĦ áŁĨ
ĠáŀĬ áŀľ
áŀ¸ áŁĶ
ĠáŁ Į
áŀľ áŀļáŀĬ
áŀľ áŀĸáŀĽ
áŀľ áŀ¢áŀĵ
áŀľ áŀļáŀľáŀĦ
áŀħ áŀľáŀı
áŀħ áŀļáŀħ
áŀħ áŀļáŀĽ
áŀħ áŀ¢áŀĵ
áŀħ áŀĻáŀŁáŀļ
áŀħ áŀ¢áŀĹ
áŁĤ ,
Ġáŀ¢ áŀļáŀĢ
Ġáŀ¢ áŀĢáŀĺ
Ġáŀ¢ áŀĶáŀħ
áŀĳ áŀĻáŀĢ
áŀĳ áŀŁáŀī
Ġáŀĩ áŀŁ
Ġáŀĩ áŀľáŀĢ
áŀĸ áŀļáŀĺ
áŀĤ áŀļáŀĶ
áŀĤ áŀľáŀĤ
áŀĤ áŀ®
Ġáŀļ áŀĽáŀĶ
Ġáŀļ áŀĽáŀĦ
Ġáŀļ áŀ®
Ġáŀļ áŀħáŀĽ
áŀī áŀĢáŀĶ
áŀī áŀĺáŀī
áŁħ ,
áŁħ .
Ġáŀı áŀĶáŀĳ
ĠáŀĤ áŀī
ĠáŀĤ áŀĲ
áŀĩ áŀĲ
áŀĩ áŀľáŀı
áŀĩ áŀĺáŀĵ
áŀĩ áŀĸáŀĽ
áŀĩ áŀłáŀı
áŀ¶áŁĨ áŁĪ
áŀĬ áŀķáŀĽ
áŀĬ áŀĹáŀĢ
ĠáŀĽ áŀī
áŀģ áŀī
áŀģ áŀ¡
áŀģ áŀıáŀĳ
áŀł áŀĿ
áŀĴ áŀĸáŀļ
ĠáŀĹ áŀī
ĠáŀĹ áŀļáŀı
ĠáŀĹ áŀľáŀĵ
ĠáŀĻ áŀľ
ĠáŀĻ áŀĺáŀĽ
áŀĹ áŀĴ
áŀĵáŀĢ áŀ¯áŀĳ
ĠáŀŁáŀĺ áŀĵáŀĵ
áŀĲ áŀĩ
áŀħáŀĢ áŀľ
ĠáŀĨ áŀļ
ĠáŀĨ áŀł
áŀļáŀŁ áŀı
áŀĭ áŀĺ
Ġt ar
Ġt it
Ġt ies
Ġt ong
Ġt ask
Ġt Ê°
in ous
in ning
in fectious
Ġa rom
Ġa ux
Ġa rose
ĠáŀĺáŀĢ áŀĵ
he on
he ap
he ts
Ġáŀ¯ áŀħ
Ġáŀ¯ áŀŁáŀļ
Ġáŀ¯ áŀķáŀĽ
áŀļáŀĺ áŀħ
áŀļáŀĺ áŀĶáŀĳ
Ġáŀ§ áŀŁáŀĵ
on ent
Ġáŀħáŀĺ áŀħ
Ġo u
Ġo vers
at as
at os
ĠáŀĶáŀļ áŀı
ĠáŀĶáŀļ áŀļáŀĲ
áŀĤáŀı áŀĶ
Ġáŀ¢áŀĵ áŀľ
Ġs i
Ġs end
Ġs ob
es que
áŀĢáŀĺ áŀĺ
ar ithm
al ine
al though
al ani
Ġc ages
Ġc rypt
it re
it am
it us
it ated
it als
it ives
or f
ed ge
ed eration
Ġáŀ± áŀ¢
Ġáŀ± áŀĢáŀī
áŁĬáŀ¸ áŁĸ
áŀĢáŀļ áŀĻ
ĠáŀļáŀĢ áŀĵ
ĠáŀļáŀĢ áŀĢáŀĽ
Ġw ore
Ġw ave
Ġw ire
Ġw itness
ĠáŁ¤ áŁ©áŁ¦
Ġáŀĺáŀł áŀŁ
Ġáŀļáŀĺ áŀı
áŀĻáŀĢ áŀı
áŀĻáŀĢ áŀ¢
áŀĻáŀĢ áŀĢáŀĺ
ĠâĢ ¢
ic os
ic hel
Ġin ability
ĠáŁ¥ áŁ¡áŁ§
Ġáŀ§áŀĶ áŀĶáŀĩ
Ġp ip
Ġp air
Ġp ushed
Ġf ib
Ġf ocal
Ġb ands
Ġb hav
Ġb rowser
áŀ¢áŀŁ áŀĦ
Ġd ated
Ġd ub
Ġd ull
Ġd ensity
áŀļáŀħ áŀĽáŀĵ
áŁ¡ áŁ¡áŁ¤
áŁ¡ áŁ©áŁ¥
ou g
el ian
el ves
as se
as ional
as par
Ġm ys
Ġm int
il st
il ted
áŀĻáŀŁ áŀĸ
ro ximately
ro conos
ĠC L
ĠC is
ĠC el
ĠC ab
ĠC linical
ĠC irc
ĠC atherine
áŁİ áŀ»áŁĩ
áŀŁáŀı áŀļ
áŀļáŀľ áŀĤ
áŀļáŀľ áŀĢáŀļ
ent es
ent ions
ent rop
Ġl ac
Ġl ice
Ġl ago
Ġl oud
ĠS ad
ĠS her
ĠS now
ĠS ages
ĠS amm
ĠS ulf
ĠS TI
ĠS ips
ĠS artre
Ġ1 30
ĠT ong
ĠT reatment
ĠT rav
ĠT Ãł
ĠT AX
Ġh an
Ġh orn
Ġh ills
Ġh olid
Ġh opes
ĠáŁ§ áŁ¡áŁ£
áŁ¦ áŁ©
ac in
ac an
ac us
ac cess
ĠáŁ¦ áŁ¡áŁ¤
áŁ§ áŁ¡
áŁ§ áŁ¢
áŁ§ áŁ§
am ous
áŀĢáŀĽ áŀĵ
us ing
us ive
us ually
us aya
áŀĵáŀĢáŀĶ áŀİ
ĠáŀĸáŀĽ áŀł
ĠA S
ĠA ud
ĠA ten
ĠA ND
ĠA GP
ĠÂ ¬
ol ia
ol ini
ol utions
ol inguistics
ĠáŀĽáŀĢ áŀĶ
et en
et ed
ĠM I
ĠM V
ĠM ice
ĠM ans
ĠM ix
ĠM oss
ĠM uch
Ġre n
oc o
oc ida
os yn
áŀľáŀļ áŀĵ
Ġn ine
Ġn uns
le ged
ĠR age
ĠR AM
ĠR ugby
áŀĵáŀĶ áŀļ
ĠB ry
ĠB ure
ĠB ey
ĠB la
ĠB oh
ĠB elfast
ĠB loom
ĠB UNNY
ĠE p
ĠE nd
ĠE EC
ĠE ocene
ĠE rnst
Ġ2 10
Ġ2 14
Ġ2 28
Ġáŀ¢áŀĢ áŀı
áŀģáŀİ áŀĢ
ul ary
ĠP ul
ĠP act
ĠP rop
ĠP ech
ĠP AP
ĠP oint
ĠP epsi
ĠáŀĶáŀĳ áŀĶáŀļáŀĺ
ig ara
im ens
im agga
áŀĻáŀĶ áŀĢ
ot am
ot ography
ad h
ad ic
ad ay
áŀŁáŀħ áŀİ
Ġg n
Ġg out
Ġg iant
Ġg lands
Ġg asping
Ġg athered
iv o
iv ities
Ġe urope
ĠáŀļáŀĶ áŀĬ
ĠD N
ĠD ed
ĠD art
ĠD ue
ĠD iá»ĩ
ĠD isk
ĠD hamm
ĠD ifferent
ag ua
ĠH um
ĠH ere
ĠH yd
ĠH uang
ĠH way
ĠH á»Ļi
ĠH igher
ow e
áŀ± áŀĶ
áŀ± áŀŁáŀĲ
ĠI R
ĠI gnan
ĠF T
ĠF ur
ĠF ast
ĠF inal
ĠF oo
ĠF ield
ĠF TO
ĠF ORD
áŀ§ áŀĬ
áŀ§ áŀĶáŀŁáŀĺ
od or
od ed
áŀĵáŀĢáŀĬ áŀĦ
áŀĻáŀĩ áŀĻáŀľáŀĺ
em al
em ed
em ia
un que
st ab
st ate
st ead
ist em
ay ed
Ġáŀ¢áŀĴ áŀĵ
um er
ĠG I
ĠG P
ĠG er
ĠG ard
ĠG overn
ĠG uy
ĠG la
ĠG inger
ĠG arden
ĠL im
ĠL oss
ĠL imited
ĠL Ã©g
ĠL asher
Ġbe ak
ĠK u
ĠK ers
ĠK ang
ĠK ings
ĠK az
ĠK ru
ĠK ids
ĠK omodo
ĠáŁ¡áŁ¨ áŁ¥áŁł
ĠáŁ¡áŁ¨ áŁ¡áŁ¢
ĠáŁ¡áŁ¨ áŁ¡áŁ¤
ra j
Ġv ul
Ġv oted
ĠáŀĹáŀĸ áŀ¯
ĠáŀĹáŀĸ áŀĬáŀĳ
ĠN A
ĠN gan
ĠN ettlethorn
áŀŁáŀĶ áŀĽ
ect ric
ang le
ĠW en
ĠW et
ĠW HO
Ġst ood
Ġst yl
Ġst raw
Ġst ele
Ġst rip
op otam
áŀĽáŀĺáŀĢ áŀļ
Ġ19 01
Ġ19 12
Ġal arm
Ġal phabet
Ġal leged
ĠThe ung
if er
Ġor n
av y
Ġáŀ¯áŀĢ áŀĸ
áŀıáŀĲ áŀĽ
Ġan at
est y
ĠáŀĵáŀĻ áŀĹ
ov abha
Ġáŀĺáŀļáŀİ áŀĴáŀĺ
ab by
ab lished
ab ahu
ĠEvil E
ĠEvil Orc
qu er
qu et
qu ess
ĠáŁ¡áŁ¦ áŁ¥áŁł
ĠV ice
ĠV ideo
ĠV III
ĠV ais
áŀĽáŀı áŀĶáŀı
ĠJ on
ĠJ ade
res hn
ain der
eg raph
eg ger
ak p
ak an
ap en
ap se
ĠCh ak
ĠCh ickens
ĠCh ancellor
ore n
ore nt
ri ker
ĠáŁ¡áŁ§ áŁ£áŁ¥
Ġhe ro
ld quo
og ens
ate ur
ical s
áŀĦáŀľ áŀħ
Ġr is
Ġr it
Ġr am
Ġr ub
Ġr ickets
ure lla
Ġat rophic
Ġat tenuated
ĠáŀļáŀĲ áŀĵ
our g
Ġy ourself
ĠU pon
ell osis
pp ed
ĠáŁ¢áŁ¥ áŁ¢áŁł
all ing
Ġsp ir
Ġsp here
Ġsp ont
Ġsp ices
Ġsp iral
Ġk g
Ġk arma
ĠáŁł áŁ£áŁ¥
Ġch rom
ĠIn g
áŀļáŀģ áŀĢáŀģ
Ġ... âĢĿ
Ġ% ,
áŀīáŀĳ áŀı
ast a
ast rian
ha zen
ĠáŁ¢áŁ¤ áŁ©áŁł
ĠáŁ¢áŁ¤ áŁ©áŁ¤
ib n
ib ular
ib ilities
Ġ]] )
Ġar te
ik Äģ
ph ys
áŀħáŀħ áŀĦ
mer ie
pl ace
ern ess
Ġ4 30
ĠTh ier
ĠáŁ¢áŁ¡ áŁłáŁł
ĠáŁ¢áŁ¡ áŁ¡áŁ¤
iz ong
áŀŁáŀĲ áŀĢ
cc oli
oy en
rit a
rit ion
Ã© r
Ã© ra
Ġun e
Ġun us
Ġun thrift
Ġall ies
ear th
ĠSt ore
ĠSt ars
ĠSt yle
ĠSt rateg
ĠSt riker
ust ion
Ġint ramural
Ġáŀļáŀıáŀĵ áŀŁ
ue z
ie ber
act ive
ĠáŁ¢áŁ¢ áŁłáŁłáŁł
ip kow
Ġim bal
Ġsh r
Ġsh out
Ġsh rim
Ġsh anks
Ġsh apes
Ġ18 41
Ġen for
ish an
ĠáŁ¥áŁł áŁ£
out s
Ġcl an
Ġcl ock
Ġcl oud
Ġcl othes
ord inates
á» į
Ġad j
Ġad vert
amb ang
amb oo
ĠY i
ĠY en
Ġcomm od
ex ist
áŀĵáŀĢáŀķáŀĦ áŀĬ
oll ah
oll ande
áŀĳáŀĢ áŀĢáŀĺ
El izabeth
Ġpr ivil
Ġag g
Ġag ree
ĠUn iversal
ll ab
ail ing
ail ability
ric ius
Ġdes irable
Ġper ipheral
Ġfl ows
áŀĢáŀ¯ áŀĢáŀĩáŀĵ
ĠAn ne
ys c
Ġel der
In s
Ġj our
Ġj aya
Ġle ague
ĠáŁ¦áŁł áŁ©
ĠPh ib
ĠPh ongs
ĠPh oen
Ġpre vention
19 99
19 26
Ġev il
ĠHe aven
ĠX V
ĠX ai
ĠX VI
Ġro w
Ġro ots
Ġreg iment
ann es
àº ½
Ġrel atives
are t
ĠAr g
Ġtw itter
Ġover t
Ġover come
20 6
Ġ31 2
Ġind igen
Ġ20 7
az a
az on
az teca
ten ance
Ġtrans fers
Ġtrans ovarian
ĠZ oro
att igara
ĠAl g
ĠAl t
ĠAl mond
Äģ g
Ġspec ifically
à¸¡ à¸łà¸²à¸©
Ġam mon
ke eping
orn o
aj o
Ġnum erals
Ġunder lying
Ġsub div
Ġsub ordinates
Ġáŀ§áŀŁáŀĹ áŀı
ĠKhm ers
oss us
Ġpol y
form ing
áº ·
Ġinter vention
Ġinter action
vent us
vent ions
Ġ17 2
Ġ17 5
Ġdi at
Ġdi agram
ĠMar a
ĠMar g
ĠMar ie
Ġdep op
Ġ12 6
Ġ16 5
Ġ16 6
Ġ16 7
Ġact s
ĠáŁ¤áŁ¢ áŁłáŁłáŁł
Ġdiffer ing
áŀĤáŀł áŀĺ
áŀĤáŀł áŀİ
Ġne uros
com plete
ĠáŁ¤áŁ¥ áŁ§
Ġ15 4
Ġ15 5
Ġ15 9
Ġdec lined
ĠSh u
Ġcall out
áŀģáŀļ áŀĩáŀĵ
Ġob lig
Ġ11 6
ĠáŁ¡áŁ¥áŁł áŁ£
Ġgovernment al
Ġexp ed
agn er
ĠáŁ¨áŁ¤ áŁ£
Ġass ign
Ġass emb
Ġass istance
ĠáŁ¦áŁ¢ áŁ¦
hes is
ingu istic
áŁ¡áŁ¨ áŁ¢
ĠáŁ¤áŁ¤ áŁ¡
ĠáŁ¤áŁ¤ áŁ§
Ġsc hed
ĠáŁ¨áŁ¨ áŁ¢
ĠáŁ¨áŁ¨ áŁ£
Ġprogram me
ĠCarM INI
ĠLe ave
áŀŁáŀł áŀĸ
und a
ĠPar liament
Ġgener ations
Ġgener ative
Ġgener als
ĠáŁ¥áŁ¥ áŁ©
201 3
ĠáŁ¢áŁ¥áŁł áŁ¢
Ġpar ade
ient o
ĠáŁ¤áŁ¨ áŁ¦
ĠáŁ¦áŁ¥ áŁ£
ock ed
áŀĶáŀĶáŀĳ áŀĶáŀĦ
Ġtem plates
Ġserv es
Ġserv ing
ĠáŁ¥áŁ¤ áŁ¨
Ġest e
Ġend angered
Ġwhat ever
ĠáŁ¤áŁ§ áŁ¥
Ġext ra
ĠáŁ¥áŁ£ áŁ¢
Ġbel ongs
ĠáŁ¨áŁ§ áŁ¤
ĠáŁ¡áŁ¨áŁ§ áŁ¥
tic os
Ã³ c
Ġequ ine
Ġra ise
Ġ13 3
Ġ13 9
Ġsm ooth
Ġ25 6
Ġeffect ively
." [
ĠáŁ¦áŁ£ áŁ¨
ĠáŁ¡áŁ¨áŁ¥ áŁ£
ï¼ ļ
ĠIs ab
25 9
rem ainder
ĠáŁ¥áŁ§ áŁł
ĠáŁ¥áŁ§ áŁ¢
ĠáŁ¥áŁ§ áŁ£
Ġcommun es
ÃŃ s
Ġser ologically
Ġconc urrent
An n
sc ale
sc ribe
à¤ ¦
à¸Ĺ à¸ĺ
ĠTr ung
ĠTr Ãł
ve e
ĠPr im
uk u
arg er
Ġret reat
ograph ical
Ġclass ification
umb ers
Ġpolit ically
ĠGu ide
ĠáŁ¦áŁ§ áŁ§
ĠComm ander
Ġorgan isation
ĠáŁ¡áŁ¨áŁł áŁ£
Ġcontin ents
Ġref use
ĠáŁ¡áŁ¤áŁ£ áŁ¢
Ġtrad ing
Ġcor on
Ġcor ps
Ġcor vee
Ġmed itation
ĠWar ren
à¸ª à¸¡
ĠáŁ¨áŁ¥ áŁ¤
uss ian
Ġleg horn
ĠáŁ¦áŁ¨ áŁł
ĠAll iance
Ġsoc ieties
Ġcomplet ion
rac ks
ĠSc an
ĠSc anner
ĠSc orpfeline
Ġmin erals
ush ing
ĠáŁ¡áŁ§áŁ¨ áŁ§
Ġyoung er
Ġoper ators
ĠGi Ã¡
ĠáŁ¨áŁ¢ áŁ¢
Ar tic
ĠEn ce
ĠáŁ¡áŁ¥áŁ¤ áŁł
IC EF
ĠáŁ©áŁ£ áŁ¢
ĠáŁ©áŁ£ áŁ¨
à¹ģ à¸«à¸Ļ
Ġcharacter ized
erc oid
ĠáŁ¨áŁ£ áŁ¥
ĠCarT VR
Ġshe ets
ĠPe am
app le
Ġword press
200 8
Ġrest ored
Ġrest aur
ĠáŁ¡áŁłáŁ¥ áŁ¢
ĠáŁ¡áŁłáŁ¥ áŁ¨
à¸Ľ à¸ģ
ĠáŁ¡áŁ£áŁ¨ áŁ©
Ġcomput ational
ĠÄĲ Ã¬nh
ĠPol ish
vers ely
ĠCol a
ĠCol or
ĠCol umbus
ĠTur quie
Ġpass ions
Ġdiv isions
Ġvacc inated
Ġpract iced
Ġphys iological
ĠáŁ¡áŁ¦áŁ¢ áŁ¡
ĠáŁ¡áŁ¦áŁ¢ áŁ¢
ĠáŁ¡áŁ¦áŁ¢ áŁ¨
ĠGerman ic
Ġfact o
Ġfact ions
ĠáŁ¡áŁ¥áŁ£ áŁ¨
Ġkill s
Ġgl uc
Ġgu er
Ġback ground
Ġ26 4
ĠáŁ¡áŁ£áŁ¦ áŁ¨
rad ing
ĠAugust in
Ġhistor ic
Ġmar ine
Ġplan e
Ġå į
EN G
áŀĵáŀĢáŀĲ áŀı
ĠNo am
roll ing
áŀļáŀĢáŀĬ áŀ¡
ĠáŁ¡áŁ£áŁ¤ áŁ¨
Ġlog arithm
ĠSer ge
ĠSal vador
Ġemb edded
Ġfly ing
Ġfew er
cl osed
Ġ2507 120
Ġ2507 130
Ġadv ice
Ġadv ance
ĠQu ine
Ġvis ible
uck y
à¸ģà¸²à¸£ à¹Ģà¸¡
Ġespec ialmente
bl ende
Ġdev oted
ĠOther wise
ĠáŁ¢áŁ¤áŁ¨ áŁ¤
Ġimm une
Ġfeather ing
ä¸ Ĭ
Ġlim its
Ġcommand ed
Ġcommand ers
Ġcommand ery
Ġrele ases
Ġnorth west
Ġflow ers
Ġpal aces
Ġreb u
Ġreb el
Ġreb els
Ġfac ial
Ġpat ent
Ġpat rons
Ġrepl ied
Ġunivers es
Ġsuscept ibility
áŀĸáŀ¢ áŀħ
Ġsem inal
Ġfall en
Ġsett ling
Ġdial ectic
ĠCarA ston
Ġinform ed
ĠCap ulet
Ġsun s
Ġreturn ing
Ã¼ hr
Ġspecific ations
ĠFl aming
Ġantib iotic
uz z
Ġgen re
Ġenter pr
pro gram
uel a
Ġlo an
Ġlo ose
Ġindic ates
fact s
ĠTour ism
Ġclaim ing
ĠSam urai
Ġhard ware
Ġinteg ration
Ġinteg rate
ĠTal bot
Ġconsider ably
Ġtreatment s
Ġfund s
ĠMed ium
ĠMed icine
ĠPark er
ĠHT TP
ĠIm m
áŀļáŀļáŀĦ áŀĳ
áŀļáŀļáŀĦ áŀļáŀĶ
thumb nail
ä» £
enn y
enn es
Ġbre aking
ĠTa izong
ĠMag ma
Ġformer ly
Ġsurv iving
Ġcontinu ation
Ġdeep ly
Ġ01 5
Ġsel ect
arb ha
à¸²à¸ĩ à¸ģà¸²à¸¢
Ġkeep ing
Ġran k
aria ble
aly tic
ĠIS BN
Ġdifficult y
La ren
Ġpred ecess
Ġfav oured
Ġfav oura
Ġlabor atory
Ġground s
Ġ5030 50
Ġ5030 60
idi plant
Ġfeel ings
åı ¯
Ġur ate
Ġsat ir
ĠInt el
ĠInt ellect
Tr áº§n
Ġpast e
Ġdocument ed
ĠMark et
Ġreported ly
che ll
Ġsac red
ĠEvilN a
En ter
FI FA
Ġsha res
ĠPers e
ĠPers ia
Ġclos er
Ġinterest ing
Ġdecre ase
OM E
cast ing
Ġrod ent
ĠZh ong
Ġmathem atics
rd quo
á¹ ĥ
Ġden ied
Ġden ote
PP P
Ġminist ry
Ġrul ing
Bl og
Ġrain y
ĠPort uguese
uda ism
Ġcrop s
ĠDep artment
.âĢĿ "
æľ ī
Ġpain ter
Ġbur ial
Ġdark ness
ĠCons ervation
Ġwithd rew
Ġfamil iar
Ġthick ness
ĠNor odom
Ġcompil ed
Ġinfect ive
Ġminor ity
Ġminor ities
Ġgreen ish
ĠHa ute
Ġstun ted
ĠOut side
Ġ25070 6
Ġ25070 60
Ġscholars hip
CP U
OV E
Ġsens ory
ĠSum moner
Ġhapp iness
å¤ ª
éĥ ¡
Ġsam skara
ĠAg ric
ĠRel igion
phal omyelitis
Ġunc ertain
Ġperman ently
Ġlab el
ĠSur vey
ĠBull et
Ġgall i
Ġcompar ative
Ġbrother s
å¾ Į
Ġdeg eneration
Ã¡s ico
áº¿ t
ĠÃī mile
Ġdescript ions
Ġweakness es
ĠSi R
ĠSi em
ĠTon kin
Ġdisp ers
Ġdisp ute
Ġcommander ies
Ġemerg ency
áŀľáŀļáŀĢ áŀļáŀŁáŀļáŀŁ
Ġwalk ed
à¸Ĳ à¸ļ
ĠArab ic
gr ade
ä¹ ĭ
ä¹ ĭå
Ġox id
Ġbenef it
Ġbenef icial
Ġnom ine
ĠBor om
ĠBas ilisk
Ġsym met
ĠAnt ivirus
à¸«à¸¥ à¸²à¸¢
Ġlymph oma
ĠMS D
Ġneigh bour
Ġlegisl ation
Ġpathogenic ity
Ġsynt actic
ĠCount y
ĠBae k
ĠLu oyang
ĠJo achim
Ã¹ ng
ĠÃ© fini
Ġwind ow
Ġwind ows
Ġmiss ions
ĠNight mare
Ġsequ ence
Ġinfl ammation
Ġcalc ulation
Ġcorrespond ence
Ġphenomen ology
Ġbox es
obs ession
Ġvirt ues
Ġtheore m
Ġcust oms
ĠSel ena
ĠDu ke
ĠNep al
Ġcho ices
Ġelim inate
Ġquant ity
Ġrevolution ary
Ġbehav iour
Cal ifornia
Com mercial
iny in
ĠColl ection
ĠPan ama
Ġ?? ?
ĠHistor ian
iac in
prod ucts
Ġdraw ings
ĠBel g
ĠIran ian
ĠGaz a
ĠNok ia
ante ay
ĠUp date
Ġagric ulture
Ġadvant ages
Ġbronch i
Ġmetaphys ics
De ut
Dr agon
Ġfurn iture
Ġmun indo
ĠDam rong
Ġprof ound
Ġtravel ed
Ben jamin
Ġcorn er
ĠServ ice
ĠRock ne
endar merie
Ġrespond ed
Ġscholar ly
Ġnutrit ion
bour g
ls berg
Ġid ol
ĠSom etimes
ĠAmp or
ĠPop ular
ĠHal al
ubl ique
Ġabdom en
Ġelev ated
Ġapparent ly
mang alani
Ġurg ing
Ġáŀ§áŀĹ áŀĻáŀı
Ġsever ity
Ġinact ivated
ĠAff airs
ĠBord eaux
ĠJu ventus
ĠChap ter
ĠYang on
å¹ ´
çľ Łè
ĠMov ement
Ġnemat ode
Ġstabil ization
Ġeval uated
ĠXX X
Ġhabit at
Dev ith
Ġfle e
Ġbor row
Ġharb ourage
ĠAF P
quin as
Ġdismiss ed
à¹Ģà¸§ à¸¥
ĠVenom ous
Buddh ism
Ec onomic
Ni Ã©pce
ĠBab yl
ĠEmer ald
Ġstret ch
Ġincom plete
Ġdepos its
Ġacadem ic
ĠShang hai
Ġrecommend ations
chem ist
åŃ Ĳ
áŀľáŀŁáŀĹ áŀı
Ġpp m
ĠMerc ury
Ġnood les
ĠBus iness
ĠDron a
ĠEvilSh rike
Ġexerc ise
Ġabandon ed
ĠSodaP epsi
Ġdemonstr ated
Ġthorough ly
cons cious
hist ory
Ð¾ Ð
orient ed
Ġbrief ly
ĠSamb hu
ĠTak tser
Ġnar row
ĠEin stein
ĠEgg s
ĠLud wig
ovann i
Ġexclus ively
Ġprecept s
ĠPyth on
Ġkilomet ers
æļ¹ ç¾ħ
Tw o
reci ation
Ġmil k
ĠCG DK
ĠMean while
Ġnick named
ĠFab ricius
ongk orn
Ġspr ays
Ġshoot ing
Ġgrup o
Ġvariant es
Ġdecor ated
à¸ķà¸³ à¹ģà¸«à¸Ļ
Ġgenoc ide
Ġmanufactur ers
Ġdeterior ation
Ġvocab ulary
Op el
ĠSud eten
ĠMou hot
Ġnahu as
ĠBeng al
Ġvot ing
Ġvacu um
ograp her
Ġchart s
ĠHein rich
kept icism
ĠMarse ille
Ġaccum ulation
ĠColumb ia
Ġexplan ation
ĠGarn ier
ĠPeters burg
dou ard
vant ages
íķ ľ
Ġcout ure
Ġbund les
asg ow
ĠEag le
Ġstiff ness
ĠEvilVen om
ĠVacc aro
ĠJens en
Ġjit ava
áº¯ c
Ġdemol ished
Ġeyel ids
Ġconvuls ions
à¹Ĥà¸Ķ à¸¢
Ġexcell ent
à»Ħ àºĬ
èĪĬ éĺ®
Olig archy
rÃ¡ f
Ġï ħĴ
Ġterr or
atag arbha
atern ary
Ġfest ivals
ĠHudd ersfield
ĠHob bes
ĠHuss erl
ĠLum iÃ¨re
ĠNanth asen
Ġproclaim ed
apil av
tej asa
ChÃ¢ u
awah iri
Ġschem e
ĠGuatem ala
ĠPolyn esia
ĠCheval ier
Ġconfigur ations
Sah aran
cÊ° kae
dhat u
giv anna
ç¡ķ å£«
Ġtong ue
ĠtÊ° om
itam ins
Ġbhav atu
ĠSips ong
ĠTÃł u
ĠBoh r
ĠDiá»ĩ m
ĠHway oung
ĠKers haw
ĠVais ali
Ġarte facts
ĠThier ry
Ġshout ed
Ġshrim p
Ġprivil eg
ĠPhoen ix
ĠZoro astrian
Ġfavoura ble
idiplant ae
Ġneighbour ing
çľŁè łŁ
" :
" Â»
. âĢ¦
/ %
0 50
0 60
0 40
2 30
3 50
A A
A sh
B D
B or
B ec
B ill
B ern
B rah
B TS
B ios
B apt
C f
C u
C ost
C lick
D a
D u
D el
D ist
D OS
D espite
E P
E ur
F O
F ree
F owl
G l
H ol
H ung
H OC
H uman
H isp
H CR
H ello
I ron
J ul
J ournal
J uly
K oh
K DE
L am
L ao
L ondon
L isbon
M P
M es
M et
M ay
M ong
M og
M ax
M aria
M ein
M yanmar
N N
N on
N orth
N azi
O s
O ICA
P i
P y
P od
P Äģ
P EC
P ope
P artial
Q a
R K
R S
R U
R em
R ice
S om
S Äģ
S aint
T el
T ri
T reaty
U l
U SA
U CA
U SI
U buntu
W F
W ill
Y in
Z ombie
b as
b ite
b Ã©
b ie
b ach
b ens
b ury
b ank
b acks
c d
c are
c lean
c ribed
d ong
d ie
d ependent
d Ã¨s
e en
f our
f irst
f ection
f ont
f oot
f unction
g os
g ood
h and
i Ã©
i ating
j u
j or
j un
j ud
j ak
j ordanie
k es
l en
l ag
l ay
m es
m ag
m ud
m iddle
n ung
n atural
n oea
o il
o ire
o que
o zy
p et
p ur
p ot
p ow
p noea
q i
q q
r ash
s ec
s ome
s uck
s upp
t in
t ax
v eloped
w l
w hel
w hat
w alker
w ords
w ald
x im
y at
y stem
y philis
z b
z an
z ly
z ip
z uela
| [[
ª àº²àº
Ã ®
Ã ¸
Ä Ľ
Ë Ī
Î ¬
Î ²
Î ·
Ï ħ
Ð º
Ù ħ
å ¿Ĺ
æ £
æ ı
ç «
ç ´
è ¡
è ³
è Ń
é ¡
é Ŀ
é «ĺ
Ġ ì
Ġ ub
Ġ à¸§
Ġ à¸Ĭ
Ġ à¹Ģà¸¡
Ġ ðŁ
Ġ à¹ģà¸ķ
ī å®ļ
ĺ īå®ļ
Ġáŀ ¤
áŀ¶ áŀ¶áŁĨ
áŀĵ áŀķ
áŀĦ áŀĶáŀĦ
áŀĦ áŀļáŀ¢
áŀĦ áŀħáŀļ
áŀĦ áŀĬáŀļ
áŀĢ áŀļáŀĶ
áŀĢ áŀķ
áŀĢ áŀĶáŀħ
áŀĢ áŀĢáŀĵ
áŀı áŀŁáŀı
áŀı áŀ°
áŀı áŀķáŀŁ
áŀĽ áŀĢáŀļ
áŀĻ áŀĲ
áŀĻ áŀ£
áŀĺ áŀ¡
áŀĺ áŀļáŀĺ
áŀĺ áŀĶáŀı
áŀĺ áŀļáŀĶáŀĶ
áŀ» áŁīáŀ¶
áŀŁ áŀļáŀĽ
áŀŁ áŀģáŀı
áŀŁ áŀłáŀļ
áŀĶ áŀļáŀİ
áŀĶ áŀĢáŀŁ
áŀĶ áŀģáŀĵ
áŀĶ áŀĵáŀĢáŀĺ
áŀĶ áŀłáŀĽ
áŁĭ ,
áŁĭ áŀ¸
ĠáŀĶ áŀľáŀĮ
ĠáŀĶ áŀĹáŀĤ
Ġáŀĵ áŀħ
Ġáŀĵ áŀĩ
áŁĨ áŀ¶áŁĴ
ĠáŀĢ áŀıáŀı
áŁģ áŁĤ
áŁģ áŁī
Ġáŀĺ áŀļáŀłáŀı
ĠáŀŁ áŀĻáŀĺ
áŀ¾ áŁĸ
ĠáŀĬ áŀħ
ĠáŀĬ áŀĤ
áŀ¸ áŀ·
áŀ¸ áŁĨ
áŀ¸ áŁĥ
Ġáŀĸ áŀľ
Ġáŀĸ áŀĹ
Ġáŀĸ áŀļáŀİ
Ġáŀĸ áŀĽáŀĶ
ĠáŁ ħ
ĠáŁ Ļ
áŀľ áŀĭ
áŀľ áŀļáŀĶáŀĽ
áŀ¼ !
áŀ¼ ]]
áŀħ áŀļáŀĤ
áŁĤ áŁĸ
Ġáŀ¢ áŀļáŀŁ
Ġáŀ¢ áŀļáŀĸ
Ġáŀ¢ áŀľáŀĩ
áŀĳ áŀł
áŀĳ áŀ¡
áŀĳ áŀĴáŀĵ
Ġáŀĩ áŀĤáŀİ
áŀĸ áŀĶáŀı
áŀĸ áŀŁáŀı
áŀĸ áŀĸáŀĢ
Ġáŀħ áŀļáŀĢ
Ġáŀħ áŀļáŀŁ
áŀĤ áŀŁáŀĵ
áŀĤ áŀŁáŀĶ
áŀĤ áŀĳáŀĦ
Ġáŀļ áŀĹ
Ġáŀļ áŀļáŀĺ
Ġáŀļ áŀĺáŀĢ
áŀī áŀıáŀĶ
áŁħ [[
áŀİ áŀĩ
áŀİ áŀ¢
áŀİ áŀļáŀı
áŀİ áŀĹáŀĢ
áŀĩ áŀļáŀĤ
áŀ¶áŁĨ áŀ»
áŀĬ áŀĮ
áŀģ áŀĤ
áŀģ áŀĺáŀĢ
áŀģ áŀķáŀĽ
áŀł áŀļáŀĵ
áŀł áŀ¬
áŀĴ áŀĶáŀĳ
ĠáŀĹ áŀĬ
áŀ¢ áŀĮ
áŀ¢ áŀĿ
áŀ¡ áŀĶáŀĢ
áŀĹ áŀıáŀĢ
áŀĵáŀĢ áŀ¢áŀī
áŀĵáŀĢ áŀ§
áŀĶáŀŁ áŀĹ
áŀĲ áŀĩáŀĵ
áŀĲ áŀ²
áŀ»áŁĨ áŀ¶áŁĨ
áŁīáŀ¶ ,
áŁį áŁĴ
Ġ( =
Ġ( â
áŁĮ áŀ¼
ĠáŀĨ áŀĽ
Ġáŀ² áŀĢáŀı
Ġáŀ² áŀłáŀĵ
áŀĭ áŀļ
áŀĭ áŀĺáŀĦ
áŀļáŀĶ áŀĢáŀĹ
Ġt l
Ġt et
Ġt im
Ġt ric
Ġt ied
Ġt iles
Ġt reaty
Ġt apeworm
in er
in ant
in ations
in na
in ya
in iti
Ġa w
ĠáŀĺáŀĢ áŀĽ
ĠáŀĺáŀĢ áŀĩ
he res
áŁĬ áŀ¹áŁĩ
áŀķ áŀĩ
on ds
on ier
er te
ĠáŀķáŀĦ áŀħáŀı
re le
re ment
re to
re aring
áŀļáŀł áŀİ
áŀļáŀĩ áŀĩáŀĵ
áŀĮ áŀĢáŀĶ
áŀĮ áŀĽáŀĵáŀĻ
en i
en veloped
áŀĺáŀİ áŀĴáŀĺ
Ġo c
Ġo ch
Ġo ste
Ġo ceans
at roop
Ġáŀ¥ áŀĢ
Ġáŀ¢áŀĵ áŀī
is ch
is per
Ġáŀ¢áŀŁ áŀĸ
Ġ" <
Ġs es
Ġs Ã³
Ġs ectors
Ġs ido
es us
es ides
es pec
es ÃŃa
áŀĢáŀĺ áŀı
ar re
ar am
ar se
ar io
ar ina
ar juna
al av
al ese
al ke
al ongkorn
Ġc ad
Ġc iv
Ġc ord
Ġc ited
Ġc ier
Ġc atch
Ġc Ã³
Ġc ouncil
Ġc rown
Ġc ategory
Ġc ards
Ġc ensus
Ġc ulls
Ġc ousin
Ġc racks
it ron
or er
or ant
or ah
or io
áŁĬáŀ¸ âĢĿ
Ġáŀĩáŀĵ áŀļáŀĦ
ĠáŀļáŀĢ áŀĳ
ĠáŀļáŀĢ áŀĤ
áŀļáŀĢáŀĶ áŀħ
Ġw onder
áŀĽáŀĶ áŀĶ
áŀĽáŀĶ áŀĸ
áŀĻáŀĢ áŀĽáŀ²
ic an
ic ially
áŀĪ áŀĺ
Ġin n
Ġin ternet
Ġin quiry
ĠáŁ¥ áŁ¡áŁł
ĠáŁ¥ áŁ¡áŁ¦
ĠáŁ¥ áŁ¢áŁł
ĠáŁ¥ áŁ¡áŁ¡
ĠáŁ¥ áŁ©áŁ¢
ĠáŁ¥ áŁ¡áŁ©
Ġp in
Ġp ant
Ġp ix
Ġp its
Ġp unct
Ġf ro
Ġf un
Ġf ile
Ġf ix
Ġf oci
Ġf lex
Ġf asc
Ġf ulf
Ġf iction
Ġb ul
Ġb ien
Ġb ridge
Ġb ovis
áŀĶáŀĳ áŀĸ
ĠáŀĶáŀİ áŀĢáŀĢáŀĺ
áŀ¯ áŀı
Ġd as
Ġd ia
Ġd ies
Ġd rain
Ġd rew
Ġd aguerre
Ġd ipter
Ġd warf
áŁ¡ áŁłáŁł
áŁ¡ áŁ©áŁ£
áŁ¡ áŁ©áŁ©áŁ
el o
el and
Ġm a
Ġm ah
Ġm ob
Ġm arv
Ġm ycot
áŀĤáŀļ áŀľáŀĸ
il o
il er
il io
áŀĻáŀŁ áŀī
áŀĻáŀŁ áŀĵáŀĢáŀĺ
áŀĽáŀĦ áŀĹ
áŀĽáŀĦ áŀĴáŀĺ
áŀĽáŀĦ áŀĩáŀļ
ro at
ro ly
ro ix
áŀĺáŀı áŀĵ
áŀĻáŀĵ áŀĵ
ĠC R
ĠC u
ĠC re
ĠC ra
ĠC oun
ĠC reat
ĠC ors
ĠC hes
ĠC Ãł
ĠC CD
ĠC usa
áŀŁáŀı áŀĶ
áŁ¢ áŁ£áŁ¥
áŀļáŀľ áŀļ
áŀļáŀľ áŀĩ
Ġl ic
Ġl ing
Ġl end
Ġl ivers
Ġl akes
Ġl Ã©xico
ĠS r
ĠS at
ĠS et
ĠS age
ĠS ann
ĠS old
ĠS inh
ĠS aw
ĠS uk
ĠS yn
ĠS RT
ĠS oma
ĠS ils
ĠS BS
ĠS ciences
ĠS essions
áŁ¤ áŁłáŁł
ĠT T
ĠT y
ĠT ar
ĠT ih
ĠT omb
ĠT roop
ĠT umours
ĠT oxic
ĠT unnel
ĠT esla
Ġh un
Ġh ay
Ġh ill
Ġh arv
Ġh asta
áŀĢáŀŁ áŀĶ
áŀĢáŀŁ áŀİ
ĠáŁ§ áŁ©áŁ©
áŀĦáŀĸ áŀĽ
áŁ¦ áŁ£
ev in
ev ara
ac ine
ac hers
ĠáŁ¦ áŁ¡áŁ£
ĠáŁ¦ áŁ©áŁł
om al
om int
áŁ§ áŁ¨
áŁ§ áŁ¦
áŁ§ áŁ¡áŁ£
am os
ec o
us ions
us arium
áŀĵáŀĢáŀĶ áŀħ
ĠáŀĸáŀĽ áŀĵ
ĠáŀĸáŀĽ áŀĩáŀī
ĠA E
ĠA U
ĠA z
ĠA th
ĠA qu
ĠA AC
ĠA raf
ĠáŀŁáŀĺáŀİ áŀľ
ol t
ol ent
ol ex
ol ete
ol asticism
ĠM ing
ĠM ul
ĠM ist
ĠM ak
ĠM our
ĠM ai
ĠM agn
ĠM other
ĠM uss
ĠM amm
ĠM TV
ĠM net
áŀħáŀĶ áŀī
Ġre un
Ġre ct
Ġre ovirus
oc ode
os ely
Ġn one
Ġn ose
Ġn ons
ĠáŀļáŀĽ áŀŁ
áŀĻáŀĺ áŀļáŀİáŀĹ
ĠR y
ĠR ang
ĠR ud
ĠR ice
ĠR ange
ĠR IM
ĠR espiratory
ĠR ousse
áŀĵáŀĬ áŀĳ
ĠB in
ĠB ost
ĠB art
ĠB ear
ĠB ah
ĠB ox
ĠB Ãł
ĠB ird
ĠB oys
ĠB anteay
ĠE ight
ĠE ll
ĠE unos
Ġ2 45
Ġ2 30
Ġ2 80
Ġ2 15
Ġ2 70
Ġ2 99
ur ated
ul ed
ul ative
ul alongkorn
ĠP H
ĠP S
ĠP or
ĠP as
ĠP ub
ĠP ont
ĠP Ã³
ĠáŀĤáŀİ áŀŁáŀĦ
áŀĵáŀĢáŀŁ áŀĶ
ĠáŀĶáŀĳ áŀľ
ĠáŀĶáŀĳ áŀĤáŀĺ
ĠáŀĶáŀĳ áŀħáŀĦ
id ium
id ades
ig or
ig ious
ig ms
ig ested
ir ms
Ġis land
ĠáŀļáŀĦ áŀĢáŀĺ
Ġ? !
im et
im ism
ot l
ot ten
ot hel
ot ional
ot rac
ad ian
Ġ! ?
áŀŁáŀħ áŀĦ
Ġg ains
Ġg uns
Ġg amet
iv ier
Ġe j
ĠáŀļáŀĶ áŀĨ
ĠD as
ĠD oc
ĠD un
ĠD est
ĠD ial
ĠD ance
ĠD own
ĠD ipter
ĠD olph
ĠD ictionary
ag ani
ĠH D
ĠH S
ĠH op
ĠH art
ĠH ell
ĠH old
ĠH Ã´
ĠH ague
ĠH ills
ĠH arvest
ĠH ubble
ĠH ospital
ĠI C
ĠI T
ĠI PA
ĠI OC
ĠI UC
ĠI LT
ĠI reland
ut ter
ĠáŀĢáŀŁ áŀī
ĠF C
ĠF i
ĠF ou
ĠF ay
ĠF erm
ĠF ile
ĠF arm
ĠF owl
ĠF usarium
ch o
áŀ§ áŀĵ
áŀ§ áŀĹáŀĻ
Ġáŀ¢áŀĺ áŀļáŀĤ
áŀĢáŀļáŀİ áŀŁáŀĺáŀĲ
od en
od ge
áŀĶáŀļáŀĺ áŀı
em an
em as
st a
st one
st ream
ĠâĢĿ áŁĶ
um pt
um per
um ib
ĠG and
ĠG ate
ĠG ros
ĠG aud
ĠG MS
ĠG illon
ĠG loomy
Ġáŀ¢áŀĶ áŀļáŀİ
Ġcon ce
ĠL P
ĠL et
ĠL uc
ĠL aus
ĠL á»
ĠL ark
ĠL ai
ĠL ille
ĠL ump
ĠL uz
ĠL ieu
Ġáŀ£ áŀĺ
Ġáŀ£ áŀĵáŀı
Ġas ide
Ġas ylum
ĠáŁ¡áŁ¥ áŁ©áŁł
ĠK n
ĠK in
ĠK or
ĠK ent
ĠK au
ĠK iev
ĠK ush
ĠK eral
ĠK ataragama
áŀĻáŀĺáŀĢ áŀĢ
áŀĻáŀĺáŀĢ áŀľ
ĠáŁ¡áŁ¨ áŁ¡áŁ¦
ĠáŁ¡áŁ¨ áŁ¡áŁ§
ĠáŁ¡áŁ¨ áŁ¢áŁ¥
ra um
ĠÂ« "
Ġv e
Ġv ide
Ġv ents
ĠáŀĹáŀĸ áŀıáŀĳ
ĠN ar
ĠN az
ĠN hat
ĠN ouv
ĠN umber
ĠN eko
ĠN ATO
ĠN ipkow
ĠáŁ¡áŁ¢ áŁ©áŁ£
ĠáŁ¡áŁ¢ áŁ©áŁ¢
ect in
ect us
ĠW in
ĠW ord
ĠW agon
ĠW agner
th is
th av
th ick
th rough
th ony
ĠÂ» "
Ġst ri
Ġ19 2
Ġ19 13
Ġ19 03
Ġal ly
Ġal co
Ġpro k
Ġpro gen
Ġpro pon
ĠThe ra
if ts
if eline
av elli
av ailability
Ġáŀª áŀĳ
áŀĵáŀŁ áŀļáŀŁ
Ġwh ilst
ĠáŁ¡áŁ¡ áŁ¢áŁ¥
ĠáŁ¡áŁ¡ áŁ¢áŁ¨
Ġáŀĺáŀļáŀİ áŀĢáŀĺ
ĠáŁ¡áŁ¤ áŁ©áŁ©
Ġcom edy
ant is
ant ed
ab an
ab akh
qu is
Ġde eds
Ġde emed
ĠV ill
ĠV ille
ĠV ongs
ĠV anga
ĠV espucci
ĠV edic
ĠV ishn
ill es
ill osis
ĠJ h
ĠJ ing
ĠJ ol
ak i
end a
ĠáŁ¡áŁ£ áŁłáŁłáŁł
ap at
ap arin
ĠCar B
ĠCar Opel
ĠCh art
ĠCh ris
ĠCh lor
ĠCh ief
ĠCh alleng
Ġ3 01
Ġ3 30
Ġ3 66
ri k
ĠáŁ¡áŁ§ áŁ©áŁ£
ĠáŁ¡áŁ§ áŁ©áŁł
ĠáŁ¡áŁ§ áŁ©áŁ¢
ĠáŁ¡áŁ§ áŁ©áŁ¤
ĠáŁ¡áŁ§ áŁ¢áŁ§
ort ing
Ġhe x
Ġhe ct
Ġhe mic
og rÃ¡f
Ġr ack
Ġr fi
Ġr andom
Ġex ceed
ĠO u
ĠO ur
ĠO pt
ĠO PIC
ĠáŀļáŀĲ áŀŁáŀĺ
áŀ« áŀĢ
Ġy a
Ġy east
art icle
ell ulose
áŀ£ áŀĴ
áŀ£ áŀĲ
Ġáŀ¢áŀħ áŀĽáŀĳ
Ġáŀ¢áŀħ áŀĽáŀĶáŀĳ
ĠáŁ¢áŁ¥ áŁ¡áŁ£
ĠáŁ¢áŁ¥ áŁ¡áŁ¨
ĠáŁ¢áŁ¥ áŁ£áŁł
all enge
Ġsp ores
Ġsp elled
Ġus ual
Ġk an
Ġk am
ight ened
Ġch it
Ġch ip
Ġch ance
Ġch allenge
ĠIn stead
ine apple
Ġcont rolling
Ġ... ,
ren ous
Ġnot ifiable
ast ed
ĠáŁ¢áŁ¤ áŁ©áŁ©
ĠáŁ¢áŁ¤ áŁ©áŁ§
Ġform a
ign a
ign on
ff ic
ff ee
ib iotics
Ġar thritis
áŀĤáŀĩ áŀĻ
ph ant
ph oid
ph oto
Ġáŀ§áŀŁ áŀĺáŀĢ
mer ce
mer igo
pl ing
ern aut
Ġdis ag
Ġdis orders
áŀĻáŀĹ áŀı
Ġ4 60
ĠTh uong
ĠTh mor
iz a
iz onts
Ã© v
Ġun ity
Ġun ited
Ġun com
Ġun like
Ġun even
ks on
à¸²à¸ ¯
ĠSt re
ĠSt ories
ĠSt ephen
ass ador
Ġint ense
áŀĽáŀĤ áŀłáŀĶáŀı
Ġlangu e
ie ut
act s
Ġ6 50
ip ing
Ġsh op
Ġsh allow
Ġsh run
Ġ18 2
Ġ18 4
Ġ18 5
Ġ18 50
Ġ18 81
Ġen h
ep ha
áŀļáŀ¢áŀĶ áŀ¢áŀļ
ĠáŁ¥áŁł áŁ¡
ĠáŁ¥áŁł áŁ©
ĠKh un
Ġ7 50
Ġ7 20
Ġcl uster
ĠáŀĵáŀĤ áŀĶ
ĠáŀĵáŀĤ áŀļáŀĩ
). [
ach i
ond iss
any i
Ġpl a
Ġpl ug
ĠY a
ĠY ong
ĠY outh
ĠY ears
ĠY asser
ack er
ack ers
Ġcomm issions
ex c
ex cept
ind ependent
erm any
ory za
ver ham
à¸Ļ à¹ģ
Ġpr ime
Ġpr ices
Ġcons ort
Ġcomp r
ĠUn ity
ĠUn idos
Ġab use
Ġinf antry
Ġinf inite
Ġtr ial
Ġtr ack
Ġper osis
Ġper icarditis
Ġfl ower
áŀľáŀħ áŀļáŀ¢áŀĶ
ĠAn toine
Ġ14 2
Ġ14 9
Ġ14 30
ah oo
ah mÃ¢
Ġqu arters
Ġ9 00
Ġj obs
Ġj unction
ĠáŁ¦áŁł áŁ¥
ĠáŁ¦áŁł áŁ¤
ĠáŁ¦áŁł áŁ¨
ark ozy
ĠPh am
enc er
we ek
", "
Ġpre ach
Ġpre tt
Ġpre cis
19 45
19 46
te aux
te bra
]] (
ĠHe ad
Ġáŀ±áŀĶ áŀĺ
ĠX i
ĠX ML
ĠX iang
Ġreg ulated
Ġreg ulations
Ġinto x
ron ics
ung al
àº ¼
Ġsign atories
Ġem br
Ġem issions
ĠAr med
ĠAr ctic
ĠAr senal
oph ilic
ug ger
Ġover lo
Ġthan ks
Ġrec ited
Ġ20 3
Ġ20 8
Ġ20 9
up a
Ġtrans ist
Ġinv oke
Ġatt achment
Ġbl ur
áŀĵáŀĻáŀŁ áŀŁáŀĢ
ĠáŁ©áŁł áŁ¢
Ġwater fall
12 1
ĠAl to
ĠAl bum
ĠAl pha
ros pect
Äģ bh
gg ed
à¸ĩ à¸ª
à¸ĩ à¸ģà¸²à¸£
ivers ary
áŀ». ,
Ġup date
Ġam mun
Ġdef end
Ġdef ence
ual a
ĠáŀŁáŀĺáŀĲ áŀĴáŀĺ
aj j
int ers
áŀļáŀĽáŀĦ áŀĶ
Ġunder t
Ġcount ing
rop ro
Ã¡ ng
Ã¡ tica
ĠQ uan
à¸¥ à¸Ń
à¸¥ à¸¡
à¸¥ à¸ĩ
form ance
Ġinter view
Ġinter views
Ġdo or
Ġ17 0
Ġ17 6
Ġ17 7
ae k
Ġdi ameter
Ġdep osed
Ġoff ices
Ġ0 81
Ġ12 9
Ġ16 1
Ġ16 9
Ġpo ison
Ġact or
à¹Ģà¸ ī
eng ine
Ch amp
Ch ief
Ġne ur
com put
Ġdevelop s
ject ive
ĠáŁ¤áŁ¥ áŁ¨
áŀļáŀ± áŀĶ
Ġsystem atic
Ġ15 6
Ġdec ide
Ġdec ade
ĠSh ow
ĠSh ort
Ġacc ord
Ġacc ident
ĠRe ap
io x
Ġsim ult
à¸¢ à¸ģ
ĠáŁ¡áŁ¥áŁł áŁ¥
Ġexp ans
à¸Ļà¸ Ĭ
Ġdist ributed
Ġass ist
kh am
lu ent
Ġent ers
Ġent ry
Ġent ering
ĠáŁ¦áŁ¢ áŁ¤
yc le
ingu ists
áŁ¡áŁ¨ áŁł
ĠáŁ¤áŁ¤ áŁ¢
ĠáŁ¤áŁ¤ áŁ©
Ġsc attered
ness ee
áŁ¡áŁ¢ áŁł
Ġsupp ress
Ġsupp lement
ĠLe ader
ĠSe attle
ĠPar as
Ġgener ic
Ġgener ated
ĠáŁ¥áŁ¥ áŁ¡
Ġpar ks
ĠáŁ¤áŁ¨ áŁ¡
ĠáŁ¤áŁ¨ áŁ¥
ĠáŁ¦áŁ¥ áŁ¨
ĠáŁ¦áŁ¤ áŁł
ĠáŁ¦áŁ¤ áŁ¡
ĠáŁ¦áŁ¤ áŁ£
ĠáŁ¦áŁ¤ áŁ¤
ĠáŁ¦áŁ¤ áŁ¨
ĠáŁ¦áŁ¤ áŁ©
Ġdifferent ial
Ġdifferent iate
Ġcol ony
Ġwar f
Ġhum id
ett a
ĠáŁ¥áŁ¤ áŁ¢
ĠáŁ¥áŁ¤ áŁ¦
ĠáŁ¥áŁ¤ áŁ©
áŁ¡áŁ¥ áŁ¥
Ġest a
Ġest imate
áŁ¡áŁ¤ áŁł
acc ination
ĠáŁ§áŁ¥ áŁ¤
ophy l
ĠáŁ¤áŁ§ áŁ£
ĠáŁ¤áŁ§ áŁ¨
ĠáŁ¤áŁ§ áŁ¦
Ġhist ories
Ġext ract
Ġext ending
ĠáŁ¥áŁ¨ áŁ¤
ĠáŁ¥áŁ¨ áŁ§
Ġdesign er
ene zuela
Ã³ a
Ġequ ally
Ġequ ations
Ġord in
ek er
Ġ13 1
Ġ13 6
Ġ13 7
Ġ13 8
à¸ķ à¸°
Ġ25 9
Ġ25 31
ĠáŁ¤áŁ¦ áŁ¥
ĠáŁ¤áŁ¦ áŁ¨
Ġmain tenance
ĠáŁ¥áŁ§ áŁ¤
ĠáŁ¥áŁ§ áŁ¨
Ġcommun ications
ÃŃ n
ÃŃ an
Ġsa uc
Ġdel ta
Ġmov ies
Ġrep air
Ġrep atri
Ġrep utation
Ġser um
ĠáŁ©áŁ¢ áŁł
ĠáŁ©áŁ¢ áŁ¥
ĠáŁ©áŁ¢ áŁ¢
ĠáŁ©áŁ¢ áŁ¦
Ġpers u
Ã¢ y
à¤ ¨
ym onier
ĠTr ad
ĠTr Äĥng
alk ing
Ġmet ers
och i
och t
Ġtyp ing
ĠáŀĢáŀĦáŀĸ áŀĽáŀļ
ÄĲ Ã´ng
ĠPl us
ĠGr ay
Ġret ired
Ġpolit ician
Ġpolit icians
ĠáŁ¡áŁ¥áŁ¦ áŁ£
à¸« à¸²à¸£
ĠáŁ¦áŁ§ áŁ¥
ĠáŁ¦áŁ§ áŁ¨
ĠCarN ISMO
ĠComm ons
Ġpos th
Ġorgan ised
ĠáŁ¡áŁ¨áŁł áŁ¥
ĠáŁ¡áŁ¨áŁł áŁ§
Ã¨ ge
Ã¨ me
hel on
hel ter
hel by
ham ed
ham med
oe b
Ġsl ower
Ġsl ats
ĠáŁ§áŁ§ áŁ¤
ĠáŁ¦áŁ¦ áŁ¨
Ġher itage
Ġcountry side
Ġhouse fly
Ġhouse holds
rav arman
Ġcor ona
Ġdeath s
Ġ30 8
Ġdirect ions
ĠáŁ¨áŁ¥ áŁ£
ĠáŁ§áŁ¨ áŁ¡
ĠAll en
yst ic
Ġins urance
à¸ŀ à¸¥à¹Ģà¸Ńà¸ģà¹Ģà¸Ľà¸£à¸¡
Ġanal og
Ġmark ing
ĠEx per
ĠáŁ¡áŁ§áŁ¨ áŁ¦
Ġyoung est
Ġdr ag
Ġprom ise
Ġoper a
ĠGi ovanni
Ġcomb at
Ġcomb inations
iá»ĩ n
iá»ĩ u
ĠOn line
ĠáŁ¨áŁ¢ áŁ¥
ĠEn ergy
ĠáŀĶáŀľáŀļ áŀļáŀıáŀĵ
AN G
ĠAd ler
ĠáŁ©áŁ£ áŁł
ĠBl ock
ĠDe ut
à¹ģ à¸ļ
erc ulosis
ilis ation
Ġ23 1
Ġ23 4
Ġ23 6
Ġ23 7
ipp ing
Ġshe et
ĠGe off
Ġconf idence
Ġconf usion
Ġtemper ate
ank ing
ĠPe pper
Ġadm itted
ĠáŁ§áŁ¦ áŁ¢
Ġprot ector
Ġprot ecting
app oint
Ġexper imental
200 2
200 5
Ġtest ed
ĠáŁ¡áŁ¥áŁ¥ áŁ¢
ĠáŁ¡áŁ¥áŁ¥ áŁ§
Ġcomput ation
ĠáŁ¡áŁłáŁ¤ áŁ¦
ĠáŁ¡áŁłáŁ¤ áŁ©
97 7
ĠCol ossus
ĠMan agement
ĠáŁ¡áŁ§áŁ¦ áŁ¥
ĠáŁ¡áŁ§áŁ¦ áŁ¦
Ġpract ised
Ġ27 6
ĠáŁ¡áŁłáŁ§ áŁ¥
ĠáŁ¡áŁ¦áŁ¢ áŁ§
ĠáŁ¡áŁ¦áŁ¢ áŁ©
Ġfact or
ĠáŁ¡áŁłáŁ¦ áŁł
ĠáŁ¡áŁ¥áŁ£ áŁ¤
ĠEd wards
ĠáŁ¡áŁ£áŁ¥ áŁ¢
ĠáŁ¡áŁ£áŁ¥ áŁ§
ĠáŁ¡áŁ§áŁ¥ áŁ¦
áº¡ ch
occ up
Ġgl ory
áŀĹáŀİ áŀħ
ĠAss istance
ĠáŁ¡áŁ£áŁ¦ áŁ¤
ĠáŁ§áŁ¤ áŁ¥
ĠáŁ¡áŁ¥áŁ§ áŁ¢
ĠáŁ¡áŁ¥áŁ§ áŁ¤
Ġliter acy
Ġter rac
Ġland s
Ġland own
Ġbas ketball
Ġreal ms
Ġ196 5
ray ed
Ġmar quess
Ġadminist rations
fl ight
ĠCarS p
ĠNo ey
ĠáŁ¡áŁ¤áŁ§ áŁ¥
Ġenl ightened
Ġtechn ologies
Ġsal ad
ĠHist omonas
ĠáŁ¡áŁ£áŁ¤ áŁł
ĠáŁ¡áŁ£áŁ¤ áŁ¥
tr as
Ġcase ous
Ġcertain ly
ĠJul ius
Ġcare fully
Ġarg ue
Ph Ãº
Ġperson ally
Ġ2507 13
Le bens
ator ial
ator ium
Ġpost s
Ġpost mortem
à¸²à¸¢ à¸Ļ
à¸²à¸¢ à¸ģà¸£
Ġadv ocate
ĠQu ad
ĠáŁ¦áŁłáŁł áŁłáŁłáŁł
Ġann ex
Ġann ounce
aks at
ĠCor ps
ĠCor win
ĠáŁ¡áŁ¢áŁ§ áŁ£
ĠáŁ¡áŁ¢áŁ§ áŁ©
Ġ). -
atth a
Ġimm un
Ġabs ent
ani ola
Ġcivil ian
Ġlist en
Ġflow ing
Ġsouth ward
ĠMon itor
Ġcirc ulating
ĠáŁ¡áŁ§áŁ§ áŁł
ĠáŁ¡áŁ§áŁ§ áŁ¥
Ġpat ients
Ġobs olete
icks and
Ġmult iverse
unn an
Ġassoci ate
ead y
Ġdial og
Ġweak er
ĠCo operation
ĠDev adatta
ĠFe ed
Ġdescrib es
Ġdescrib ing
ĠáŁ¡áŁ§áŁł áŁ§
Ġaut om
Ġaut umn
Ġsun light
Ġche ap
for mer
tal aria
ĠMod ule
ĠPer formance
ĠNov a
ĠNov ell
ĠAc adÃ©mie
ĠBer zer
Ġgen etic
ĠáŁ¡áŁ¦áŁ¥ áŁ¥
pro fess
ĠMal ay
ĠáŁ¡áŁ¦áŁ¤ áŁ¤
Ġlo ading
Or say
Ġfocus es
asion ally
Ġnecess ity
Sh ang
Ġcr acking
Ġdefin itions
hev ik
Ġeng aged
UN CIN
à¸Ĭ à¸²à¸
Ġáŀ¢áŀľáŀĢ áŀİ
Ġreason able
Ġflo ating
Ġesc rib
Ġesc ribe
ĠMont aign
ĠEc helon
áº£ ng
Ġsurv iv
Ġport ions
Ġ70 60
Ġ01 0
As ian
con f
Ġlat ent
Ind och
Ġep istem
Ġheav en
pon ds
pon emal
Ġtend on
Ġfav our
Ġbhik k
ĠChen ey
ĠIM F
Ġund erm
Ġ186 3
Ġ186 9
á»ĭ a
Ġrad ical
Ġintrod uction
Ġintrod ucing
Pro gram
So ft
Ġpast ed
áŀĻáŀĴ áŀī
Ġsac rific
Ġsac rifice
ĠRec ently
Ġdeb t
ĠInstit ution
Ġsubject s
Ġer ad
Ġvict orious
Ġclos ing
Ġdecre ases
ĠGuard s
part s
Ġmix ture
Ġlook ed
ĠPhot o
Ġemploy s
åħ ¥
åħ ¶
ĠBu f
Ġremov al
áŀĹáŀĤáŀľáŀĵ áŀĩáŀĵáŀĶáŀĳ
á¹ ħ
eros ene
Ġoffer ing
Ġoffer ings
ĠSa ovabha
ĠHol ocene
ĠKamp f
ĠKamp ot
ectic ut
ectic ides
Ġgovern ed
à» Ģ
à» ī
itiz en
Ġbo at
ĠCam era
ĠCam ille
Ġphon ological
At l
Bl ood
Ġcut s
ĠFar aday
ĠGl asgow
ĠWith in
ĠInf ection
ĠProt est
ï¼ī ãĢģ
Ġsuper ior
Ġsuper natural
aux hall
Ġdistingu ishing
áŀĦáŀ¯ áŀĢáŀĩ
Ġign ore
Ġign ored
Ġconn ections
Ġmot ion
ĠSen ate
Ġthick ening
ĠDis ney
Ġquestion ed
spec ies
Ġappe al
Ġ25070 70
Ġanaly zing
tec as
Ġsens es
ĠSum mer
ĠSum mit
Ġhapp y
ĠBay inna
with out
Ġcuis ines
ĠAg ency
ĠIB D
ĠIB H
ĠIB DV
Ġjud ge
Äģn usaya
áºŃ u
Ġacqu isition
Comm ons
Ġperman ant
ĠSur rey
Ã©d ie
Ġcorres ponds
å¾ ŀ
Ġmaster piec
ĠCamp bell
ĠMor gan
ĠEst ate
ĠEst ados
ĠNag arjuna
Ġdeal ing
ĠÃī cole
Ġcritic ised
Ġ06020 40
çĶ Į
çĶ Ł
Ġpup ae
Ġpup ils
Ġfran Ã§aise
Ġver tebra
ĠOl givanna
Ġutil ise
Ã¯ t
æĸ ĩ
Ġtrem end
Ġcop per
itro fur
ĠMic he
ĠChi ite
ugg ernaut
Ġdiscuss ed
Ġtreat ing
ĠHung ary
abs orption
riz zly
Ġcart oon
ĠHy brid
Ġchief ly
Ġproduct ivity
Ġnegot iate
Ġpen et
ĠCount ry
Ġlear ning
Ġhon our
ĠBac on
ĠWill ie
ifest yle
æ²³ä»Ļ éİ®
Ġic onic
Ġtra ffic
Ġinscript ion
Ġreve aled
ĠNav ajo
Ġinvestig ation
Hist or
Ġtalk ing
Ġfront ier
ĠGall ic
Ġconver ted
Ġones elf
Ġveget ation
ĠUr ban
Ġchlor ophyll
à¹Ģà¸ģ à¸²à¸°
Ġdipl omat
Ġconstant ly
Ġ25050 30
pic ious
Ð¸ Ñ
Ġcred its
Ġhyper plasia
ĠLag arde
ĠWork ing
Ġstay ed
Ġrh yth
Ġcho ose
Ġdiss olved
Ġbirth day
Ġopportun ities
Gr oup
Tur keys
Ġclear ly
Ġpurs ue
ĠPat rol
Ġ?? -
ĠCarP agani
Ġincor rect
ibb entrop
ĠGuang wu
Ġcitizens hip
Ġot ros
ĠCr ime
Ġparad igms
Ġaflat oxicosis
orb ital
ĠMu hammad
Ġgrav es
Ġgrav ity
ĠDirect ion
stand ing
stand ard
Ġprep are
Ġrestrict ion
Ġrestrict ions
Ġnav al
utt ara
avirus es
ĠEvilI ce
Ġtrich othec
ĠZen o
Ġaccur ately
Ġrespond ing
Ġpreserv e
Ġparas ite
å¸ Ĥ
Ġaudi ence
ĠBra un
ĠDom nung
ĠChild ren
Ġuns uccess
Ġmeet ings
Int ellect
ĠColon ies
ĠColon ial
Ġpurch asing
Ġembryon ated
Ġembryon ating
Ġhappen ing
EX US
æ° ı
æ° ĳ
æĺ ¯
ĠáŀĹáŀĺ áŀļáŀĩ
Ġcul m
Ġcul min
Ġinact ive
Ġbring ing
ĠCC TV
ĠSand ers
ĠAB EC
ĠRun ner
Ġgent le
ĠDan iel
Ġprev ents
ĠProfess ional
Ġsimpl ified
Ġswallow ed
Ġswallow ing
Af ghanistan
Ġsig lo
Ġsig uient
Ġinhab it
ĠTen nessee
ĠIll inois
ĠLion el
obacter ium
ĠMarsh al
ĠPlant ae
Bh ad
Tim ocracy
ĠSqu are
ĠDry ers
Ġvo iced
ĠCarol ina
Ġenjoy ed
Ġsubs id
Ġpil ots
Ġdow ng
ĠPut in
ĠDut ch
Ġprohib ited
hedral s
Ġrefl ects
ÙĬ Ø
ĠáŀĸáŀĸáŀŁ áŀĸ
Ġpaint ings
ĠTag ged
Ġveh icle
Ġveh icles
ĠIslam ic
Ġserp ent
Ġserp ents
Ġpersist ent
ĠOrig inal
Ø§Ù ĦØ
Sing apore
TER S
she k
Ġrom an
atur ally
ĠPak istan
ĠDisc ourse
ĠFern andes
ĠEvilH ill
ĠVy asa
ĠVar ious
Ġelabor ate
Ġeleph ant
Ġempir icism
Ġexpand ing
ĠÃģ nh
Ġepithel ium
commun ist
Vietnam ese
Ġrhetor ic
Alex and
Soc ial
ĠáŀĻáŀĺáŀĳ áŀĤ
Ġtal ks
Ġbind ing
ĠMam ah
ĠBav aria
urge on
ulo end
Ġvisc eral
Ġprotozo an
Ġanthrop ological
ĠOh io
iber ately
Ġcling ing
ĠUnc lear
Ġphr ases
Ġpeas ant
à¸ĩà¸« à¸²à¸Ħà¸¡
Ġlegit imate
Ġessay ist
Ġearthw orms
Ġabolition ist
ĠHiros hi
æ± Ł
áŀĦáŀ£ áŀĽáŀĦ
Ġsoph istic
Ġintern ationally
Ġpri est
Ġlin ks
ĠTathag atagarbha
ĠMit chell
ĠMats ushita
ĠMicroscop ically
ĠFont aine
ĠJane iro
Ġcontrovers ial
á»¥ c
attal ion
Ġvariab les
ĠLaun ay
ĠProper ty
Ġcaps ule
Ġpromin ence
ĠCapit ol
Ġsupran ational
Ġicon oscope
discipl ine
Ġspirocha etes
Cha ir
inoc eros
Ġcoc onut
Ġinnov ative
Ġbure auc
Ġmerg ed
Ġhier arch
ĠCarV auxhall
ĠChair man
Ġenorm ous
Ġfeas ible
Ġcentrif ugal
Ġroost s
Ġoutbre ak
Ġmonaster y
Ġphysic ist
Ġlandsc ape
Ġencyclop edia
Ġadopt ion
Ġfundament ally
mid t
main ly
ĠCochinch ine
ĠMult iple
Ġnam ely
ĠHipp ocrates
ĠGil bert
ĠLiter ature
Ġfeat uring
Ġperfect ly
ĠHeid egger
Ġremar ks
ĠConn ecticut
Ġtempor arily
Ġrail way
Ġcollaps ed
Ġvalle ys
Ġconvinc ed
Ġintegr ity
Ġearthqu ake
ĠWedg wood
ĠStaphyl ococcus
Gouv ern
ĠáŀĩáŀľáŀĢ áŀİ
Ġtit les
Ġfib res
ĠSamm o
ĠBla ise
ĠDed ede
owe Ã¯t
Ġram med
Ġspont aneous
Ġunus ual
Ġadj acent
Ġjour ney
àº½ àºĩàº
Ġindigen ous
Artic les
Ġrestaur ants
Ġpredecess or
à¸Ĳà¸ļ à¸²à¸¥
Ġsymmet ry
Bec ause
Bill board
Bios ecurity
Bapt iste
Hisp aniola
ĠsÃ³ lo
espec ially
ĠSold ier
ĠSils bee
ĠTih anyi
omint ang
ĠAraf at
ĠMuss olini
ĠRousse au
ĠBost on
otrac he
ĠHÃ´ tel
ĠIUC N
umib ol
ĠLaus anne
ĠLump ur
Ġshrun ken
verham pton
Ġprett y
Ġprecis ely
Lebens raum
UNCIN PEC
ĠMontaign e
Ġsacrific es
ĠBayinna ung
Ġtrichothec enes
! '
" +
" â
" ><
# ,
' )
' ;
' </
) ]
) âĢĿ
) Â»
. (
. ")
0 30
2 40
4 30
4 86
6 18
7 30
> "
> &
> (
> '</
? ?)
A H
A BC
A merigo
B T
B ound
B ack
B rad
B Ã¬nh
C art
C ase
C oll
D F
D as
D iv
D ear
D ue
D NA
D esp
D epending
E mp
E LISA
E ye
F our
F ire
F orm
G al
H z
H id
H ow
H ong
H ans
H Ã¼
I m
I ng
I EC
I ON
J on
J ay
K H
K an
K ad
K az
K PNLF
L C
L i
L u
L y
L os
L uc
L og
L atin
M D
M M
M ac
M os
M art
M inh
M inist
M edia
N P
N et
N ap
N ame
O H
O I
O m
O ften
P ad
P ub
P erson
P acific
Q uang
R h
R at
R ace
R oger
S D
S X
S ur
S um
S te
S elf
S everal
S outheast
S anskrit
S Ã´ng
S earch
T s
T am
T AN
T ibet
T orah
U F
U p
U se
U kraine
V P
W ar
W al
W ind
W alker
X X
Z ZA
] ;
a ired
b ow
b age
b ase
b oth
b ean
b ony
b endazole
c ia
c ore
c ite
c ult
c oy
c ock
c ouncil
c itation
c yclop
d ad
d ess
d ark
d irect
e er
f e
f os
f ood
f ather
f ried
f ibr
f iend
g on
g or
g ama
g mail
h ara
h ash
h uman
i ud
i pe
i osis
j ack
j ung
j iang
k u
k on
k ar
k ov
k heim
l ore
l ib
l ord
l ance
l ayer
m u
m ot
m ut
m ce
m ers
m use
n i
n um
n ame
o ag
o ise
o aca
p c
p ers
p ace
p ath
p oint
q l
r ill
r ary
r ism
r ice
s us
s ur
s un
s av
s ens
s ons
s ix
s yn
s hi
s elling
t u
t op
t ures
t own
t yp
t une
t amed
t ypes
u or
u id
v ices
w he
w id
w ire
x y
z es
z ar
¦ Ĥ
§ ļ
µ ·
Â ±
Å ¡
É ¡
Î ¼
Ñ Į
Ù Ī
â Ĩ
â Ļ
â ģĦ
â Ŀ¤
å Ħ
å Ĵ
æ ´
æ ·
æ ĭ
æ ŀ
ç µ
è ©
è «
Ġ Ø
Ġ ç
Ġ áŁĩ
Ġ ence
Ġ à¸ģà¸¥
Ġ à¦
Ġ Ïģ
Ġ à¹Ģà¸ŀ
Ġ á¸
Ĺ ı
Ġáŀ ½
Ġáŀ ¿
áŀļ áŀ£áŀŁ
áŀĵ áŀļáŀĩ
áŀĵ áŀļáŀī
áŀĵ áŀ°
áŀĦ áŀļáŀĩ
áŀĦ áŀĶáŀĳ
áŀĦ áŀļáŀĢáŀĶáŀļ
áŀĦ áŀļáŀĩáŀĢ
áŀĢ áŀıáŀĵ
áŀı áŀļáŀİ
áŀı áŀıáŀĺ
áŀı áŀĢáŀı
áŀı áŀ§áŀı
áŀı áŀĴáŀĵáŀī
áŀ· (
áŀ· áŁĲ
áŀ· âĢ¦)
áŀĽ áŀļáŀł
áŀĻ áŀħáŀĢ
áŀĻ áŀĳáŀĦ
áŀĺ áŀļáŀĬ
áŀĺ áŀĽáŀĦ
áŀĺ áŀľáŀļ
áŀ» (
áŀ» áŁĪ
áŀŁ áŀŁáŀĢ
áŀŁ áŀłáŀĶ
áŀĶ áŀĺáŀĢ
áŀĶ áŀĢáŀĬ
áŀĶ áŀľáŀĦ
áŁĭ áŀ»
ĠáŀĶ áŀļáŀł
Ġáŀĵ áŀĳ
Ġáŀĵ áŀī
Ġáŀĵ áŀĴ
Ġáŀĵ áŀĸáŀŁ
Ġáŀĵ áŀļáŀĶáŀı
áŁĩ áŁĸ
áŁĩ âĢĮ
áŁĨ áŁģáŁģ
ĠáŀĢ áŀıáŀĶ
ĠáŀĢ áŀľáŀĽ
áŁģ "
áŁģ áŀ»
Ġáŀĺ áŀļáŀı
ĠáŀŁ áŀħáŀĺ
Ġáŀĳ áŀĻ
Ġáŀĳ áŀł
Ġáŀĳ áŀŁáŀĵ
ĠáŀĬ áŀĶáŀİ
áŀ¸ áŁĭ
Ġáŀĸ áŀĻáŀĢ
áŀľ áŀĺáŀĢ
áŀľ áŀ¢áŀŁ
áŀľ áŀķáŀĽ
áŀľ áŀ±áŀĦ
áŀľ áŀĵáŀĢáŀĽáŀĵ
áŁĤ áŀ¶áŁĨ
Ġáŀ¢ áŀ¡áŀŁ
áŀĳ áŀĴ
áŀĳ áŀľáŀĦ
áŀĳ áŀļáŀŁáŀĺ
áŀĳ áŀĵáŀĢáŀĺ
áŀĸ áŀ¢áŀĦ
áŀĸ áŀļáŀĽ
áŀĸ áŀħáŀļ
áŀĸ áŀ¯áŀĢáŀļ
áŀĸ áŀ¯áŀĢáŀĩáŀĵ
Ġáŀħ áŀļáŀı
áŀĤ áŀ¢áŀĦ
Ġáŀļ áŀĶáŀĵ
Ġáŀļ áŀĻáŀĢ
Ġáŀļ áŀĶáŀī
áŀ½ áŀ¼
áŀī áŀĽáŀĦ
áŀī áŀļáŀİáŀĻ
ĠáŁĶ .
áŁħ áŁĩ
Ġáŀı áŀĽ
Ġáŀı áŀĸ
Ġáŀı áŀĶáŀĦ
Ġáŀı áŀĺáŀĵ
ĠáŀĤ áŀľ
ĠáŀĤ áŀľáŀĺ
áŀĩ áŀĢáŀı
áŀĩ áŀŁáŀī
áŀĩ áŀļáŀİáŀĻ
áŀĬ áŀļáŀĢ
áŀĬ áŀŁáŀĺ
áŀĬ áŀŁáŀĺáŀİ
Ġáŀģ áŀĻáŀī
áŀ¹ áŀ¶
Ġáŀł áŀĦáŀħ
ĠáŀĽ áŀĸ
áŀģ áŀĴ
áŀģ áŀļáŀĳ
áŀł áŀł
áŀł áŀĢáŀļ
áŀĴ áŀĽ
áŀĴ áŀĩ
áŀĴ áŀĴ
áŀĴ áŀļáŀĬ
áŀĴ áŀļáŀľ
Ġáŀľ áŀľ
áŁı áŁĪ
áŀ¢ áŀł
ĠáŀĻ áŀĸáŀİ
áŁī áŁĭáŀ¶
áŀ¡ áŀľáŀħ
Ġáŀķ áŀĶ
áŁĢ áŁĶ
áŁį áŁĭáŁĸ
áŀļáŀĢ áŀĢáŀŁ
Ġ( (
Ġ( /
Ġ( Â«
áŀļáŀŁ áŀĳ
áŀĭ áŀŁáŀı
áŀĭ áŀŁáŀĢ
áŀļáŀĶ áŀĸ
áŀļáŀĶ áŀĴ
áŀļáŀĶ áŀĢáŀĤ
Ġt all
Ġt ight
Ġt ib
Ġt ense
Ġt ape
Ġt ips
Ġt enth
Ġt ears
Ġt iny
Ġt apeworms
Ġt ennis
áŀļáŀĸ áŀļ
Ġ) -
Ġ) [
in ol
in ally
in ae
in als
in ternational
Ġa ud
Ġa ure
Ġa pe
Ġa Ã±
Ġa ids
Ġa eration
Ġáŀİ áŀĻ
he imer
Ġáŀ¯ áŀĻ
Ġáŀ¯ áŀĩ
Ġáŀ¯ áŀ¢áŀī
Ġáŀ¯ áŀľáŀħ
Ġáŀ¯ áŀĤáŀłáŀĶáŀı
áŀļáŀĺ áŀĺ
Ġáŀ¡ áŀĻ
Ġáŀĥ áŀı
on ed
áŀļáŀĳ áŀĢáŀŁ
áŀļáŀİ áŀļ
áŀļáŀİ áŀľ
áŀļáŀİ áŀ«áŀĳ
Ġáŀ¬ áŀĢáŀĺ
Ġáŀ¬ áŀľáŀħ
áŀŁáŀĵ áŀĵ
áŀľáŀı áŀŁ
re z
re th
ĠáŀŁáŀı áŀĶ
ĠáŀĢáŀĺ áŀļáŀĺ
an as
Ġo tras
at re
at ent
at ra
at rix
ĠáŀĶáŀļ áŀľ
áŀĤáŀı áŀĬ
ĠáŀĻáŀĢ áŀļ
ĠáŀĻáŀĢ áŀĽ
ĠáŀĻáŀĢ áŀĢáŀĺ
ĠáŀĻáŀĢ áŀıáŀĶ
is ive
áŀĶáŀĵ áŀŁ
Ġ" :
Ġs ad
Ġs ect
Ġs age
Ġs ust
Ġs ans
Ġs ick
Ġs ole
Ġs ongs
Ġs ession
Ġs olve
âĢ ¹
âĢ º
âĢ İ
ar ity
ar agua
al m
al p
al u
Ġc el
Ġc ro
Ġc um
Ġc ry
Ġc ave
Ġc ual
Ġc ash
Ġc ars
Ġc aged
Ġc iting
Ġc aves
Ġc ups
Ġc razy
it ious
it ration
it ched
it chen
áŀĨ áŀĦ
or pe
or Ã©
or ates
or sey
ed it
áŀĢáŀļ áŀļ
Ġáŀĩáŀĵ áŀļáŀĺ
Ġáŀĩáŀĵ áŀĤáŀĶ
áŀŁáŀĺ áŀĤ
Ġw ra
Ġw olf
Ġw inter
Ġw ait
Ġw ounded
Ġw ishes
Ġw inters
ĠáŁ¤ áŁ©áŁł
ĠáŁ¤ áŁ©áŁ¢
ĠáŁ¤ áŁ©áŁ§
nd inya
Ġáŀĺáŀł áŀĶ
áŀĽáŀĶ áŀĽ
áŀĻáŀĢ áŀĢ
áŀĻáŀĢ áŀŁ
ic on
ic er
ic ing
ic ates
ic ca
Ġin land
Ġin ference
Ġin scribed
Ġin appet
Ġin effective
ĠáŁ¥ áŁ©áŁ£
ĠáŁ¥ áŁ©áŁł
ĠáŁ¥ áŁ©áŁ¦
ĠáŁ¥ áŁ©áŁ§
Ġáŀ§áŀĶ áŀłáŀĽ
Ġp i
Ġp iv
Ġp our
Ġp ier
Ġp iles
Ġp icorn
Ġp inyin
Ġf it
Ġf og
Ġf iss
Ġf right
Ġf ont
Ġf ried
Ġf aced
Ġf acebook
Ġf inger
Ġb ac
Ġb ag
Ġb ell
Ġb rit
Ġb oot
Ġb iology
Ġb arb
Ġb alls
Ġb amboo
ing ers
áŀ¯ áŀĴáŀĵáŀī
Ġd uct
Ġd oll
Ġd ors
Ġd iversity
Ġd roop
Ġd ÃŃa
Ġd rier
áŁ¡ áŁ©áŁł
ou c
ou ds
ou ver
ou ched
el on
el ing
el ines
ĠáŀħáŀĦ áŀĹ
Ġm att
Ġm ouse
Ġm und
Ġm atch
Ġm oult
Ġm arch
Ġm ats
Ġm aps
Ġm urd
Ġm Äģt
Ġm antra
Ġm igration
il ers
il avan
áŀĻáŀŁ áŀıáŀĳ
áŀĽáŀĦ áŀ¢áŀĦ
ro f
ro it
ro oms
ro be
ro asi
áŀ·áŁĩ ,
áŁ¥ áŁ£
ĠC I
ĠC X
ĠC ou
ĠC ec
ĠC out
ĠC ob
ĠC ros
ĠC orn
ĠC LI
ĠC ON
ĠC lear
ĠC BS
ĠC rane
ĠC áº£i
ĠC á»Ń
ĠC annes
ĠC attigara
ĠC utter
ĠC itizen
áŁİ ,
áŁİ áŀ¶áŁĩ
áŁ¢ áŁ¡áŁ¡
ent rism
Ġl ux
Ġl icense
Ġl umen
ĠS ul
ĠS our
ĠS ep
ĠS ung
ĠS oul
ĠS ale
ĠS ats
ĠS yd
ĠS earch
ĠS QL
ĠS agin
ĠS ociology
ĠS arkozy
ĠáŀĦ áŀļáŀ¡
áŀľáŀĢ áŀĶáŀļ
áŁ£ áŁłáŁł
áŁ¤ áŁ£
áŁ¤ áŁ¨
ĠT ree
ĠT rench
ĠT ake
ĠT ao
ĠT oo
ĠT OM
ĠT rophy
ĠT áº¡o
áŁ¨ áŁ¤
Ġh u
Ġh oy
Ġh udd
Ġh ind
Ġh az
Ġh Ã²a
Ġh omin
Ġh ref
Ġh alls
Ġh ospital
ĠáŁ§ áŁłáŁłáŁłáŁł
ĠáŁ¨ áŁ£áŁł
ev an
ev al
ev ant
ev ated
ac o
ac s
ac re
ac her
ac if
ac les
ĠáŀļáŀŁ áŀĴáŀĺ
om u
om bo
om eter
om iting
áŁ§ áŁ©
am ilitary
am orph
ec hes
ec rotic
ĠA L
ĠA j
ĠA us
ĠA head
ĠA uthor
ĠA quinas
Ġ[ ]
Ġ[ $/
áŀĶáŀħ áŀı
ĠÂ ©
ĠÂ ĵ
ĠÂ ļ
ĠÂ Ľ
ĠáŀŁáŀĺáŀİ áŀŁáŀĢ
ol and
ol io
et yl
ĠM ut
ĠM ann
ĠM az
ĠM yc
ĠM aul
ĠM oney
ĠM osquitoes
ĠM ilitary
ĠM ystic
áŀĢáŀĵ áŀļáŀĢ
áŀľáŀĵ áŀļ
Ġre pt
Ġre ass
Ġre act
Ġre ared
Ġre nov
ĠáŀŁáŀł áŀĤáŀı
oc ol
oc ard
oc kh
oc ello
oc lass
oc entrism
os h
os it
os ion
os fer
os ex
áŀľáŀļ áŀĩáŀĵ
Ġn our
Ġn ep
Ġn ipp
Ġn bsp
Ġn aturally
ĠR R
ĠR us
ĠR ain
ĠR ight
ĠR ib
ĠR oy
ĠR oss
ĠR AN
ĠR ager
ĠR OV
ĠR uby
ĠR á»ĭa
ĠB E
ĠB ed
ĠB ou
ĠB os
ĠB ak
ĠB og
ĠB orm
ĠB rans
ĠB orn
ĠB ert
ĠB io
ĠB á»Ļ
ĠB ront
ĠB oyle
ĠB odhi
ĠB rawler
ĠB MW
ĠE ater
ĠE lder
ĠE uler
Ġ2 19
Ġ2 18
Ġ2 13
Ġ2 26
Ġ2 27
Ġ2 21
Ġ2 22
Ġáŀ¢áŀĢ áŀıáŀľ
ur on
ur er
ur un
ur ian
ur rect
áŀģáŀİ áŀĶ
ul ina
ĠP A
ĠP u
ĠP os
ĠP ow
ĠP ang
ĠP att
ĠP ox
ĠP iperazine
ĠáŁ¡áŁł áŁ©áŁ¤
id erm
ig u
ig raph
ig ger
im p
im ic
im ov
im ore
im edia
im oto
im iento
áŀĢáŀħ áŀħáŀĢ
Ġáŀ§áŀĳ áŀĻáŀĹ
ot ions
ot hai
ad ra
ad ors
Ġ! )
Ġ! ..
ly mouth
Ġg ap
Ġg our
Ġg ender
iv ari
Ġe uro
Ġe pid
ĠD re
ĠD ol
ĠD ow
ĠD um
ĠD ab
ĠD ust
ĠD ai
ĠD up
ĠD err
ĠD anish
ĠD mit
ĠD PR
ĠD harm
ag ar
ag ara
ag ues
ĠH A
ĠH I
ĠH s
ĠH it
ĠH av
ĠH and
ĠH ear
ĠH ied
ĠH aut
ow ling
ĠI van
ĠI cedrake
ut r
áŀĩáŀĢ áŀİ
ĠF ine
ĠF ish
ĠF USI
ch t
ch lor
áŀ§ áŀĺ
áŀ§ áŀĹáŀı
Ġfor get
áŀŁáŀĢ áŀľ
áŀĢáŀļáŀİ áŀľ
od os
od ium
od enum
ĠáŁ¢áŁł áŁ¢áŁ¥
em e
em ark
em ble
un as
un ong
un ning
st ers
st ra
st ep
st ates
ist on
ist es
ist ers
ist hot
ĠâĢĿ ,
ĠâĢĿ áŁķ
um my
ĠG C
ĠG am
ĠG ra
ĠG ao
ĠG aut
ĠG EN
ĠG olf
ĠG ulf
ĠG anges
ĠG raham
ĠG endarmerie
Ġáŀ¢áŀĶ áŀĬ
Ġáŀ¢áŀĶ áŀĤáŀĺáŀĵ
Ġáŀ¢áŀĶ áŀĤáŀĸ
Ġcon gen
ĠL G
ĠL or
ĠL ay
ĠL av
ĠL ak
ĠL Ã©
ĠL ines
ĠL ook
ĠL iving
ĠL ava
ĠL ux
ĠL abs
ĠL áºŃp
ĠL EXUS
Ġáŀ£ áŀł
Ġáŀ£ áŀĹ
ĠáŁ¡áŁ¥ áŁ©áŁ¦
ĠáŁ¡áŁ¥ áŁ©áŁ§
Ġon t
Ġon going
Ġbe etle
ĠK l
ĠK re
ĠK ew
ĠK ha
ĠK ath
ĠK hao
ĠK á»³
ĠK uala
ĠK oweÃ¯t
ter ing
ra id
ra ult
Ġv est
Ġv ern
Ġv oy
Ġv entric
Ġv ernal
ĠN Y
ĠN est
ĠN ormal
ĠN othing
ĠN iger
Ġáŀ« áŀĩ
ĠáŁ¡áŁ¢ áŁłáŁłáŁł
ĠáŁ¡áŁ¢ áŁ¡áŁł
ĠáŁ¡áŁ¢ áŁ©áŁł
ĠáŁ¡áŁ¢ áŁ©áŁ§
ĠW ell
ĠW ide
ĠW asp
ĠW itt
ĠW isdom
ĠW arder
ĠÂ» (
Ġst im
Ġst ation
Ġst ating
Ġst ressed
Ġst aged
Ġst rike
Ġst adium
Ġst ilted
áŀĦáŀļáŀĢ áŀĥ
Ġ19 1
Ġ19 08
Ġ19 07
Ġal ive
Ġal leg
Ġpro sp
Ġpro ceed
if eration
Ġor nam
Ġor ient
av o
av our
av ian
and ha
Ġan te
Ġan terior
áŀĤáŀĢ áŀİ
est ro
est ablished
Ġwh itish
ĠáŁ¡áŁ¡ áŁ©áŁ¢
ov al
ov ing
ĠEv ent
ĠEv oker
ĠáŀĴáŀĵ áŀĶáŀı
Ġáŀ¢áŀľ áŀĻ
ĠáŁ¡áŁ¤ áŁ¡áŁ£
ĠáŁ¡áŁ¤ áŁ¡áŁ¨
ĠáŁ¡áŁ¤ áŁ¢áŁł
ĠáŁ¡áŁ¤ áŁ©áŁ¦
ant o
ant om
uc he
uc iÃ³n
ab ri
ab we
ab led
ry er
ĠEvil P
ĠEvil Ab
ĠEvil Ant
ĠEvil Ur
ĠEvil Zombie
Ġde port
Ġde ploy
ĠáŁ¡áŁ¦ áŁ¡áŁ¢
ĠáŁ¡áŁ¦ áŁ¡áŁ¥
ĠV el
ĠV ang
ĠV ile
ĠV ert
ĠV itz
ĠV eteran
ĠV OA
ĠV ariable
ĠJ er
ĠJ Ã©
ĠJ ordan
ĠJ esus
ĠJ uggernaut
res ult
res vara
ain ts
eg u
ak ar
ak awa
áŀ¶áŁĴ áŁĭ
ong se
ong ated
ran ces
ran uclear
ran ny
rom ancer
ĠáŁ¡áŁłáŁł áŁ©
ap ar
ap art
ap raj
ment al
ĠCar Ch
ĠCar Inf
ĠCh oe
ĠCh rome
ĠCh aser
ĠCh ulalongkorn
ore nce
áŀĴáŀı áŀŁ
ri ot
ri pe
ĠáŁ¡áŁ§ áŁ©áŁ¡
ld og
og h
og ne
og ene
og enes
ate board
Ġr ises
Ġr ushed
Ġex port
Ġex term
ĠO ri
ĠO wn
ĠO ften
ĠO rient
ĠO TAN
Ġat axia
ĠáŀļáŀĲ áŀĶ
ĠáŀļáŀĲ áŀľ
our ation
Ġy og
Ġy ugen
ĠU pp
ĠU bon
pp e
ĠáŁ¢áŁ¥ áŁ¡áŁ©
pt a
Ġsp ore
Ġsp out
Ġsp ans
Ġsp ouse
Ġsp ring
Ġsp itting
Ġsp onsored
Ġus o
ous ing
Ġch a
Ġch amb
Ġch amp
Ġch ancre
Ġch illi
Ġ... .
Ġ... Â»
ren cy
Ġnot es
Ġ/ -
ast ers
ha ust
ha zard
ha uer
ĠáŁ¢áŁ¤ áŁ©áŁ¢
ĠáŁ¢áŁ¤ áŁ©áŁ¨
Ġform ats
Ġform idable
Ġinc lu
ff e
ff er
áŀĵáŀļ áŀ§áŀŁ
Ġar cher
Ġwor n
Ġcan nib
ik istan
áŀĢáŀĹ áŀĸ
ct ica
ph os
ph orn
ub a
à¸² à¹Ģà¸Ľ
pl et
pl ay
Ġdis k
Ġdis par
Ġdis put
Ġdis ruption
Ġdis appoint
áŀıáŀķáŀĽ áŀŁ
Ġ4 40
ĠTh o
ĠTh orn
ĠTh ief
ĠTh ani
ber us
iz able
iz aciÃ³n
iz umi
ĠáŀĻáŀıáŀĵ áŀŁáŀĶ
áŀŁáŀĲ áŀĵ
áŀŁáŀĲ áŀĳ
rit z
Ã© on
Ã© st
Ã© phore
Ã© union
Ġun ilateral
Ġun related
Ġun ripe
angu ages
ĠáŀĻáŀŁ áŀľáŀı
ĠSt at
ĠSt rad
ĠSt unt
ĠSt ewart
ĠSt umper
ass el
ass ac
áŀĵáŀĢáŀĳ áŀĺ
Ġint act
hen ol
hen ce
act ically
Ġ6 16
ip ation
ip ality
Ġim it
Ġim mort
Ġim aging
ĠáŀĢáŀĽ áŀĽ
Ġsh irt
Ġ18 7
Ġ18 8
Ġ18 40
Ġ18 26
Ġ18 28
Ġ18 92
Ġ18 33
Ġ18 94
Ġ18 31
Ġ18 88
Ġ18 49
Ġ18 48
Ġ18 84
Ġ18 55
Ġen closed
ep heap
ĠáŁ¥áŁł áŁ¨
ok u
iet ro
Ġcl Ã¡sico
Ġcl oaca
Ġcl oned
ond ing
ond uct
á» ķ
any a
Ġad he
Ġad ds
Ġad apt
amb a
ĠY e
ĠY as
ĠY ale
ĠY uri
ĠY ourself
ress es
Ġáŀĳáŀı áŀĥ
erm ons
Ġfe ud
ram id
ens ing
ens ions
Ġpr agmat
Ġpr Ã©st
Ġcons ult
Ġcons ole
rain ing
Ġag glutination
áŀĩáŀĺ áŀĽ
Ġcomp lement
Ġab road
iss ue
ll i
Ġph one
Ġph Ã³ng
ail ey
ric ulum
Ġtr ouble
Ġdes k
Ġdes ert
Ġdes de
Ġdes ires
Ġdes iring
Ġper o
ĠAn h
ĠAn cient
ĠAn alysis
ĠAn thony
olog ne
à¸ģ à¸Ļ
à¸ģ à¸İ
Ġ14 3
Ġ14 4
Ġ14 6
Ġ14 8
Ġel ites
ah ua
ah oma
Ġqu oted
ath an
ath ir
Ġcent red
lic t
In stit
In fectious
In vest
Ġj e
Ġj u
Ġj ars
Ġle isure
ĠáŁ¦áŁł áŁ¢
br al
ĠPh ill
ĠPh Ãº
ĠPh antom
ob le
we alth
ler c
Ġpre cious
ffect ed
hed ge
Ġ?" "
]] "
ai ya
ĠHe zb
âĢ¦ .
Ġcaus ative
Ġcaus tic
Ġreg ent
à¸Ń à¸ļ
ener ate
àº ¥
àº ģ
àº ŀ
10 5
10 9
Ġsign ing
Ġem otions
are z
ĠAr cher
oph ores
Ġover l
Ġover whel
Ġrec overed
Ġind o
Ġind eed
Ġgr asping
ĠDr uid
az ing
az olid
Ġwhen ever
ĠZ ia
ĠZ heng
ĠZ imb
Ġinv ading
gan e
Ġprov ision
Ġbl amed
18 5
18 9
att an
att ambang
ier ra
Ġwater ers
ĠAl i
ĠAl tern
ĠAl chemist
ros p
Ġworld s
Äģ d
Ġspec ified
Ġspec ify
à¸¡ à¸Ĺ
Ġam rita
ont iac
rib le
ĠCom ment
its ky
int eg
áŁ¡áŁł áŁ¢
arm en
Ġcount ies
Ġsub tle
Ġsub stances
Ġsub group
à¸¥ à¸¥
11 6
form ed
sp ring
Ġinter m
Ġinter collegiate
ĠDragon L
Ġ17 1
Ġ17 3
Ġ17 4
Ġ17 8
Ġ17 9
Ġ17 90
Ġ17 92
ĠMar ia
Ġdep ict
Ġdep ressed
Ġ0 90
Ġ16 3
Ġ16 4
Ġpo ems
ert z
ert iary
acter ial
ull a
Ġact ors
Ġact ively
ĠáŁ¤áŁ¢ áŁłáŁł
Ch ronic
Ch inese
Ch icken
Ġne o
Ġdevelop ers
bo ad
bo hyd
bo oks
ĠSoda T
Ġcommon ers
Ġ15 1
Ġ15 3
Ġdec imal
ĠSh ig
ĠSh annon
iam ine
ise ased
à¸¢ à¸¡
ĠáŁ¡áŁ¥áŁł áŁ§
Ġmod ification
áŁ¡áŁ£ áŁ¡
à¸Ļà¸ Ī
à¸Ļà¸ ļ
Ġdist ant
ĠáŁ¨áŁ¤ áŁ§
ĠáŁ¨áŁ¤ áŁ©
Ġass ets
Ġass ault
Ġass isted
áŀľáŀĳ áŀłáŀŁ
lu id
ara wak
áŁ¡áŁ¦ áŁ¤
ĠáŀĶáŀľ áŀļáŀłáŀı
Ġpres umpt
aw ing
áŁ¡áŁ¨ áŁ¦
ĠáŁ¤áŁ¤ áŁ¦
à¹Ħ à¸§
áŀĢáŀļáŀĢ áŀĥ
Ġman ual
ink i
Ġred isc
áŀŁáŀł áŀĺáŀĩ
ĠSp r
ĠSp ray
ĠSp ider
ĠSp awn
ĠSp iller
ĠSp indly
13 5
und red
Ġáŀ¢áŀł áŀłáŀĵ
elf are
ĠSe izing
ĠSe eker
ĠPar sons
Ġco enz
Ġco arse
ĠáŁ¥áŁ¥ áŁ¤
201 0
ĠBe ater
ĠBe aux
ĠBe autiful
Ġpar atroop
ĠáŁ¤áŁ¨ áŁ¨
ĠáŁ¦áŁ¥ áŁ¢
ĠáŁ¦áŁ¤ áŁ¥
Ġdifferent iation
Ġdifferent iated
Ġcol ib
ĠChan el
ĠCon versely
Ġconst ants
ett i
ett lement
Ġserv ants
ĠáŁ¥áŁ¤ áŁł
ĠáŁ¥áŁ¤ áŁ§
ilit ation
Ġest ate
els inki
acc a
acc aka
rat ic
ĠáŁ¥áŁ¢ áŁ¢
ĠáŁ¥áŁ¢ áŁ£
ĠáŁ§áŁ¥ áŁ£
ĠáŁ©áŁ¤ áŁ¢
Ġend s
Ġend os
Ġend emic
ĠGT R
oid s
oid al
ĠáŁ¥áŁ¦ áŁ£
ĠáŁ¥áŁ¦ áŁ¤
ĠáŁ¥áŁ¦ áŁ¨
ĠáŁ¥áŁ¦ áŁ§
Ġcre vices
ĠáŁ¤áŁ§ áŁ¡
ĠáŁ¤áŁ§ áŁ¢
Ġhist opathology
Ġext rav
ĠáŁ¥áŁ£ áŁ¡
ĠáŁ¥áŁ£ áŁ¦
ĠáŁ¥áŁ£ áŁ§
ĠáŁ©áŁ¡ áŁ¢
ĠáŁ¨áŁ§ áŁ¦
Ġdesign ers
Ġdesign ated
ĠáŁ¡áŁ¨áŁ§ áŁ§
Ġ13 4
Ġconsid ering
Ġimportant ly
ta ire
à¸ķ à¸²à¸¢
ĠAnd ers
Ġ25 5
Ġ25 7
Ġ25 01
ĠáŁ¤áŁ¦ áŁ¤
emb ourg
Ġed ible
áŀĹáŀľ áŀľáŀĺ
ĠIs sara
25 6
ĠáŁ¥áŁ§ áŁ¥
ĠáŁ¥áŁ§ áŁ¦
ÃŃ c
Ġpublic ation
Ġdel eg
ĠáŁłáŁł áŁ¡
hu nder
áŀĵáŀĤ áŀļáŀĢ
à¤ ¥
à¤ ¸
hem ical
Ġmill enn
ĠAD HOC
Ġte eth
ĠáŁ¡áŁ¨áŁ¤ áŁ¦
yl ine
Ġmet amorph
ĠáŀĩáŀĬ áŀĭ
ĠPr ague
ĠPr ivate
ÄĲ áº¡i
Ġfil th
ĠPl aton
Ġret ained
Ġret rovirus
Ġret rospect
Ġclass ics
à¸ļ à¸ŀà¸¥
Ġdisc rim
ĠGu inea
ĠGu evara
lo ating
ĠáŁ¦áŁ§ áŁł
Ġ24 2
Ġ24 3
Ġ24 4
Ġ24 6
ĠáŁ©áŁ¥ áŁ¦
Ġsom nol
ĠFor bes
Ġstr ings
Ġide ology
Ġlingu a
ham ilavan
Ġsl aves
ĠSw ord
ĠáŁ§áŁ§ áŁ©
ĠáŁ¦áŁ¦ áŁł
ĠáŁ¦áŁ¦ áŁ¡
ĠáŁ¦áŁ¦ áŁ¤
ĠáŁ¦áŁ¦ áŁ§
oci ated
Ġher self
Ġtrad ers
Ġsuc ceed
Ġcor rupt
Ġcor poration
Ġdet ection
Ġdet rim
ĠáŁ§áŁ¢ áŁ¤
Ġsmall est
Ġant igen
áŀĺáŀļáŀİ áŀŁ
ĠMah rez
Ãª te
Ġleg acy
ĠáŁ§áŁ¨ áŁ¨
Ġec li
... âĢĿ)
ired rake
Ġins urrect
ĠSu kh
ĠWh isper
áŀĢáŀ¢ áŀłáŀĦ
Ġoffic er
ĠSc andin
ĠSc olex
ush i
ĠEx change
ĠáŁ¡áŁ§áŁ¨ áŁ¤
aut y
aut onomous
atic an
Ġprom ised
ĠGi áº£i
à¹ĥ à¸Ī
Ġcomb ustion
Ġfore ver
epend ence
Ar ch
ĠCl aus
ĠCl iff
ĠCl ostridium
ential ism
ĠEn chan
ĠEn abling
ĠáŁ¡áŁ¥áŁ¤ áŁ§
Ġorig en
ĠáŁ¡áŁ¨áŁ£ áŁ¥
ĠáŁ¡áŁ¨áŁ£ áŁ¨
ĠáŁ¡áŁ¨áŁ£ áŁ§
Ġ28 5
Ġ28 6
IC P
ĠAd v
ĠáŁ©áŁ£ áŁ¤
ĠáŁ©áŁ£ áŁ§
ĠDe b
à¹ģ à¸Ĺ
à¹ģ à¸«à¸¥
ĠáŁ¡áŁ¤áŁ¤ áŁ¡
ĠáŁ¡áŁ¤áŁ¤ áŁ¨
St ation
St ates
à¸Ī à¸ŀà¸£à¸°
Ġless ons
urs ed
ĠáŁ¨áŁ£ áŁ¤
Ġ23 5
Ġ23 8
Ġspe eches
Ġconf ined
Ġáŀĵáŀĸ áŀ«áŀĢ
ĠáŁ¨áŁ¦ áŁ¤
ĠáŁ¨áŁ¦ áŁ¦
ĠáŁ¡áŁłáŁ¢ áŁ¨
ĠáŁ§áŁ£ áŁ¡
ĠáŁ§áŁ£ áŁ¥
ĠáŁ§áŁ£ áŁ¤
Ġprot est
ĠáŁ©áŁ§ áŁ¨
ĠáŁ©áŁ§ áŁ©
Ġelect roly
Ġevery one
Ġlaw yer
col oured
Ġfin est
ĠáŁ¡áŁ£áŁ¨ áŁł
ĠáŁ¡áŁ£áŁ¨ áŁ¥
ĠáŁ¡áŁ£áŁ¨ áŁ¨
ĠÄĲ á»ĳc
ĠÄĲ á»Ļc
ĠPol o
ĠPol icy
Ġown ers
ici encies
Ġdown load
ĠTur key
of lav
Ġpass es
Ġval id
Ġval ves
Ġphys i
Ġphys icians
Ġ27 5
Ġ27 7
ĠáŁ¡áŁłáŁ§ áŁ¢
ĠáŁ¢áŁłáŁ¦ áŁ£
Ġstat istical
ĠáŁ¡áŁ£áŁł áŁ¨
ĠáŁ¡áŁ£áŁł áŁ§
Ġhand ed
ĠáŁ¡áŁ¢áŁ¨ áŁ¡
Ġexpl or
Ġexpl oring
ĠEd gar
ĠEd mund
ĠUN ICEF
Ġdevelopment al
ĠáŁ¡áŁ¤áŁ¢ áŁ¨
ĠáŁ¡áŁ¤áŁ¢ áŁ§
áº¡ n
à¸Ħ à¸³
Ġmeth yl
ĠAt hens
Ġgu inea
Ġstudy ing
áŀĢáŀľáŀļ áŀĩáŀĵ
Ġback yard
Ġmat ernal
omm od
ĠáŁ¡áŁ¤áŁ¨ áŁ¢
Ġprim itive
Ġ26 2
Ġ26 9
ĠNg or
ĠNg uyÃªn
ĠáŁ¡áŁ¥áŁ§ áŁ¡
Ġland ed
etic ism
Ã± a
ele ine
Ġreal ize
Ġ196 4
eter akis
Ġadminist rator
Ġáŀ¢áŀľáŀı áŀĢ
fl ammation
Ġbreed s
ĠCarS helby
EN S
Ġplay ing
ĠSy philis
ĠAm itabha
Ġgram Ã¡tica
ĠSal an
ĠáŁ©áŁ© áŁł
Ġemb od
Ġemb ass
Ph one
Ph ilosoph
Un ion
ĠApp rentice
Ġthink er
Ġsimilar ly
gl om
Ġdu odenum
ĠSm iter
ĠSm asher
Ġpath ogen
ĠTw elve
Ġadv ocated
ĠQu ality
Ġrev enue
Ġann ually
Ġann ih
Ġann iversary
ĠCor rupt
ĠSch olasticism
ĠSch izonts
ĠAng el
Ġvis iting
bl ast
atth u
Ġdev ised
Ġdev ote
Ġimm ature
Ġimm ortality
Ġabs orb
pa ing
ä¸ ¦
ä¸ ī
Ġcivil ization
orrh agic
Ġlim iting
ĠáŁ¡áŁ¡áŁ£ áŁ©
à¸³ à¸¥
à¸³ à¸Ħ
Ġlist less
Ġlist lessness
SC AP
Ġpal m
Ġreb ell
Ġreb irth
Ġcirc le
áŁ¢áŁ¨ áŁ¦
ĠáŁ¡áŁ¦áŁ¦ áŁł
Ġ35 5
ĠáŁ¡áŁ§áŁ§ áŁ©
ews asia
Ġobject ed
Ġobject ives
Ãº blic
Ġpat ents
Ġperform s
val ides
cop rote
Æ° ng
ĠNe opl
Ġdest ination
ĠCo ast
Ġconv ex
Ġconv ened
ĠCarA muse
Ġenc uent
Ġprevent ed
af ety
ĠáŁ¡áŁ§áŁł áŁ¢
Ġrun s
Ġmeas uring
Ġeduc ator
gen as
gen stein
Ġaut omat
Ġche aper
Ġlight s
Sp irit
Ã¼ n
ĠáŁ¡áŁ¤áŁ¦ áŁł
Ġregard s
Ġrecogn ize
Ġess ence
ĠáŁ¡áŁ¦áŁ§ áŁ¢
ĠáŁ¡áŁ¦áŁ§ áŁ£
ĠCont ent
Ġgen res
ĠáŁ¡áŁ¦áŁ¥ áŁ¦
à¸²à¹Ħ à¸Ĺ
pro f
pro cess
Ġsev enth
Ġsch iz
Ġlo osely
Ad opt
IS O
Ġemer ge
ĠLi ang
Ġprinc es
Ġæ °
Ġæ ľ
Ġcr ust
Ġmechan ics
Ġmechan isms
aken ing
Ġrespons ibilities
ka a
Ġpoor ly
UN DP
áŀĶáŀĭ áŀľ
ĠMed al
ĠIm manuel
Ġfung us
à¸ł à¸²
à¸ł à¸²à¸¢
ĠMe as
ĠEvilD ev
ĠEvilD emon
Ġesc al
Ġesc ape
ĠGrand iÃ¨re
ä» ¤
ä» ¥
Ġtax ation
ĠMag ician
ĠMont agu
Ġnever theless
Ġi Phone
Ġport rayed
Ġpron ounce
Ġlarv icide
Ġconcern ing
Ġ01 6
Ġsel ection
Ġsel dom
arb itration
ĠBr and
con n
Ġran king
ĠHo Ãłng
Ġenv eloped
ĠCommun ications
äº ¤
reg ister
Ġtend s
akh stan
Ġund igested
Ġ186 7
á»ĭ ch
ĠEvilG ryphon
Ġconsist ently
Ġoccup y
Pro to
lad esh
Ġtext ual
Ġsan itis
Ġsan itiz
ĠMad ness
ĠInt ramural
Ġapplic able
Tr Ãł
cont rolled
Ġsol ely
Ġsol utions
oud ite
antic ore
Ġspray ers
Ġamb itions
Ġchem ist
Ġprob able
ĠEvilN aga
Ġsubject ive
Ġaccept able
AR A
Is lam
Is olation
pre ahmÃ¢
Ġer an
Ġer as
Ġer ected
Ġer ectus
Ġbi ography
Ġsoft ening
Ġdecre asing
itter ing
Ġmix es
ĠPhot ographic
Ġemploy ees
hyd ration
Ġdro ve
ĠEvilM ellinan
Ġtrac he
Ġmedia eval
Ġbhikkh u
Qu Ã¢n
á¹ ĩ
æ² »
Ġden ies
ĠSa oudite
usion ist
ĠVir idiplantae
Ġexc luded
à¥ ģ
ïģ Ĭ
Ġcontrast ive
ĠTerr ace
Ġphon ation
ĠAssoci ated
Bl ue
ĠAv ian
ĠDes ign
ĠVan isher
ĠJac kson
ĠJava Script
ĠInf rastructure
ĠProt ection
Ex t
ser otype
ĠNic Ã©phore
Am ong
CC RC
ĠCO OP
Ġlib eration
ĠTim eline
ĠTim berwolf
ĠTra paing
ĠVen ice
Re ich
Ġtour ist
Ġtour nam
Ġcreat es
Ġpot entially
Ġbur ied
Ġbur row
Ġbur den
Ġmouth parts
ĠCons ort
Ġconn ection
ĠOb ject
phon am
ĠConf eder
Ġapproach ing
Ġ{ {
Ġcer amic
ĠNor wich
Ġalg or
Ġalg unas
Ġcompil ation
spec ific
ĠHa ing
à¹ĥà¸Ļà¸ §
Ġfrequ ent
Cl ass
MO S
eff luent
ĠSub scribe
ĠAP T
ĠDi ego
Ġstop s
Ġstop ped
ĠEvilT unnel
ĠEvilT hunder
ĠLaw s
Ġsam adhi
ĠMill ions
Ġconqu ista
Ġalt itude
Äģn Äģ
Ġfinanc ed
Ab h
Ab raham
ĠMet a
Ġvers us
Ġcomment ary
Ã©d Ã©
Ã©p ublique
ĠSpec ies
Ġavoid ed
Ġrelationship s
å¾ µ
áŁĴáŁĭ áŀ»
isp here
ĠMor bidity
ĠLin ks
ĠNag orno
Ġimmed iate
Ġdesp uÃ©s
ĠÃī douard
ä¾ į
Ġop isthot
Ġpup al
Ġfran c
Ġver bal
ĠUnit arian
à¸£à¸²à¸ °
ĠSocial ist
Ġutil ization
éĦļ æ°ı
LT D
æĸ ¹
Ġpig s
Ġbound aries
ĠTig ress
ĠArab e
ĠMy SQL
Ġprem ier
Ġprefer ences
ĠPlay Station
Ġdiscuss ions
Ġpossess es
Ġopt im
Ġopt ical
ĠSl av
ĠSl ave
ĠSl ugger
ĠBas il
ĠHar ry
ĠFair child
Ġstar red
Ġdisappe aring
Ġcheck ing
Ġbusiness es
ID S
Äĵ nl
à¦ ¾
Ġseg mented
Ġburn er
open hauer
Ġdispl aced
Ġinterpret ations
ĠProgram ming
Ġdomin ance
aught ers
unosupp ression
Ġpen insula
Ġperm e
Ġperm it
ĠBrah min
ĠLib an
Ġprec ise
Ġprec urs
Sub ject
ĠAR MY
ĠHot el
ĠNav y
Ġpros ec
Ġinfl ation
à¹ĥà¸Ļ à¸ģà¸²à¸£
Ġcalc ulus
ĠTaiwan ese
Ġinvestig ating
æĽ ¾
ĠMil ky
ĠHor ror
Ġconver t
Ġveget arian
Ġste el
ĠStud ent
Ġvirt ually
Ang kor
Mon th
Sam uel
Ġcold er
ĠSel enium
Ġrepe aled
lem agne
ĠRod ents
ĠBro ccoli
ĠCarl ton
Ġelim ination
Ġgrand son
Ġconstrain ts
lie b
éĸ ĭå
Ġè ¥¿
ĠBet ween
Ġstrateg ic
Ġdehyd rated
ĠCarP ontiac
ibb ean
Ġflav or
Ġflav us
Ġevolution ary
Ġtransform ed
Ġtransform ations
ĠDef ense
ĠDef iciency
ĠHistor ians
Sy stem
Ġot ra
Ġfresh water
Ġmal nut
ĠRom ans
ĠEqu ilibrium
ĠGaz er
ĠWall ace
Ġgrant ing
Ġsubc ut
Bet ween
Jac ob
Ma ha
Ġïģ ¯
Ġpan icles
Ġfurn aces
ĠSil ver
ĠMu oy
ĠDiv ina
Ġprogress ively
ĠInv oker
Ġimmunosupp ression
log o
pop ular
à´ ķ
Ġ(âĢľ ...âĢĿ)
ĠSab reto
ĠDen mark
ĠUC SS
Ġwebs ites
Ġtrich omoniasis
ĠProcess es
Ġscreen ing
Ġparas itic
Ġparticip ants
à¸ĵà¸° à¸£
åĲ Į
Ġaf raid
Ġaudi ences
icard ium
Ġba iting
Ġmexic ano
ĠAk ira
ĠWater y
Ġpurch ased
Ġhappen ed
Bo eng
Ġrib s
Ġrib bon
Ġsever ely
Ġpra ised
Ġpra jna
ĠCatal an
ĠCatal onia
ĠTel egraph
amic in
amet ers
ĠAff air
ĠAgre ements
Ġnod ular
Ġgent ry
Ġvert ical
Ġansw er
Ġansw ered
ĠJu if
ĠChap man
ĠIns ecticides
Ġimper ative
Ġinfest ations
ĠPhys iological
Ġprev ailing
ĠSpor ozoites
Ant ibiotics
ĠSorcer er
Ġglottal ized
Nor odom
Î³ Î±
å¹ ³
Ġinhab ited
ĠCub a
ĠCanton ese
ĠIll usionist
ĠKnow ledge
ĠWol verhampton
ĠOtt o
Ġspiro che
Ġdiscover ies
Ġnucle ic
Ġdisplay ed
101 1
IB D
Ġpure ly
Ġbodhisatt vas
ĠSqu ire
ĠAF F
áŀĻáŀĺáŀĳ áŀĤ
uly adej
ĠDry er
ĠHaw ai
ĠGener ally
Ġantic occid
Ġantic oag
quin ox
Ġrig id
ĠStan ley
ĠFranc ia
Ġsubstant ially
Ġnewsp aper
itzer land
éĺ® ç¦ı
Kar abakh
åĪ °
æ³ ķ
áŀĻáŀıáŀĳ áŀĽ
Ġfum ig
Ġfair ly
Ġdys pnoea
Ġdraft ing
Ġlov ing
ĠSant epheap
ĠDut erte
ĠNu eva
ĠNec romancer
Ġstret ches
Ġunst able
Ġuniform ity
ĠSte alth
Ġdepos it
Ġanalys es
Ġsatell ites
Ġstrengthen ed
Hu áº¿
Ġpaint ers
Ġdict ators
ĠTibet an
ĠMong ol
Ġnood le
ĠRats ad
ĠLev itsky
oper ative
Ġproced ures
ibh anga
Ġaggreg ate
Ġaggreg ates
à¸ļà¸Ĺ à¸ļà¸²à¸Ĺ
Ġsusp ected
ĠMotors port
Ġrepeated ly
Ha q
King dom
Rome o
icular ly
Ġpav ements
ĠTam il
ĠMem orial
ĠBul g
ĠBul ldog
ĠBack stab
ĠHir sch
ĠLut her
ĠVe al
Ġexhib it
Ġeleph ants
Ġprest ige
ĠLaure nt
Ġmonarch ies
Ġprogramm ers
Ġcoin age
Ġsurpr ising
Ġdiscol ouration
ĠConfucian ism
Ġrhetor ical
Et ienne
Sha re
å½ Į
æĿ İ
Ġáŀ§áŀļáŀĤ áŀľáŀĤ
Ġdos age
ĠRav ager
ĠPle istocene
ĠFly nn
ĠFocus eer
ĠGott lieb
ĠGreg or
ĠKo izumi
Ġstre ets
Ġhep atitis
Ġdescend ants
Ġsynthe sis
Ġvandal izing
[...]
