{"<s>":0,"<pad>":1,"</s>":2,"<unk>":3,"<mask>":4,"!":5,"\"":6,"#":7,"$":8,"%":9,"&":10,"'":11,"(":12,")":13,"*":14,"+":15,",":16,"-":17,".":18,"/":19,"0":20,"1":21,"2":22,"3":23,"4":24,"5":25,"6":26,"7":27,"8":28,"9":29,":":30,";":31,"<":32,"=":33,">":34,"?":35,"@":36,"A":37,"B":38,"C":39,"D":40,"E":41,"F":42,"G":43,"H":44,"I":45,"J":46,"K":47,"L":48,"M":49,"N":50,"O":51,"P":52,"Q":53,"R":54,"S":55,"T":56,"U":57,"V":58,"W":59,"X":60,"Y":61,"Z":62,"[":63,"\\":64,"]":65,"^":66,"_":67,"`":68,"a":69,"b":70,"c":71,"d":72,"e":73,"f":74,"g":75,"h":76,"i":77,"j":78,"k":79,"l":80,"m":81,"n":82,"o":83,"p":84,"q":85,"r":86,"s":87,"t":88,"u":89,"v":90,"w":91,"x":92,"y":93,"z":94,"{":95,"|":96,"}":97,"~":98,"¡":99,"¢":100,"£":101,"¤":102,"¥":103,"¦":104,"§":105,"¨":106,"©":107,"ª":108,"«":109,"¬":110,"®":111,"¯":112,"°":113,"±":114,"²":115,"³":116,"´":117,"µ":118,"¶":119,"·":120,"¸":121,"¹":122,"º":123,"»":124,"¼":125,"½":126,"¾":127,"¿":128,"À":129,"Á":130,"Â":131,"Ã":132,"Ä":133,"Å":134,"Æ":135,"Ç":136,"È":137,"É":138,"Ê":139,"Ë":140,"Ì":141,"Í":142,"Î":143,"Ï":144,"Ð":145,"Ñ":146,"Ò":147,"Ó":148,"Ô":149,"Õ":150,"Ö":151,"×":152,"Ø":153,"Ù":154,"Ú":155,"Û":156,"Ü":157,"Ý":158,"Þ":159,"ß":160,"à":161,"á":162,"â":163,"ã":164,"ä":165,"å":166,"æ":167,"ç":168,"è":169,"é":170,"ê":171,"ë":172,"ì":173,"í":174,"î":175,"ï":176,"ð":177,"ñ":178,"ò":179,"ó":180,"ô":181,"õ":182,"ö":183,"÷":184,"ø":185,"ù":186,"ú":187,"û":188,"ü":189,"ý":190,"þ":191,"ÿ":192,"Ā":193,"ā":194,"Ă":195,"ă":196,"Ą":197,"ą":198,"Ć":199,"ć":200,"Ĉ":201,"ĉ":202,"Ċ":203,"ċ":204,"Č":205,"č":206,"Ď":207,"ď":208,"Đ":209,"đ":210,"Ē":211,"ē":212,"Ĕ":213,"ĕ":214,"Ė":215,"ė":216,"Ę":217,"ę":218,"Ě":219,"ě":220,"Ĝ":221,"ĝ":222,"Ğ":223,"ğ":224,"Ġ":225,"ġ":226,"Ģ":227,"ģ":228,"Ĥ":229,"ĥ":230,"Ħ":231,"ħ":232,"Ĩ":233,"ĩ":234,"Ī":235,"ī":236,"Ĭ":237,"ĭ":238,"Į":239,"į":240,"İ":241,"ı":242,"Ĳ":243,"ĳ":244,"Ĵ":245,"ĵ":246,"Ķ":247,"ķ":248,"ĸ":249,"Ĺ":250,"ĺ":251,"Ļ":252,"ļ":253,"Ľ":254,"ľ":255,"Ŀ":256,"ŀ":257,"Ł":258,"ł":259,"Ń":260,"áŀ":261,"áŁ":262,"Ġáŀ":263,"áŁĴ":264,"áŀ¶":265,"áŀļ":266,"áŀĵ":267,"áŀĦ":268,"áŀĢ":269,"áŀı":270,"áŀ·":271,"áŀĽ":272,"áŀĻ":273,"áŀĺ":274,"áŀ»":275,"áŀŁ":276,"áŀĶ":277,"áŁĭ":278,"ĠáŀĶ":279,"Ġáŀĵ":280,"áŁĩ":281,"áŁĨ":282,"ĠáŀĢ":283,"áŁģ":284,"Ġáŀĺ":285,"ĠáŀŁ":286,"áŀ¾":287,"áŁĦ":288,"Ġáŀĳ":289,"ĠáŀĬ":290,"áŀ¸":291,"Ġáŀĸ":292,"ĠáŁ":293,"áŀľ":294,"áŀ¼":295,"áŀħ":296,"áŁĤ":297,"Ġáŀ¢":298,"áŀĳ":299,"Ġáŀĩ":300,"áŀĸ":301,"Ġáŀħ":302,"áŀĤ":303,"Ġáŀļ":304,"áŀ½":305,"áŀī":306,"ĠáŁĶ":307,"áŁħ":308,"áŀİ":309,"Ġáŀı":310,"ĠáŀĤ":311,"áŀĩ":312,"áŀ¶áŁĨ":313,"áŀĬ":314,"áŁĦáŁĩ":315,"Ġáŀģ":316,"áŀ¹":317,"ĠáŀĲ":318,"Ġáŀł":319,"ĠáŀĽ":320,"áŀģ":321,"áŀł":322,"áŀĴ":323,"ĠáŀĹ":324,"áŁģáŁĩ":325,"Ġáŀľ":326,"áŁı":327,"áŀ¢":328,"ĠáŀĻ":329,"áŁĥ":330,"áŁī":331,"ĠáŀĴ":332,"áŀ¡":333,"Ġáŀķ":334,"áŁĲ":335,"áŁĢ":336,"áŀĹ":337,"áŁĪ":338,"áŀĵáŀĢ":339,"áŀĶáŀŁ":340,"ĠáŀŁáŀĺ":341,"ĠáŁ¡":342,"ĠáŀļáŀĶáŀŁ":343,"áŀĲ":344,"áŀ»áŁĨ":345,"áŁīáŀ¶":346,"áŀº":347,"áŀĦáŀ¡":348,"áŀħáŀĢ":349,"áŁį":350,"áŀļáŀĢ":351,"áŀļáŀĦ":352,"Ġ(":353,"áŁĮ":354,"ĠáŀĨ":355,"áŀļáŀŁ":356,"áŁł":357,"Ġáŀ²":358,"áŀĭ":359,"áŀļáŀĶ":360,"Ġt":361,"áŀ»áŁĩ":362,"áŀļáŀĸ":363,"Ġ)":364,"in":365,"Ġa":366,"ĠáŀĪ":367,"ĠáŀĺáŀĢ":368,"ĠáŀĬáŀĽ":369,"Ġáŀİ":370,"he":371,"Ġáŀ¯":372,"áŀļáŀĺ":373,"áŀĤáŀĽ":374,"áŁĬ":375,"Ġáŀ¡":376,"áŀ¢áŀĦ":377,"áŀķ":378,"Ġáŀĥ":379,"ĠáŀĴáŀĺ":380,"Ġáŀ§":381,"áŀĶáŀı":382,"áŀ¿":383,"on":384,"ĠáŁ¡áŁ":385,"ĠáŁĹ":386,"er":387,"áŀļáŀĳ":388,"áŀļáŀİ":389,"Ġáŀ¬":390,"ĠáŀŁáŀĦ":391,"ĠáŀķáŀĦ":392,"áŀŁáŀĵ":393,"áŀľáŀı":394,"re":395,"Ġáŀĺáŀĵ":396,"ĠáŀŁáŀı":397,"áŀļáŀł":398,"áŀĩáŀĵ":399,"ĠáŀĢáŀĺ":400,"Ġáŀ¢áŀĦ":401,"ĠáŁ¢":402,"an":403,"Ġthe":404,"ĠáŀĶáŀĦ":405,"áŀĶáŀĦ":406,"Ġ]":407,"ĠáŀĶáŀĵ":408,"áŀĥ":409,"áŀļáŀĩ":410,"áŁīáŀ»":411,"áŀĮ":412,"áŀĺáŀĢ":413,"Ġáŀħáŀĺ":414,"en":415,"áŀĺáŀİ":416,"Ġo":417,"at":418,"ĠáŀĶáŀī":419,"ĠáŀĶáŀļ":420,"áŀĤáŀı":421,"Ġáŀ¥":422,"áŀĴáŀĺ":423,"Ġáŀ¢áŀĵ":424,"ĠáŀĻáŀĢ":425,"Ġáŀ¯áŀĦ":426,"is":427,"áŀĶáŀĵ":428,"Ġáŀ¢áŀŁ":429,"Ġ\"":430,"Ġs":431,"áŀ²":432,"es":433,"áŀĢáŀĺ":434,"áŀľáŀĶ":435,"âĢ":436,"ar":437,"al":438,"áŁłáŁł":439,"Ġc":440,"it":441,"ĠáŀĶáŀĸ":442,"áŀĨ":443,"or":444,"ĠáŁ£":445,"ed":446,"áŀĦáŀĢ":447,"Ġáŀĳáŀĳ":448,"áŀļáŀı":449,"Ġáŀ±":450,"áŀĦáŀĵ":451,"áŁĬáŀ¸":452,"áŀĢáŀļ":453,"áŀļáŀ¡":454,"Ġáŀĩáŀĵ":455,"ĠáŀļáŀĢ":456,"áŀļáŀĢáŀĶ":457,"áŀĬáŀĽ":458,"áŀŁáŀĺ":459,"Ġw":460,"ĠáŁ¤":461,"nd":462,"áŀļáŀĻ":463,"Ġáŀĺáŀł":464,"áŀļáŀĬ":465,"áŀĽáŀĶ":466,"Ġáŀļáŀĺ":467,"áŀĻáŀĢ":468,"ĠâĢ":469,"Ġof":470,"Ġ-":471,"Ġáŀī":472,"ic":473,"áŀĪ":474,"Ġin":475,"áŀħáŀĺ":476,"ĠáŁ¥":477,"Ġáŀ§áŀĶ":478,"©áŁ":479,"ĠáŀļáŀĬ":480,"Ġp":481,"Ġf":482,"áŀħáŀĩ":483,"Ġb":484,"áŀıáŀĺ":485,"áŀĶáŀĳ":486,"ĠáŀĶáŀİ":487,"áŀļáŀĢáŀĶáŀĬ":488,"ĠáŀĢáŀĵ":489,"áŀĢáŀĬ":490,"ing":491,"áŀ¯":492,"Ġand":493,"áŀ¢áŀŁ":494,"Ġd":495,"áŀļáŀħ":496,"áŁ¡":497,"ou":498,"el":499,"ĠáŀħáŀĦ":500,"à¸":501,"áŀĺáŀĵ":502,"Ġáŀľáŀı":503,"áŀĦáŀĳ":504,"áŀŁáŀĦ":505,"ion":506,"áŀıáŀ¡":507,"as":508,"Ġm":509,"áŀĤáŀļ":510,"il":511,"áŀĻáŀŁ":512,"áŀĽáŀĦ":513,"ĠáŀŁáŀĵ":514,"áŀŁáŀĽ":515,"ro":516,"áŀĦáŀ¢áŀŁ":517,"áŀĺáŀı":518,"áŀ·áŁĩ":519,"Ġ,":520,"áŁ¥":521,"áŀĻáŀĵ":522,"áŀıáŀĵ":523,"Ġáŀ¢áŀı":524,"ĠC":525,"áŁİ":526,"áŀŁáŀı":527,"ĠáŀĤáŀĶ":528,"áŀļáŀĽ":529,"Ġáŀĸáŀī":530,"áŁ¢":531,"Ġto":532,"Ġáŀ¢áŀī":533,"áŀļáŀľ":534,"ent":535,"ĠáŁ¡áŁ©áŁ":536,"Ġl":537,"áŀĦáŀı":538,"ĠS":539,"ĠáŀĦ":540,"ĠáŀķáŀĽ":541,"áŀľáŀĢ":542,"áŁ£":543,"áŀ¯áŀĦ":544,"áŀĽáŀĳ":545,"áŁ¤":546,"Ġ1":547,"áŀıáŀĳ":548,"áŀĵáŀĵ":549,"áŀ¢áŀī":550,"ĠáŀĶáŀħ":551,"ĠT":552,"áŁ¨":553,"Ġh":554,"áŀĢáŀŁ":555,"ĠáŁ§":556,"áŀĦáŀĸ":557,"ĠáŁ¨":558,"áŁ¦":559,"ev":560,"ac":561,"áŀĤáŀĺ":562,"ĠáŁ¦":563,"ĠáŀĤáŀĦ":564,"áŀħáŀĵ":565,"ĠáŀļáŀŁ":566,"áŀĺáŀł":567,"áŀĸáŀĽ":568,"om":569,"áŀ¢áŀļ":570,"áŁ§":571,"áŀļáŀĴ":572,"am":573,"ec":574,"ĠáŀŁáŀĸ":575,"áŁİáŁĩ":576,"áŀ»áŁİáŁĩ":577,"áŀĢáŀĽ":578,"us":579,"áŀĵáŀĢáŀĶ":580,"ĠáŀĸáŀĽ":581,"ĠA":582,"ĠáŀĬáŀĳ":583,"Ġ[":584,"áŀĢáŀĤ":585,"áŀĵáŀĩ":586,"áŀĶáŀħ":587,"ĠÂ":588,"ĠáŀŁáŀĺáŀİ":589,"áŀĳáŀĵ":590,"áŀĸáŀŁ":591,"ol":592,"ĠáŀĽáŀĢ":593,"áŀļáŀĹ":594,"Ġáŀĸáŀĵ":595,"áŀĦáŀĽ":596,"ĠáŀŁáŀĹ":597,"et":598,"Ġáŀļáŀł":599,"ĠáŀĻáŀĽ":600,"áŀŁáŀļ":601,"ĠáŀŁáŀī":602,"áŀļáŀ¢":603,"ĠáŀħáŀĢ":604,"áŀĢáŀ¢áŀļ":605,"ĠM":606,"áŀĢáŀĵ":607,"áŀĸáŀĦ":608,"áŀıáŀĶ":609,"ĠáŀĢáŀİ":610,"áŀħáŀĶ":611,"áŀľáŀĵ":612,"áŀİáŀı":613,"ĠáŀĢáŀĦáŀĳ":614,"Ġre":615,"ĠáŀŁáŀł":616,"oc":617,"os":618,"áŀĻáŀĽ":619,"áŀľáŀļ":620,"Ġáŀĭ":621,"Ġn":622,"ĠáŀĵáŀĤáŀļ":623,"Ġth":624,"ĠáŀļáŀĽ":625,"Ġáŀ¢áŀļ":626,"Ġáŀĳáŀĵ":627,"Ġáŀ¥áŀı":628,"ĠáŀŁáŀĢ":629,"le":630,"áŀĦáŀİ":631,"áŀĻáŀĺ":632,"Ġáŀ®":633,"ĠR":634,"áŀĵáŀ¯áŀĦ":635,"áŀĵáŀĬ":636,"áŀĵáŀĶ":637,"áŀĵáŀĦ":638,"áŀļáŀĤ":639,"ĠB":640,"ĠE":641,"áŀĶáŀļ":642,"áŁ©":643,"áŀľáŀĦ":644,"Ġáŀ¢áŀĹ":645,"Ġ2":646,"áŀĦáŀĶ":647,"Ġáŀ¢áŀĢ":648,"áŀĦáŀĺ":649,"ur":650,"Ġ.":651,"áŀģáŀİ":652,"ul":653,"Ġáŀıáŀĺ":654,"áŀĢáŀı":655,"ĠP":656,"ĠáŀĤáŀİ":657,"áŀĵáŀĢáŀŁ":658,"áŀĢáŀī":659,"ĠâĢ¦":660,"ĠáŀĶáŀĳ":661,"ĠáŁ¡áŁł":662,"id":663,"áŀļáŀ¡áŀĶ":664,"ig":665,"evel":666,"ir":667,"áŁĬáŀ»":668,"ĠáŀŁáŀļáŀŁ":669,"áŀİáŀĦ":670,"áŀķáŀĽ":671,"Ġ:":672,"Ġis":673,"áŀĽáŀĢ":674,"ĠáŀļáŀĦ":675,"Ġ?":676,"im":677,"ĠáŀĬáŀĦ":678,"áŀĢáŀħ":679,"áŀĻáŀĶ":680,"áŀĽáŀĵ":681,"Ġáŀ§áŀĳ":682,"ot":683,"ad":684,"Ġ!":685,"ĠáŀĳáŀŁ":686,"ation":687,"ĠáŀĶáŀĬ":688,"ly":689,"áŀŁáŀħ":690,"áŀĦáŀļ":691,"áŀĶáŀī":692,"Ġg":693,"iv":694,"Ġe":695,"ĠáŀļáŀĶ":696,"ĠáŀļáŀĻ":697,"ĠD":698,"ag":699,"áŁīáŀ¼":700,"áŁīáŁĤ":701,"ĠH":702,"ĠáŀĢáŀĦ":703,"ow":704,"áŀ±":705,"ĠI":706,"áŀĢáŀĶ":707,"ut":708,"áŀĩáŀĢ":709,"ĠáŀĢáŀŁ":710,"Level":711,"ĠâĢľ":712,"ĠF":713,"áŁĸ":714,"ch":715,"áŀ§":716,"Ġfor":717,"áŀĭáŀĢ":718,"Ġáŀ¢áŀĺ":719,"áŀŁáŀľ":720,"áŀŁáŀĢ":721,"ce":722,"áŀĢáŀļáŀİ":723,"áŀļáŀľáŀı":724,"áŀĸáŀı":725,"od":726,"Ġáŀļáŀı":727,"ĠáŁ¢áŁł":728,"áŀļáŀļ":729,"áŀĶáŀļáŀĺ":730,"00":731,"áŀĵáŀĢáŀĬ":732,"áŀĻáŀĩ":733,"áŀļáŀķ":734,"em":735,"áŀĶáŀĢ":736,"un":737,"st":738,"Ġáŀĸáŀİ":739,"ist":740,"Ġáŀ¢áŀĤ":741,"ay":742,"ĠâĢĿ":743,"áŁĬáŀ¼":744,"Ġáŀ¢áŀĴ":745,"áŀļáŀĺáŀĳ":746,"áŀħáŀļ":747,"Ġáŀĩáŀĵáŀĩ":748,"Ġáŀ§áŀı":749,"áŀĺáŀĳ":750,"áŀıáŀİ":751,"áŀĽáŀĸ":752,"áŀľáŀĽ":753,"ĠáŀĶáŀĢ":754,"áŀīáŀı":755,"ĠáŀĤáŀĺ":756,"um":757,"ĠG":758,"Ġáŀ¢áŀĶ":759,"Ġcon":760,"áŀŁáŀĸ":761,"ĠL":762,"áŀıáŀļ":763,"</":764,"Ġáŀ£":765,"Ġas":766,"Ġáŀģáŀİ":767,"ĠáŁ¡áŁ¥":768,"Ġon":769,"Ġbe":770,"ĠK":771,"áŀĦáŀĩ":772,"ers":773,"Ġáŀ¥áŀ¡":774,"áŀĻáŀħ":775,"Ġáŀ§áŀĢáŀī":776,"áŀĻáŀĺáŀĢ":777,"ĠáŀŁáŀĶ":778,"áŀıáŀĬáŀĽ":779,"áŀļáŀĵ":780,"ĠáŀĺáŀĢáŀĸ":781,"Ġáŀļáŀľ":782,"ĠáŀĤáŀı":783,"ĠáŁ¡áŁ¨":784,"áŀıáŀĦ":785,"áŀıáŀĽ":786,"ter":787,"áŀĦáŀģ":788,"áŀĺáŀľ":789,"ra":790,"ĠáŀķáŀĦáŀĬ":791,"ĠÂ«":792,"Ġv":793,"ĠáŀĹáŀĸ":794,"doc":795,"ĠN":796,"ĠáŁ¢áŁłáŁł":797,"ith":798,"ĠáŀĺáŀĤ":799,"Ġáŀ«":800,"Ġare":801,"ĠáŀĺáŀĢáŀĬáŀĽ":802,"ĠáŁ¡áŁ¢":803,"áŀŁáŀĶ":804,"__":805,"ect":806,"ĠáŁĸ":807,"áŀĶáŀĶáŀĦ":808,"ang":809,"ĠW":810,"th":811,"ĠÂ»":812,"Ġst":813,"áŁīáŁģ":814,"áŀļáŀłáŀĺ":815,"Ġáŀĩáŀĺ":816,"op":817,"áŀį":818,"áŀĽáŀĺáŀĢ":819,"áŀĺáŀĺ":820,"áŀĦáŀļáŀĢ":821,"áŀłáŀĶáŀı":822,"Ġ19":823,"áŀĻáŀĶáŀĦ":824,"her":825,"áŀĦáŀħ":826,"áŀĴáŀŁ":827,"ĠáŀľáŀĦ":828,"áŁīáŀ¶áŁĨ":829,"áŀĳáŀĦ":830,"áŁīáŀº":831,"Ġáŀ¥áŀİ":832,"áŀĽáŀļ":833,"Ġáŀ¯áŀİ":834,"Ġal":835,"Ġwith":836,"Ġpro":837,"áŀ¢áŀĵ":838,"ĠThe":839,"if":840,"Ġor":841,"áŀĺáŀĩ":842,"av":843,"Ġáŀ¯áŀĢ":844,"ud":845,"áŀıáŀĢ":846,"and":847,"Ġthat":848,"ĠáŀŁáŀĳ":849,"áŀĺáŀļ":850,"ĠáŀŁáŀıáŀľáŀı":851,"áŀľáŀĩ":852,"áŀľáŀĹ":853,"áŀıáŀĲ":854,"Ġan":855,"áŀıáŀĹ":856,"Ġwas":857,"áŀĤáŀĢ":858,"áŀĳáŀĶ":859,"áŀļáŀĶáŀĦ":860,"Ġáŀª":861,"áŀĵáŀŁ":862,"áŀļáŀĸáŀĵ":863,"ĠáŀĽáŀĳ":864,"áŀļáŀĨ":865,"ĠáŀĸáŀĦ":866,"Ġáŀıáŀİ":867,"áŀĵáŀĢáŀĬáŀĳ":868,"ĠáŀĤáŀłáŀĶáŀı":869,"áŀľáŀĮ":870,"Ġáŀħáŀļ":871,"áŀĩáŀĴ":872,"ia":873,"à¹":874,"áŁłáŁłáŁł":875,"áŀħáŀł":876,"Ġáŀħáŀĵ":877,"est":878,"Ġby":879,"ĠáŀĵáŀĻ":880,"áŀŁáŀĳ":881,"áŀĽáŀĬ":882,"Ġwh":883,"áŀŁáŀī":884,"ĠáŁ¡áŁ¡":885,"ĠáŀıáŀĲ":886,"Ġáŀ¢áŀİ":887,"ĠáŀĻáŀĶ":888,"áŀĽáŀİ":889,"áŀ·áŁį":890,"ov":891,"áŀļáŀłáŀĵ":892,"ace":893,"ĠáŀĢáŀĶ":894,"ĠáŁ©":895,"áŀĺáŀŁ":896,"ĠáŀŁáŀļ":897,"Ġáŀĺáŀļáŀİ":898,"áŁĬáŀ¶":899,"ĠEv":900,"áŀĦáŀŁ":901,"áŀħáŀĤ":902,"ĠáŀĴáŀĵ":903,"Ġáŀ¢áŀľ":904,"áŀļáŀī":905,"áŀŁáŀĹ":906,"ĠáŁ¡áŁ¤":907,"áŀıáŀı":908,"áŀħáŀı":909,"áŀĻáŀĸ":910,"ĠáŀĶáŀĭ":911,"Ġáŀĳáŀĺ":912,"Ġcom":913,"ies":914,"áŀĴáŀĵ":915,"ant":916,"uc":917,"áŀĤáŀĺáŀĵ":918,"ab":919,"ry":920,"Ġáŀ¥áŀŁ":921,"áŀĺáŀĶ":922,"ĠEvil":923,"qu":924,"áŀĺáŀĤ":925,"Ġde":926,"áŁĬáŁĴ":927,"ĠáŀľáŀĶ":928,"ĠáŁ¡áŁ¦":929,"--":930,"áŀĬáŀĦ":931,"áŀīáŀħ":932,"ity":933,"áŀĢáŀĢ":934,"Ġ'":935,"ĠV":936,"áŀŁáŀĩ":937,"ill":938,"áŀĺáŀļáŀĻ":939,"Ġáŀıáŀĳ":940,"01":941,"áŀĶáŀĴáŀĺ":942,"áŀĽáŀı":943,"ĠJ":944,"res":945,"áŀĤáŀĦ":946,"ain":947,"ĠáŀĪáŀļ":948,"áŀłáŀĵ":949,"áŀĸáŀĵ":950,"áŀ»áŁĨáŀ¶":951,"áŀļáŀĹáŀĸ":952,"áŀĵáŀĢáŀİ":953,"eg":954,"ess":955,"ĠáŀĶáŀĺ":956,"ak":957,"Ġáŀ¥áŀĳ":958,"Ġáŀ¥áŀĵ":959,"igh":960,"end":961,"áŀ¶áŁĴ":962,"ĠáŁ¡áŁ£":963,"áŀĶáŀĩ":964,"ĠáŀħáŀĶ":965,"áŀłáŀĢ":966,"ong":967,"áŀĻáŀľ":968,"áŀļáŀŁáŀĺ":969,"áŀĭáŀĶ":970,"Ġáŀªáŀĸ":971,"..":972,"Ġ=":973,"áŀĻáŀĬ":974,"áŀĻáŀıáŀĵ":975,"áŁĮáŁĴ":976,"áŀĶáŀĲ":977,"ĠáŀļáŀĽáŀı":978,"áŀĻáŀĳ":979,"áŀĹáŀĸáŀĽ":980,"ĠáŁ¢áŁłáŁ¡":981,"ial":982,"áŀĺáŀĸ":983,"áŀĩáŀľáŀĦ":984,"áŁ©áŁ":985,"ran":986,"ary":987,"rom":988,"ĠáŁ¡áŁłáŁł":989,"ap":990,"áŀĶáŀİ":991,"ĠáŁ¡áŁ©áŁ§":992,"ment":993,"ĠáŀľáŀĤ":994,"ĠCar":995,"Ġáŀ¢áŀĬ":996,"ĠCh":997,"áŀĵáŀĢáŀħ":998,"ore":999,"áŀļáŀĲ":1000,"áŀĽáŀħ":1001,"áŀĴáŀı":1002,"Ġ3":1003,"ĠáŀĢáŀı":1004,"áŀĭáŀĺáŀĵ":1005,"ri":1006,"áŀļáŀĽáŀı":1007,"ĠáŁ¡áŁ§":1008,"ort":1009,"Ġit":1010,"Ġhe":1011,"áŀķáŀĦ":1012,"áŀĢáŀĳ":1013,"áŀļáŀĶáŀļ":1014,"ĠáŀĮ":1015,"'s":1016,"áŀŁáŀĺáŀİ":1017,"ich":1018,"ld":1019,"se":1020,"ĠáŀĪáŀĶ":1021,"og":1022,"ate":1023,"áŀıáŀļáŀĩ":1024,"ical":1025,"ĠáŀĺáŀĢáŀĢ":1026,"áŀĦáŀľ":1027,"áŀĺáŀħ":1028,"áŀĺáŀĵáŀŁ":1029,"áŀĵáŀĢáŀĵ":1030,"áŀ¥":1031,"Ġr":1032,"Ġex":1033,"ure":1034,"áŀĶáŀĬ":1035,"ĠO":1036,"Ġat":1037,"áŀĸáŀī":1038,"áŀĵáŀĢáŀĢ":1039,"áŀĢáŀĻ":1040,"ĠáŀĹáŀļ":1041,"ĠáŀļáŀĲ":1042,"áŀĤáŀĵ":1043,"áŀĮáŀĶ":1044,"ĠáŀĢáŀī":1045,"áŀİáŀĸ":1046,"áŁīáŁĦ":1047,"áŀ«":1048,"ost":1049,"ĠáŁ©áŁ":1050,"ĠáŀĬáŀĢ":1051,"áŀĵáŀı":1052,"ĠáŀĤáŀĵ":1053,"áŀĻáŀĴáŀĺ":1054,"ĠáŀŁáŀİ":1055,"ive":1056,"oun":1057,"our":1058,"áŀļáŀ²":1059,"áŀĸáŀĽáŀļáŀĬ":1060,"Ġy":1061,"áŀĵáŀ¢":1062,"Ġáŀħáŀı":1063,"áŀĮáŀĽ":1064,"ĠáŀĩáŀĶ":1065,"Ġsu":1066,"art":1067,"áŁīáŁĩ":1068,"Ġáŀ±áŀĢ":1069,"ĠRace":1070,"áŀĵáŀ¡":1071,"Ġfrom":1072,"áŀĶáŀŁáŀĺ":1073,"ĠU":1074,"ĠáŀĬáŀİ":1075,"ell":1076,"áŀĴáŀļ":1077,"áŀ£":1078,"áŀĽáŀĩ":1079,"ian":1080,"Ġáŀľáŀİ":1081,"Ġáŀ¢áŀħ":1082,"ĠáŀĢáŀļáŀİ":1083,"ĠáŀľáŀŁ":1084,"ĠáŀŁáŀĢáŀĺ":1085,"pp":1086,"áŀĺáŀĦ":1087,"ĠáŁ¢áŁ¥":1088,"pt":1089,"áŀıáŀŁ":1090,"Ġáŀģáŀĵ":1091,"Ġáŀ¯áŀĢáŀŁ":1092,"áŀĢáŀĸ":1093,"ard":1094,"ĠáŀļáŀĶáŀĶ":1095,"ĠáŀĲáŀĻ":1096,"all":1097,"ĠáŀĳáŀĦ":1098,"áŀĺáŀĹ":1099,"áŀ¹áŁĩ":1100,"áŁģáŁĴ":1101,"Ġsp":1102,"Ġáŀ§áŀĶáŀĺ":1103,"áŁĮáŀ¶":1104,"),":1105,"ĠáŀĶáŀĭáŀĺ":1106,"Ġus":1107,"Ġáŀĺáŀİ":1108,"age":1109,"Ġk":1110,"per":1111,"ĠáŀĺáŀĢáŀľ":1112,"áŀĻáŀŁáŀĺ":1113,"ĠáŀĬáŀĬ":1114,"ated":1115,"ight":1116,"áŀĢáŀİ":1117,"ĠáŀĢáŀļ":1118,"áŀľáŀķ":1119,"ous":1120,"áŀĲáŀĻ":1121,"áŀĪáŀĦ":1122,"Ġ201":1123,"Ġáŀĺáŀĩ":1124,"ĠáŁł":1125,"ĠáŀĩáŀĢ":1126,"Ġch":1127,"áŀħáŀŁ":1128,"ĠIn":1129,"ew":1130,"ions":1131,"____":1132,"ĠáŀĵáŀļáŀĢ":1133,"áŀĽáŀľ":1134,"ite":1135,"Ġáŀĸáŀĸ":1136,"áŀĺáŀī":1137,"áŀļáŀģ":1138,"ine":1139,"áŀģáŀĵ":1140,"Ġ[[":1141,"Ġáŀ«áŀŁ":1142,"áŀĶáŀĽ":1143,"Ġcont":1144,"áŀĬáŀĢ":1145,"Ġ...":1146,"áŀľáŀĤ":1147,"áŀ«áŀĳ":1148,"Ġ%":1149,"áŀīáŀĳ":1150,"ren":1151,"Ġáŀĩáŀļ":1152,"ĠáŀŁáŀħ":1153,"ĠáŁ£áŁł":1154,"áŀįáŀĵ":1155,"Ġnot":1156,"Ġ/":1157,"ast":1158,"ĠáŀŁáŀĺáŀı":1159,"ĠáŀĻáŀĢáŀĺáŀĢ":1160,"ĠáŀĶáŀŁ":1161,"ha":1162,"ĠáŀĤáŀİáŀĶáŀĢ":1163,"áŀĵáŀĸ":1164,"The":1165,"ĠáŁ¢áŁ¤":1166,"áŀĵáŀĢáŀı":1167,"áŀĻáŀĤ":1168,"Ġform":1169,"áŀĶáŀĹ":1170,"Ġáŀļáŀĩ":1171,"ĠáŀŁáŀłáŀļáŀĬ":1172,"Ġinc":1173,"ign":1174,"gh":1175,"áŀļáŀĸáŀı":1176,"áŀ§áŀĳ":1177,"ave":1178,"ff":1179,"Ġáŀ¥áŀļ":1180,"Ġáŀ¢áŀļáŀłáŀĵ":1181,"áŀĩáŀĢáŀĺ":1182,"ĠáŀļáŀĢáŀĥ":1183,"ĠáŁ¡áŁ©áŁ©áŁ":1184,"áŀ¶áŁĸ":1185,"Ġáŀļáŀĵ":1186,"áŀĽáŀĥ":1187,"ĠáŀħáŀĽáŀĵ":1188,"ere":1189,"ib":1190,"Ġáŀĩáŀī":1191,"Ġ]]":1192,"áŀĵáŀļ":1193,"ĠáŀĺáŀĴ":1194,"áŀĢáŀĽáŀľ":1195,"ĠáŀĶáŀļáŀĳ":1196,"áŀĵáŀĢáŀĴ":1197,"áŀ·áŁĴ":1198,"áŀĽáŀŁ":1199,"áŀĻáŀī":1200,"áŀļáŀĤáŀĽ":1201,"áŀļáŀĺáŀĸ":1202,"Ġar":1203,"Ġwor":1204,"áŀĢáŀĴ":1205,"Ġcan":1206,"áŀıáŀĩ":1207,"áŀĤáŀĩ":1208,"ĠáŀŁáŀŁ":1209,"Ġwhich":1210,"ik":1211,"áŀĢáŀĹ":1212,"ct":1213,"Ġhis":1214,"áŀļáŀĪ":1215,"áŀıáŀģ":1216,"ph":1217,"ĠáŀĿ":1218,"áŀĻáŀĢáŀĺ":1219,"áŀģáŀľ":1220,"ub":1221,"ĠáŀĶáŀļáŀĺ":1222,"áŀĢáŀľ":1223,"ther":1224,"ĠáŀĶáŀĦáŀĶ":1225,"Ġáŀ§áŀŁ":1226,"áŀħáŀħ":1227,"Ġáŀ¯áŀĢáŀļ":1228,"à¸²":1229,"mer":1230,"áŁĨáŀ¶":1231,"áŀĵáŀĢáŀĺ":1232,"pl":1233,"ĠáŀĬáŀļ":1234,"ĠáŀĨáŀĵ":1235,"ern":1236,"áŁĬáŀ·":1237,"ĠáŀĩáŀĵáŀĶáŀĳ":1238,"ĠáŀĢáŀĢ":1239,"Ġdis":1240,"áŀıáŀķáŀĽ":1241,"áŀĻáŀĹ":1242,"ĠáŀķáŀŁ":1243,"áŀĺáŀĪ":1244,"Ġáŀ¯áŀĳ":1245,"so":1246,"áŀļáŀ¢áŀĹ":1247,"Ġ4":1248,"Ġáŀ§áŀĶáŀŁáŀĺ":1249,"ĠáŁ¥áŁłáŁł":1250,"Ġ5":1251,"ĠáŀłáŀĦ":1252,"Ġáŀľáŀħ":1253,"ult":1254,"ough":1255,"aus":1256,"ome":1257,"áŀĲáŀĶáŀĳ":1258,"áŀĵáŀĤáŀļ":1259,"áŀĻáŀı":1260,"ĠáŁ¡áŁ©":1261,"áŀĺáŀ²":1262,"ire":1263,"áŀīáŀĺáŀĢ":1264,"Ġáŀľáŀļ":1265,"ĠTh":1266,"ge":1267,"áŁĤáŁĴ":1268,"áŀĶáŀĴ":1269,"áŀļáŀİáŀļáŀĬ":1270,"ĠáŁ¡áŁ©áŁ¦":1271,"áŀĴáŀķáŀĽ":1272,"Ġáŀļáŀħáŀĵ":1273,"Ġáŀ§áŀĶáŀĢáŀļáŀİ":1274,"ber":1275,"áŀĸáŀļ":1276,"ĠáŁ¢áŁ¡":1277,"áŀ¢áŀļáŀłáŀĵ":1278,"iz":1279,"ĠáŀĻáŀıáŀĵ":1280,"Ġwere":1281,"pe":1282,"ĠáŀıáŀĶ":1283,"áŀŁáŀĲ":1284,"Ġhave":1285,"Ġáŀĵáŀļáŀİ":1286,"áŀĢáŀ¡":1287,"áŀĶáŀĶ":1288,"Ġse":1289,"ound":1290,"áŀıáŀħ":1291,"Ġáŀĸáŀı":1292,"cc":1293,"áŀļáŀłáŀı":1294,"ĠáŀĸáŀŁ":1295,"ĠáŀĳáŀĽ":1296,"áŀıáŀĺáŀĢ":1297,"ater":1298,"oy":1299,"áŀľáŀİ":1300,"Ġáŀļáŀİ":1301,"rit":1302,"Ã©":1303,"áŀĵáŀĹ":1304,"ĠáŀŁáŀłáŀĤáŀĺáŀĵ":1305,"áŀĵáŀĢáŀ¯áŀĦ":1306,"Ġun":1307,"áŀļáŀłáŀŁ":1308,"ide":1309,"áŀĴáŀĹ":1310,"áŀĩáŀŁ":1311,"ks":1312,"Ġáŀłáŀı":1313,"Ġall":1314,"angu":1315,"áŀĢáŀĩ":1316,"ĠáŀĻáŀŁ":1317,"ĠáŁ¡áŁ©áŁ¤":1318,"ear":1319,"ism":1320,"Ġáŀ§áŀĶáŀĢ":1321,"à¸²à¸":1322,"ice":1323,"ĠSt":1324,"ĠáŀĶáŀı":1325,"ĠáŀĺáŀĦ":1326,"ĠáŀĶáŀĶ":1327,"ass":1328,"áŀĵáŀĢáŀĳ":1329,"ever":1330,"ds":1331,"áŀļáŀļáŀĽáŀı":1332,"áŀĽáŀĻáŀĢ":1333,"ust":1334,"áŀ¾áŁĴ":1335,"Ġáŀ«áŀĳ":1336,"áŀĵáŀĢáŀĩ":1337,"Ġ200":1338,"ree":1339,"ĠáŁ¡áŁ©áŁ¥":1340,"áŀĿ":1341,"Ġint":1342,"áŀłáŀļáŀİ":1343,"áŀĻáŀļ":1344,"áŀŁáŀħáŀļáŀİ":1345,"now":1346,"áŀĦáŀŁáŀĦ":1347,"áŀĺáŀĢáŀļ":1348,"áŀħáŀĦ":1349,"áŀļáŀĥ":1350,"áŀĽáŀĤ":1351,"áŀŁáŀļáŀŁ":1352,"ĠáŁ¢áŁ£":1353,"hen":1354,"ĠâĢ¦)":1355,"Ġáŀ¢áŀĳ":1356,"Ġlangu":1357,"áŀıáŀĸ":1358,"Ġáŀļáŀıáŀĵ":1359,"Ġáŀıáŀĵ":1360,"ĠáŀĲáŀı":1361,"ula":1362,"ue":1363,"áŀĦáŀ¢":1364,"ence":1365,"áŀĦáŀĦ":1366,"áŀĲáŀĹ":1367,"ie":1368,"uct":1369,"Ġu":1370,"áŁīáŁĴ":1371,"act":1372,"Ġáŀ¢áŀĻ":1373,"áŀļáŀŁáŀĦ":1374,"áŀĶáŀĸ":1375,"ĠáŁ¢áŁ¢":1376,"áŀģáŀĹ":1377,"ase":1378,"ally":1379,"ĠáŁķ":1380,"Ġ6":1381,"áŀĤáŀİ":1382,"ip":1383,"Ġim":1384,"ĠáŀĢáŀĽ":1385,"one":1386,"Ġáŀļáŀĳ":1387,"Ġsh":1388,"Ġ18":1389,"áŀļáŀ¢áŀĵ":1390,"áŀģáŀı":1391,"áŀłáŀĶ":1392,"Ġen":1393,"ĠáŀĳáŀĶ":1394,"ep":1395,"ĠáŀĹáŀĢ":1396,"áŁĬáŁĤ":1397,"ish":1398,"áŀĸáŀĻáŀĵ":1399,"ĠáŀĳáŀŁáŀľáŀı":1400,"áŀļáŀ¢áŀĶ":1401,"áŀĳáŀĺ":1402,"ĠáŀĤáŀĽ":1403,"áŀĻáŀ¡":1404,"Ġalso":1405,"áŀľáŀĬ":1406,"âĢĿ":1407,"ĠáŁ¥áŁł":1408,"ok":1409,"Ġáŀģáŀı":1410,"áŀļáŀ¢áŀĦ":1411,"áŀĽáŀł":1412,"ĠKh":1413,"Ġáŀĵáŀļ":1414,"iet":1415,"ĠáŀĽáŀĦ":1416,"áŀıáŀķáŀĦ":1417,"Ġsy":1418,"áŀļáŀĳáŀĳ":1419,"out":1420,"ĠáŀĦáŀĦ":1421,"áŀĶáŀĢáŀĺ":1422,"reat":1423,"Ġres":1424,"áŀıáŀľ":1425,"áŀ¥áŀĵ":1426,"áŀĩáŀŁáŀĺ":1427,"Ġ7":1428,"áŀĻáŀıáŀĶ":1429,"áŀĽáŀĦáŀĢ":1430,"áŀľáŀĩáŀĵ":1431,"Ġthis":1432,"Ġcl":1433,"Ġdry":1434,"áŀĵáŀĽ":1435,"ĠáŀĹáŀı":1436,"lud":1437,"ord":1438,"ĠáŁ¡áŁ©áŁ¨":1439,"Ġwe":1440,"ĠáŁ¤áŁł":1441,"ĠáŀĵáŀĤ":1442,"rench":1443,").":1444,"áŀİáŀľ":1445,"áŀĩáŀĶ":1446,"ach":1447,"áŀłáŀļ":1448,"ond":1449,"á»":1450,"áŀŃ":1451,"Ġáŀĸáŀł":1452,"ould":1453,"any":1454,"áŀħáŀģ":1455,"Ġad":1456,"áŀĽáŀĦáŀĳ":1457,"Ġpl":1458,"ĠáŀŁáŀłáŀĹ":1459,"amb":1460,"ĠáŀŁáŀĦáŀģ":1461,"áŀļáŀĻáŀĽ":1462,"ĠY":1463,"áŀīáŀĽ":1464,"áŀĵáŀĢáŀĤ":1465,"áŀĲáŀĵ":1466,"áŀĭáŀŁáŀĹ":1467,"ress":1468,"áŀłáŀı":1469,"ack":1470,"ame":1471,"áŀĽáŀ²":1472,"ations":1473,"áŀĬáŀĺ":1474,"udd":1475,"ng":1476,"áŀīáŀĸ":1477,"fer":1478,"Ġáŀĳáŀı":1479,"áŀļáŀĳáŀŁ":1480,"áŀĢáŀĦ":1481,"orm":1482,"Ġcomm":1483,"ex":1484,"Ġhas":1485,"áŀĵáŀĢáŀķáŀĦ":1486,"áŀıáŀĢáŀĺ":1487,"áŀĬáŀĳ":1488,"áŀĢáŀĥ":1489,"ind":1490,"áŀ¢áŀĶ":1491,"erm":1492,"ory":1493,"áŀŁáŀŁáŀĽ":1494,"Ġfe":1495,"áŀĶáŀľ":1496,"áŀ¢áŀĢ":1497,"ram":1498,"ĠáŀĬáŀĶ":1499,"áŀ¸áŁĴ":1500,"ĠáŀıáŀŁ":1501,"áŀĻáŀŁáŀħ":1502,"oll":1503,"Ġother":1504,"áŀĳáŀĢ":1505,"El":1506,"ĠFrench":1507,"áŀĲáŀĢ":1508,"ver":1509,"ĠáŀĺáŀĢáŀł":1510,"ens":1511,"à¸Ļ":1512,"tern":1513,"ĠáŀķáŀĽáŀĶ":1514,"Ġpr":1515,"ĠFran":1516,"áŀ¢áŀĽ":1517,"áŀļáŀĶáŀī":1518,"ition":1519,"ational":1520,"ount":1521,"ĠáŁ¢áŁ¦":1522,"Ġcons":1523,"Ġinclud":1524,"áŀŁáŀĤ":1525,"rain":1526,"ĠáŀĻáŀĵ":1527,"áŀĹáŀĢ":1528,"Ġag":1529,"áŀĩáŀĺ":1530,"red":1531,"Ġcomp":1532,"ood":1533,"Ġáŀĺáŀı":1534,"áŀļáŀĽáŀĶ":1535,"ely":1536,"ĠUn":1537,"áŀľáŀŁ":1538,"ĠáŁ£áŁ¡":1539,"áŀ§áŀĶ":1540,"áŀŃáŀĢ":1541,"Ġab":1542,"ĠáŀļáŀĲáŀĻáŀĵ":1543,"Ġmay":1544,"Ġinf":1545,"egend":1546,"iss":1547,"ĠáŁ¢áŁ¨":1548,"áŀļáŀķáŀĦ":1549,"áŀħáŀĶáŀĵ":1550,"ll":1551,"ĠáŀĳáŀĢ":1552,"Ġáŀĵáŀĵ":1553,"ĠâĢĶ":1554,"Ġformula":1555,"Ġph":1556,"ĠáŁ¢áŁ§":1557,"ĠáŁ£áŁ¢":1558,"áŁīáŀ·":1559,"ĠEvilL":1560,"âĢ¢":1561,"Ġbec":1562,"áŀĽáŀĹ":1563,"ĠáŀĶáŀĽ":1564,"áŀħáŀķ":1565,"Ġáŀ¢áŀļáŀłáŀı":1566,"ates":1567,"áŀłáŀŁ":1568,"áŀĳáŀı":1569,"----":1570,"áŁīáŁĥ":1571,"Ġáŀıáŀı":1572,"áŀĵáŀĢáŀĽ":1573,"amp":1574,"ĠáŀĴáŀĵáŀĴ":1575,"áŀĳáŀŁ":1576,"áŀĽáŀĺ":1577,"áŀĸáŀĢ":1578,"ail":1579,"Ġ8":1580,"egendary":1581,"ric":1582,"áŀģáŀĺ":1583,"áŀıáŀĶáŀĵ":1584,"ĠEvilEl":1585,"áŀľáŀĢáŀĺ":1586,"Ġtheir":1587,"ĠEvilLegendary":1588,"ĠEvilElite":1589,"áŀĵáŀħ":1590,"ĠáŀıáŀĢ":1591,"________":1592,"Ġbut":1593,"áŀŁáŀģ":1594,"áŀŁáŀĴáŀĺ":1595,"áŀİáŀĢ":1596,"Ġáŀ¢áŀĸ":1597,"ents":1598,"ime":1599,"Ġpart":1600,"áŀļáŀĢáŀĶáŀļ":1601,"ĠáŀŁáŀĽ":1602,"Ġtr":1603,"Ġdes":1604,"ĠáŀĢáŀĦáŀĢáŀĺ":1605,"Ġper":1606,"áŀĦáŀĨ":1607,"ĠáŀŁáŀĺáŀĤ":1608,"oung":1609,"Ġfl":1610,"ĠáŀĺáŀļáŀİáŀĢ":1611,"ĠáŁ¡áŁłáŁłáŁłáŁł":1612,"ans":1613,"áŀľáŀħ":1614,"áŀĢáŀĬáŀĦ":1615,"áŀ§áŀı":1616,"áŀļáŀļáŀĢ":1617,"áŀĭáŀĴáŀĺ":1618,"ĠáŀĬáŀĺ":1619,"Ġmost":1620,"Ġhad":1621,"able":1622,"áŀĢáŀ¯":1623,"áŀļáŀĺáŀĢ":1624,"áŁĬáŀ¾":1625,"ĠAn":1626,"olog":1627,"áŀĵáŀĳ":1628,"à¸ģ":1629,"áŁīáŀ¸":1630,"ys":1631,"Ġ14":1632,"ĠáŀĻáŀĢáŀħ":1633,"Ġel":1634,"áŀĵáŀĢáŀĶáŀļ":1635,"áŀļáŀĶáŀĵ":1636,"áŀļáŀĶáŀĬ":1637,"ove":1638,"port":1639,"ah":1640,"áŀļáŀ¢áŀŁ":1641,"ĠAs":1642,"irst":1643,"ese":1644,"Ġ-----":1645,"Ġone":1646,"áŀĦáŀĤ":1647,"les":1648,"Ġme":1649,"ĠIt":1650,"áŀıáŀĺáŀĢáŀĬáŀĽ":1651,"ĠáŀĸáŀĽáŀļáŀĬ":1652,"áŀ°":1653,"áŀĽáŀģ":1654,"áŀŁáŀİ":1655,"áŀĦáŀķ":1656,"áŀ¢áŀĴ":1657,"Ġáŀ¢áŀŁáŀĶ":1658,"ĠáŀĬáŀĢáŀĬáŀĦ":1659,"áŀĳáŀļ":1660,"áŀłáŀĢáŀĺ":1661,"000":1662,"Ġqu":1663,"ath":1664,"Ġcent":1665,"ose":1666,"áŀĬáŀļ":1667,"lic":1668,"Ġthey":1669,"ĠáŀĹáŀŁ":1670,"ings":1671,"In":1672,"Ġ9":1673,"áŀĪáŀĺáŀİ":1674,"áŀĺáŀĬ":1675,"áŀŁáŀħáŀļ":1676,"áŁĶ":1677,"Ġj":1678,"Ġapp":1679,"áŀĦáŀł":1680,"à¸£":1681,"áŀģáŀĩ":1682,"Ġle":1683,"ĠáŁ¦áŁł":1684,"ĠBudd":1685,"uring":1686,"Ġits":1687,"50":1688,"Ġáŀ±áŀĵ":1689,"áŀļáŀŁáŀļáŀŁ":1690,"br":1691,"áŀĢáŀħáŀĺ":1692,"ĠáŁ£áŁ¥":1693,"áŀľáŀļáŀİ":1694,"Ġáŀ¢áŀĩ":1695,"áŀĤáŀĹ":1696,"ious":1697,"ark":1698,"Ġ<":1699,"ile":1700,"ĠPh":1701,"ne":1702,"áŀ¥áŀŁ":1703,"enc":1704,"ob":1705,"áŁłáŁłáŁłáŁł":1706,"Ġyou":1707,"Ġsuch":1708,"we":1709,"áŀĺáŀĽ":1710,"ts":1711,"áŀħáŀī":1712,"ler":1713,"áŀ¢áŀı":1714,"Ġ10":1715,"ĠáŀŁáŀĢáŀļ":1716,"ular":1717,"Ġused":1718,"Ġ>":1719,"\",":1720,"Ġpre":1721,"ĠáŀĻáŀĺáŀļ":1722,"ors":1723,"ages":1724,"áŀĶáŀĩáŀī":1725,"19":1726,"ĠáŀĤáŀļ":1727,"áŀĩáŀĽ":1728,"áŀĵáŀĴ":1729,"áŀĢáŀł":1730,"erv":1731,"Ġso":1732,"ffect":1733,"áŀĺáŀħáŀļ":1734,"áŀĬáŀĵ":1735,"áŀ¶áŁĪ":1736,"áŀĲáŀĺ":1737,"ĠáŀļáŀŃáŀĢ":1738,"áŁĬáŀº":1739,"áŀŁáŀĵáŀľ":1740,"te":1741,"áŀŁáŀĴ":1742,"áŀĳáŀĽ":1743,"hed":1744,"Ġpe":1745,"áŀħáŀļáŀİ":1746,"Ġ?\"":1747,"ade":1748,"áŀħáŀĸ":1749,"áŀİáŀĵ":1750,"ons":1751,"áŀĢáŀĬáŀĩ":1752,"ambod":1753,"ĠáŀŁáŀĢáŀĽ":1754,"Ġbeen":1755,"rans":1756,"Ġlanguage":1757,"ĠáŁ£áŁ£":1758,"áŀĦáŀħáŀĢ":1759,"Ġáŀĺáŀħ":1760,"áŀļáŀĽáŀĢ":1761,"ance":1762,"]]":1763,"áŀłáŀ«áŀĳ":1764,"áŀĲáŀĽ":1765,"áŀĪáŀĶ":1766,"à¹Ģ":1767,"ied":1768,"áŀģáŀĦ":1769,"áŀİáŀĴáŀĺ":1770,"fter":1771,"Ġev":1772,"Ġbir":1773,"áŁĥáŁĴ":1774,"áŀĵáŀĢáŀľ":1775,"áŀļáŀŁáŀĸ":1776,"ĠáŁ¡áŁ©áŁ¢":1777,"áŀĢáŀıáŀĺ":1778,"Ġfirst":1779,"áŀĵáŀī":1780,"áŀīáŀĬ":1781,"áŀļáŀĢáŀŁ":1782,"Ġmore":1783,"rol":1784,"ai":1785,"áŀĤáŀŁ":1786,"áŀĻáŀĺáŀĤ":1787,"45":1788,"ĠHe":1789,"ays":1790,"áŁīáŀ¹":1791,"Ġáŀ±áŀĶ":1792,"Ġla":1793,"áŀļáŀŁáŀĵ":1794,"âĢ¦":1795,"Ġknow":1796,"ĠX":1797,"Ġro":1798,"ality":1799,"ics":1800,"âĢĵ":1801,"Ġcaus":1802,"Ġreg":1803,"Ġinto":1804,"ft":1805,"à¸Ń":1806,"Ġáŀłáŀ«áŀĳ":1807,"ĠFrance":1808,"Ġocc":1809,"nder":1810,"áŀĽáŀĵáŀĻ":1811,"áŀıáŀ¢":1812,"ann":1813,"ĠáŁ¨áŁł":1814,"Ġáŀľáŀĺ":1815,"ick":1816,"ĠáŁ¡áŁ©áŁ£":1817,"à¹Ī":1818,"áŀıáŀī":1819,"áŀĺáŀĥ":1820,"áŀīáŀĦ":1821,"áŁīáŁħ":1822,"Ġprod":1823,"ĠáŀĹáŀĳ":1824,"áŀĩáŀĤ":1825,"Ġáŀ±áŀĦ":1826,"Ġ--":1827,"áŀļáŀľáŀĽ":1828,"ci":1829,"áŀĢáŀģ":1830,"áŀĸáŀİ":1831,"ener":1832,"ron":1833,"áŀĽáŀĶáŀļ":1834,"ung":1835,"àº":1836,"10":1837,"Ġsign":1838,"ĠáŀĤáŀĹ":1839,"áŀĨáŀľ":1840,"Ġem":1841,"Ġáŀ¯áŀĢáŀĩáŀĵ":1842,"áŀļáŀļáŀĽ":1843,"áŁĬáŁĦ":1844,"áŀĸáŀĬ":1845,"ild":1846,"áŀħáŀıáŀĳ":1847,"Ġrel":1848,"Ġáŀ§áŀĶáŀļ":1849,"cept":1850,"áŀĺáŀĶáŀī":1851,"áŀĶáŀĺ":1852,"áŀĵáŀģ":1853,"áŀĽáŀĴáŀĺ":1854,"here":1855,"áŀķáŀŁ":1856,"Ġthere":1857,"row":1858,"áŀĻáŀľáŀĺ":1859,"Ġout":1860,"Ġáŀ§áŀĶáŀħ":1861,"are":1862,"áŀĩáŀī":1863,"ĠAr":1864,"áŀĽáŀĶáŀĦ":1865,"ĠáŀıáŀĺáŀĢ":1866,"Ġtw":1867,"áŀļáŀ¡áŀĦ":1868,"ĠáŁ¢áŁłáŁ¡áŁ¨":1869,"áŀĪáŀļ":1870,"rough":1871,"ery":1872,"ered":1873,"ited":1874,"oph":1875,"cess":1876,"ug":1877,"Ġover":1878,"Ġlar":1879,"Ġ2013":1880,"áŀļáŀĦáŀļ":1881,"áŀĨáŀı":1882,"Ġthan":1883,"ĠáŀĤáŀİáŀĵ":1884,"ific":1885,"áŀĽáŀĦáŀĺáŀĢ":1886,"Ġdrying":1887,"20":1888,"áŀıáŀ²":1889,"áŀĹáŀĸ":1890,"áŀ£áŀĦ":1891,"ease":1892,"áŀĻáŀİ":1893,"Ġáŀ§áŀĶáŀĵ":1894,"áŀĻáŀģ":1895,"áŀĺáŀĸáŀĽ":1896,"Ġrec":1897,"áŀīáŀľáŀı":1898,"ĠáŀĹáŀľ":1899,"Ġ31":1900,"Ġwill":1901,"Ġdif":1902,"Ġind":1903,"áŀļáŀĳáŀĽ":1904,"Ġ20":1905,"Ġgr":1906,"ĠDr":1907,"az":1908,"áŀħáŀĴáŀĺ":1909,"áŀĤáŀĶ":1910,"áŀĵáŀĢáŀļ":1911,"Ġ199":1912,"overn":1913,"áŀĢáŀĩáŀī":1914,"ten":1915,"áŀĤáŀľ":1916,"áŀİáŀĹ":1917,"hn":1918,"áŀļáŀħáŀĵ":1919,"Ġsome":1920,"ĠCambod":1921,"up":1922,"Ġtrans":1923,"Ġmany":1924,"ury":1925,"ĠáŀĺáŀŁ":1926,"Ġwhen":1927,"Ġáŀīáŀī":1928,"Ġáŀ¢áŀħáŀĽáŀĵ":1929,"oyal":1930,"ĠZ":1931,"áŁĳ":1932,"áŀļáŀ°":1933,"ĠáŀĲáŀľ":1934,"áŀĵáŀĢáŀĹ":1935,"ince":1936,"Ġáŀļáŀĺáŀİ":1937,"áŀ¢áŀĺ":1938,"ĠáŀĤáŀĤ":1939,"áŀļáŀĢáŀĺ":1940,"Ġinv":1941,"Ġáŀ¢áŀľáŀĻáŀľ":1942,"áŀĦáŀĥ":1943,"áŀıáŀł":1944,"ĠáŀĤáŀĻ":1945,"áŀĵáŀĢáŀĶáŀĦ":1946,"ĠáŁ¡áŁ©áŁ§áŁ¥":1947,"gan":1948,"right":1949,"Ġ|":1950,"áŀİáŀī":1951,"ĠáŀŁáŀŁáŀļ":1952,"ĠáŀĩáŀĻáŀľáŀĺ":1953,"áŀģáŀĩáŀĵ":1954,"Ġáŀ¥áŀĬ":1955,"Ġatt":1956,"ĠáŀĤáŀİáŀĢáŀĺ":1957,"áŀĥáŀļ":1958,"ĠDec":1959,"Ġprov":1960,"ĠáŀĴáŀĵáŀī":1961,"ana":1962,"Ġgrain":1963,"ement":1964,"Ġwho":1965,"áŀĶáŀķ":1966,"ĠáŁ£áŁ¦":1967,"à¸±":1968,"Ġonly":1969,"áŀİáŀļ":1970,"Ġbet":1971,"ĠáŀļáŀĢáŀŁ":1972,"Ġbl":1973,"áŀļáŀĢáŀĶáŀļáŀĶáŀļ":1974,"ĠChin":1975,"18":1976,"áŀĵáŀĻáŀŁ":1977,"old":1978,"ĠáŁ©áŁł":1979,"áŁīáŁģáŁĩ":1980,"Ġ(\"":1981,"áŀĢáŀĶáŀļ":1982,"ĠáŀĩáŀĻ":1983,"Ġtime":1984,"att":1985,"ier":1986,"áŁ¥áŁł":1987,"Ġáŀ±áŀł":1988,"à¹ī":1989,"áŀĹáŀĳ":1990,"Ġwater":1991,"ĠáŁ§áŁł":1992,"áŀĶáŀĲáŀı":1993,"12":1994,"ĠáŁ¡áŁ¨áŁ¦":1995,"ĠáŀĵáŀĤáŀļáŀĶ":1996,"ĠáŀĽáŀĵ":1997,"ative":1998,"Ġáŀ§áŀĶáŀı":1999,"áŀĩáŀ¢":2000,"áŀ¯áŀĢ":2001,"ix":2002,"Ġáŀ§áŀĶáŀĳ":2003,"ĠáŁ¡áŁ©áŁ¡":2004,"ĠAl":2005,"stem":2006,"agon":2007,"Ġáŀľáŀĩ":2008,"ĠâĢĵ":2009,"ĠRoyal":2010,"ĠáŀĶáŀĭáŀĺáŀŁ":2011,"Ġáŀ§áŀĶáŀĬ":2012,"ros":2013,"Ġworld":2014,"Äģ":2015,"Ġáŀ¦":2016,"gg":2017,"áŀ§áŀŁáŀĹ":2018,"ublic":2019,"ĠáŀŁáŀĺáŀļáŀĺ":2020,"áŀĢáŀŁáŀĸ":2021,"Ġspec":2022,"áŀĩáŀļ":2023,"à¸¡":2024,"evelop":2025,"ople":2026,"au":2027,"ĠáŁ£áŁ¤":2028,"à¸ĩ":2029,"osis":2030,"ivers":2031,"Ġdisease":2032,"áŀ».":2033,"ĠáŀŁáŀłáŀĸ":2034,"Ġear":2035,"Ġ;":2036,"Ġduring":2037,"Ġup":2038,"áŀıáŀĥ":2039,"ection":2040,"Ġam":2041,"ont":2042,"ature":2043,"ween":2044,"[[":2045,"Ġdef":2046,"Ġyear":2047,"ual":2048,"rib":2049,"nam":2050,"Ġáŀħáŀļáŀħ":2051,"ĠCom":2052,"áŀģáŀħ":2053,"ĠáŀŁáŀĺáŀĲ":2054,"ĠáŀĶáŀĳáŀħáŀĺ":2055,"ĠáŀĺáŀĤáŀĴ":2056,"Ġfeed":2057,"ke":2058,"áŀĬáŀĶ":2059,"áŀļáŀŁáŀĢ":2060,"Ġ),":2061,"orn":2062,"Ġtwo":2063,"áŀļáŀļáŀŁ":2064,"ĠáŀľáŀĬ":2065,"áŀºáŁĸ":2066,"its":2067,"aj":2068,"ruct":2069,"int":2070,"Ġvar":2071,"áŀļáŀĽáŀĦ":2072,"áŀļáŀĶáŀĢ":2073,"áŁ¡áŁł":2074,"Ġnum":2075,"Â»":2076,"ĠáŁ¢áŁ©":2077,"âĢľ":2078,"ution":2079,"Ġty":2080,"Ġafter":2081,"áŀļáŀħáŀĦ":2082,"áŀĢáŀĢáŀĦáŀĳ":2083,"overnment":2084,"áŀĶáŀ¢":2085,"âĢĻ":2086,"oth":2087,"Ġunder":2088,"Ġbirds":2089,"Ġoccur":2090,"arm":2091,"itler":2092,"Ġrem":2093,"ural":2094,"ool":2095,"ĠáŀĺáŀĽ":2096,"Ġáŀ§áŀĢ":2097,"Ġcount":2098,"áŀĢáŀļáŀĽ":2099,"ident":2100,"áŀĵáŀļáŀĦ":2101,"Ġáŀ±áŀľ":2102,"Ġhigh":2103,"Ġthrough":2104,"ĠáŁ¢áŁłáŁłáŁłáŁł":2105,"Ġsub":2106,"ike":2107,"Ġbetween":2108,"ased":2109,"rop":2110,"ĠáŁ¢áŁłáŁłáŁł":2111,"Ã¡":2112,"ĠQ":2113,"áŀĢáŀ²":2114,"áŀĲáŀĶ":2115,"à¸¥":2116,"Ġáŀ§áŀŁáŀĹ":2117,"áŀĴáŀŁáŀĹ":2118,"ake":2119,"ĠKhm":2120,"11":2121,"áŀĩáŀĳ":2122,"anc":2123,"oss":2124,"ower":2125,"ĠLa":2126,"áŀ®":2127,"áŀļáŀİáŀĺ":2128,"Ġpol":2129,"ĠáŁ¡áŁ©áŁł":2130,"áŀļáŀŁáŀĶ":2131,"ĠThis":2132,"\".":2133,"boung":2134,"form":2135,"ral":2136,"áº":2137,"ĠáŀĹáŀİ":2138,"Ġair":2139,"ĠáŁ£áŁ¨":2140,"áŀļáŀĶáŀĬáŀİ":2141,"lin":2142,"sp":2143,"Ġinter":2144,"30":2145,"áŀļáŀĶáŀŁ":2146,"áŀ¡áŀŁáŀĢ":2147,"áŀĵáŀĢáŀĬáŀĽ":2148,"Ġ+":2149,"Ġnew":2150,"Ġlanguages":2151,"ĠDragon":2152,"the":2153,"vent":2154,"ĠTboung":2155,"ĠInd":2156,"oda":2157,"áŀĤáŀŁáŀĺ":2158,"Ġdo":2159,"Ġ17":2160,"ists":2161,"Ġcontrol":2162,"ext":2163,"ae":2164,"áŀĢáŀĢáŀĺ":2165,"áŀ¡áŀĦ":2166,"Ġthem":2167,"ĠáŀĶáŀĳáŀĽ":2168,"ĠáŀĶáŀĳáŀĸ":2169,"ife":2170,"Ġuse":2171,"áŀĵáŀĢáŀĳáŀĳ":2172,"ĠKhmum":2173,"áŀıáŀ±":2174,"ather":2175,"ĠáŁ£áŁ§":2176,"Ġdi":2177,"ĠMar":2178,"Ġdep":2179,"Ġac":2180,"Ġoff":2181,"ĠDeg":2182,"owever":2183,"Ġ0":2184,"ĠáŀĩáŀĽ":2185,"ĠáŀĺáŀĢáŀļ":2186,"Ġ12":2187,"áŀļáŀħáŀĺ":2188,"Ġ16":2189,"ĠMove":2190,"ible":2191,"ause":2192,"reatment":2193,"Ġ1445":2194,"ĠDegree":2195,"áŀģáŀģáŀİ":2196,"Ġpo":2197,"áŀľáŀĳáŀı":2198,"áŀĤáŀĳ":2199,"ert":2200,"ĠHitler":2201,"ble":2202,"ru":2203,"áŀĩáŀĻ":2204,"áŁīáŀ¾":2205,"als":2206,"acter":2207,"ull":2208,"Ġáŀĸáŀļ":2209,"Ġact":2210,"ĠáŁ¤áŁ¢":2211,"áŀĤáŀļáŀľáŀı":2212,"áŀĢáŀĩáŀĵ":2213,"áŀłáŀĹ":2214,"Ġáŀľáŀħáŀĵ":2215,"ouse":2216,"irus":2217,"à¹Ģà¸":2218,"Ġdiffer":2219,"áŀĦáŀĻáŀĽ":2220,"ĠáŁ¡áŁ©áŁ§áŁ©":2221,"II":2222,"áŀĤáŀł":2223,"áŀĤáŀļáŀĻ":2224,"eng":2225,"ĠáŁ¡áŁ©áŁ§áŁł":2226,"Ch":2227,"Ġne":2228,"com":2229,"gram":2230,"áŀĳáŀĻ":2231,"Ġdevelop":2232,"à¸µ":2233,"ject":2234,"ward":2235,"Ġáŀħáŀļáŀİ":2236,"Ġwhere":2237,"eth":2238,"Ġno":2239,"ĠBuddha":2240,"bo":2241,"ĠáŁ¤áŁ¥":2242,"ĠSoda":2243,"ĠáŁ¢áŁłáŁłáŁ§":2244,"Ġcommon":2245,"uro":2246,"áŀļáŀ±":2247,"áŀĹáŀı":2248,"meric":2249,"Ġsystem":2250,"áŀĽáŀķ":2251,"Ġáŀĩáŀİ":2252,"Ġ15":2253,"ĠPro":2254,"áŀļáŀĳáŀĢ":2255,"ĠáŁ¢áŁ©áŁ":2256,"Ġdec":2257,"oul":2258,"áŀĭáŀĹ":2259,"ating":2260,"Ġfound":2261,"áŀŁáŀĽáŀĢáŀĺ":2262,"ĠSh":2263,"ĠáŀŁáŀļáŀİ":2264,"áŁĮáŀ»":2265,"Ġcall":2266,"ilos":2267,"Ġknown":2268,"ium":2269,"ually":2270,"áŀľáŀĺ":2271,"áŀĸáŀĩ":2272,"Ġacc":2273,"Ġáŀ§áŀĶáŀŁ":2274,"ale":2275,"ĠáŁģ":2276,"ĠRe":2277,"ollow":2278,"io":2279,"ures":2280,"áŀļáŀĶáŀĽ":2281,"inh":2282,"Ġsim":2283,"ities":2284,"Ġinclude":2285,"ĠáŀĻáŀī":2286,"ĠáŁ¡áŁłáŁłáŁł":2287,"iam":2288,"áŀŁáŀĬ":2289,"áŀħáŀĽ":2290,"áŀģáŀļ":2291,"ise":2292,"à¸¢":2293,"Ġáŀ«áŀĢ":2294,"áŀİáŀŁáŀĺ":2295,"áŀģáŀļáŀĶáŀļ":2296,"áŀĵáŀĢáŀĪ":2297,"inal":2298,"Ġob":2299,"Ġ11":2300,"ĠáŁ¡áŁ¥áŁł":2301,"Ġcentury":2302,"Ġpeople":2303,"áŀļáŀĮ":2304,"áŀīáŀķ":2305,"Ġmod":2306,"áŀ¶.":2307,"áŀĶáŀ¢áŀĦ":2308,"Ġthese":2309,"áŀĻáŀĢáŀĦáŀĳ":2310,"áŀŁáŀĢáŀĢáŀĺ":2311,"áŀŁáŀĻ":2312,"áŀłáŀĳ":2313,"Ġsec":2314,"áŁ¡áŁ£":2315,"Ġgovernment":2316,"Ġ197":2317,"Ġexp":2318,"ĠáŁ£áŁłáŁł":2319,"orth":2320,"áŀĽáŀĦáŀĶáŀĦ":2321,"ĠáŀŁáŀłáŀĢ":2322,"ĠWright":2323,"à¸Ļà¸":2324,"Ġpop":2325,"Ġdist":2326,"áŀĻáŀŁáŀļ":2327,"ĠEm":2328,"ey":2329,"inist":2330,"oup":2331,"ĠáŀħáŀĦáŀħ":2332,"agn":2333,"Ġresp":2334,"áŀª":2335,"urn":2336,"ember":2337,"60":2338,"80":2339,"ax":2340,"Ġáŀ§áŀĬ":2341,"Ġwould":2342,"ĠáŁ¨áŁ¤":2343,"Ġass":2344,"iki":2345,"ology":2346,"><":2347,"kh":2348,"áŀľáŀĳ":2349,"áŀĵáŀľ":2350,"áŀłáŀĬ":2351,"ins":2352,"Ġsigns":2353,"lu":2354,"Ġent":2355,"Ġáŀ¢áŀĺáŀı":2356,"Ġáŀ¢áŀĵáŀı":2357,"ara":2358,"ĠáŁ¤áŁ£":2359,"ility":2360,"ĠáŁ¦áŁ¢":2361,".)":2362,"hes":2363,"áŀļáŀıáŀŁ":2364,"yc":2365,"Ġáŀ§áŀħ":2366,"ĠAmeric":2367,"ĠáŁ¢áŁłáŁłáŁ¨":2368,"áŀģáŀŁ":2369,"áŀļáŀĦáŀĤ":2370,"áŁ¡áŁ¦":2371,"own":2372,"ute":2373,"ĠKhmer":2374,"tt":2375,"áŁģáŀ¸":2376,"áŀĵáŀĦáŀĩ":2377,"áŀīáŀĵ":2378,"áŀĢáŀĬáŀİ":2379,"áŀĻáŀĦ":2380,"áŀĶáŀĻ":2381,"ĠáŀĨáŀĢ":2382,"outh":2383,"Ġwork":2384,"\")":2385,"áŀĻáŀĺáŀļ":2386,"ĠáŀĶáŀľ":2387,"inc":2388,"Ġpres":2389,"Ġfollow":2390,"ingu":2391,"ĠViet":2392,"Ġáŀ¦áŀŁ":2393,"áŀŁáŀĵáŀĢ":2394,"áŀĳáŀİ":2395,"áŀĽáŀĽ":2396,"áŀģáŀŁáŀĶ":2397,"ants":2398,"áŀħáŀĳ":2399,"Ġseen":2400,"áŀļáŀķáŀĽ":2401,"áŀļáŀĸáŀĦ":2402,"áŀĨáŀĵ":2403,"Ġegg":2404,"áŀĻáŀŁáŀĦ":2405,"áŀĴáŀĸ":2406,"ĠáŀķáŀĽáŀľ":2407,"aw":2408,"áŁ¡áŁ¨":2409,"Ġany":2410,"ized":2411,"14":2412,"áŀļáŀĶáŀİ":2413,"ĠáŁ¤áŁ¤":2414,"à¹Ħ":2415,"áŀĢáŀļáŀĢ":2416,"Ġsc":2417,"Ġmon":2418,"Ġman":2419,"ily":2420,"urope":2421,"ness":2422,"áŀŁáŀŁ":2423,"read":2424,"ĠáŁ¨áŁ¨":2425,"ĠáŀŁáŀľ":2426,"áŀľáŀľ":2427,"Ġáŀ¢áŀŁáŀĦ":2428,"iod":2429,"ĠáŀŁáŀĺáŀŁ":2430,"Ġthen":2431,"esions":2432,"ĠáŁ¡áŁ¨áŁ¨":2433,"Ġprogram":2434,"ĠCarM":2435,"land":2436,"Ġáŀ§áŀĶáŀĴ":2437,"áŁ¡áŁ¢":2438,"Ġlit":2439,"Ġsupp":2440,"Ġphilos":2441,"Ġes":2442,"ink":2443,"ines":2444,"áŁ©áŁ£":2445,"uch":2446,"ĠáŀŁáŀĺáŀł":2447,"à¸°":2448,"olv":2449,"Ġred":2450,"ode":2451,"ĠLe":2452,"áŀĽáŀļáŀĽ":2453,"áŀŁáŀł":2454,"áŀľáŀĢáŀļ":2455,"ĠáŀŁáŀĺáŀļáŀĹ":2456,"imes":2457,"iver":2458,"áŀĴáŀħ":2459,"Ġáŀ±áŀļáŀŁ":2460,"ash":2461,"ĠSp":2462,"ange":2463,"13":2464,"und":2465,"Ġáŀ¢áŀł":2466,"ork":2467,"elf":2468,"ĠSe":2469,"ĠPar":2470,"Ġgener":2471,"ically":2472,"Ġcalled":2473,"áŀªáŀĸ":2474,"ful":2475,"áŀĵáŀĺ":2476,"áŀĻáŀł":2477,"ech":2478,"ift":2479,"ox":2480,"uy":2481,"Ġáŀıáŀľ":2482,"ones":2483,"Ġco":2484,"ĠáŁ¥áŁ¥":2485,"áŀĺáŀĳáŀĺ":2486,"áŀľáŀł":2487,"Ġáŀĩáŀĩ":2488,"áŀļáŀĺáŀĵ":2489,"Ġwrit":2490,"Ġimp":2491,"201":2492,"ĠáŀĩáŀĦ":2493,"orld":2494,"ets":2495,"ĠBe":2496,"ĠáŁ¢áŁ¥áŁł":2497,"Ġimport":2498,"áŀħáŀŁáŀĵ":2499,"áŀİáŀĦáŀĩ":2500,"led":2501,"áŀĽáŀļáŀĦ":2502,"Ġpar":2503,"amin":2504,"uction":2505,"ĠVietnam":2506,"ient":2507,"ms":2508,"áŀĵáŀĶáŀĳ":2509,"áŀļáŀĸáŀĽ":2510,"áŀĨáŀļ":2511,"ĠáŁ¤áŁ¨":2512,"ĠáŁ¦áŁ¥":2513,"ĠáŁ¦áŁ¤":2514,"ĠáŀĶáŀĳáŀĶáŀī":2515,"Ġvery":2516,"ĠNew":2517,"Ġáŀ¯áŀĢáŀĹ":2518,"áŀİáŀĢáŀĺ":2519,"áŀļáŀıáŀĵ":2520,"nowiki":2521,"Treatment":2522,"fore":2523,"ĠáŀľáŀĽ":2524,"áŁīáŁĦáŁĩ":2525,"áŀĪáŀĢ":2526,"________________":2527,"Ġdifferent":2528,"Ġif":2529,"Ġcol":2530,"ock":2531,"chool":2532,"áŀĶáŀĶáŀĳ":2533,"áŁĤáŁĩ":2534,"Ġwar":2535,"ected":2536,"Ġsur":2537,"ĠáŀļáŀĽáŀĢ":2538,"que":2539,"ains":2540,"ĠChan":2541,"Ġincre":2542,"Ġagain":2543,"air":2544,"ĠCon":2545,"áŁ¢áŁł":2546,"áŀ¢áŀĤ":2547,"Ġtem":2548,"Ġfam":2549,"Ġhum":2550,"Ġconst":2551,"Ġadd":2552,"Ġincluding":2553,"áŀĦáŀĬ":2554,"Ġáŀ¢áŀĽ":2555,"ĠáŀıáŀĦ":2556,"áŀłáŀĺ":2557,"ĠáŀľáŀĢ":2558,"Ġcell":2559,"ĠáŀĩáŀĵáŀļáŀĦáŀĤ":2560,"ĠáŀļáŀŁáŀĩ":2561,"ett":2562,"áŀļáŀĲáŀı":2563,"áŀļáŀĪáŀĺáŀĺ":2564,"Ġbecause":2565,"Ġperiod":2566,"16":2567,"17":2568,"áŀŁáŀĢáŀĺ":2569,"ĠáŀĹáŀĤ":2570,"áŀıáŀĺáŀŁ":2571,"Ġmade":2572,"Ġ?âĢĿ":2573,"Ġbeing":2574,"ĠáŀŁáŀ¡":2575,"Ġserv":2576,"ict":2577,"ĠáŁ¥áŁ¤":2578,"áŁ¡áŁ¥":2579,"ilit":2580,"Ġhim":2581,"anda":2582,"=\"":2583,"atch":2584,"ĠHan":2585,"03":2586,"15":2587,"Ġest":2588,"BR":2589,"man":2590,"ĠáŀĶáŀĢáŀŁ":2591,"Ġáŀĳáŀİ":2592,"itis":2593,"Ġbro":2594,"els":2595,"áŁ£áŁł":2596,"ama":2597,"Ġabout":2598,"áŀħáŀĻ":2599,"ĠáŀĤáŀĺáŀĵ":2600,"áŁ¡áŁ¤":2601,"acc":2602,"Ġstud":2603,"áŀĦáŀ¢áŀĺ":2604,"Ġshould":2605,"rat":2606,"ĠáŀħáŀĽ":2607,"ĠáŀļáŀĶáŀĦ":2608,"áŀĴáŀļáŀİ":2609,"ites":2610,"ĠáŁ¥áŁ¢":2611,"Ġlesions":2612,"ĠáŁ§áŁ¥":2613,"ĠRo":2614,"ophy":2615,"áŁĭáŁĭ":2616,"áŀĹáŀĤ":2617,"áŀļáŀĢáŀĢ":2618,"áŀĦáŀĢáŀĢ":2619,"áŀĻáŀĢáŀĦ":2620,"áŀĦáŀĳáŀĦ":2621,"ĠáŁ©áŁ¤":2622,"áŀĺáŀħáŀĢ":2623,"Ġbu":2624,"à¸§":2625,"à¸´":2626,"la":2627,"Ġend":2628,"áŀĸáŀģ":2629,"Ġáŀłáŀļ":2630,"ĠEurope":2631,"ĠGT":2632,"ĠáŁ¢áŁłáŁ¡áŁł":2633,"oid":2634,"áŀıáŀŁáŀī":2635,"ĠáŁ¥áŁ¦":2636,"Ġthree":2637,"áŀıáŀŁáŀĵ":2638,"áŀĻáŀĺáŀĵ":2639,"áŀĹáŀŁáŀĢ":2640,"onom":2641,"Ġinst":2642,"Ġwhat":2643,"ĠBuddh":2644,"dom":2645,"áŀĽáŀ±":2646,"Ġáŀĺáŀĺ":2647,"áŀĤáŀķáŀĽ":2648,"áŀģáŀļáŀİ":2649,"ĠáŁ¥áŁłáŁłáŁł":2650,"ced":2651,"áŀĹáŀĦ":2652,"Ġcre":2653,"ĠáŁ¤áŁ§":2654,"Ġhist":2655,"áŀĵáŀĢáŀĶáŀĺ":2656,"Ġext":2657,"Ġáŀħáŀİ":2658,"ĠáŁ¥áŁ£":2659,"ĠáŁ¥áŁ¨":2660,"Ġbel":2661,"ole":2662,"ĠHowever":2663,"áŀĻáŀĩáŀĺ":2664,"ĠGerm":2665,"ĠáŀĺáŀļáŀİáŀĹ":2666,"apan":2667,"ĠáŁ©áŁ¡":2668,"irect":2669,"iel":2670,"áŀıáŀĤ":2671,"áŀľáŀħáŀļ":2672,"áŀħáŀİ":2673,"áŀĸáŀĶ":2674,"áŀĬáŀļáŀĩ":2675,"ĠáŁ¨áŁ§":2676,"raph":2677,"ĠáŁ¢áŁłáŁłáŁ¦":2678,"ĠCambodia":2679,"BC":2680,"áŀ¢áŀĹ":2681,"Ġoften":2682,"Ġlevel":2683,"uth":2684,"Ġdesign":2685,"ene":2686,"ĠáŁ¡áŁ¨áŁ§":2687,"ially":2688,"Ġinflu":2689,"tic":2690,"Ã³":2691,"áŀļáŀħáŀĢ":2692,"áŀĦáŀī":2693,"ĠáŀĽáŀĺ":2694,"Ġequ":2695,"áŀĽáŀĺáŀĢáŀĬáŀĽ":2696,"Ġord":2697,"áŀĵáŀĢáŀĵáŀĻ":2698,"Ġlead":2699,"ek":2700,"Ġra":2701,"Ġcap":2702,"áŁ¡áŁ§":2703,"Ġ13":2704,"ternational":2705,"Ġconsid":2706,"Ġimportant":2707,"ta":2708,"áŀĺáŀĻ":2709,"ination":2710,"ished":2711,"Ġsm":2712,"Ġcult":2713,"áŀļáŀıáŀĢ":2714,"à¸ķ":2715,"ĠAnd":2716,"Ġ25":2717,"Ġ193":2718,"ĠChinese":2719,"Ġyears":2720,"áŀĶáŀĤ":2721,"áŀľáŀī":2722,"Ġáŀ¢áŀĺáŀĵ":2723,"reed":2724,"ars":2725,"Ġeffect":2726,"Ġáŀ£áŀŁ":2727,"Ġarch":2728,"oult":2729,"áŀīáŀļ":2730,"áŀİáŀĶ":2731,"ĠáŀĶáŀĭáŀľ":2732,".\"":2733,"ĠáŀĶáŀĢáŀĶ":2734,"Ġáŀľáŀĵ":2735,"ĠáŁ¤áŁ¦":2736,"ĠáŁ¦áŁ£":2737,"emb":2738,"ĠáŁ¡áŁ¨áŁ¥":2739,"ĠáŁ¢áŁłáŁ¡áŁ¦":2740,"ĠUnited":2741,"40":2742,"ï¼":2743,"áŀĭáŀĴ":2744,"Ġmain":2745,"ody":2746,"Ġed":2747,"áŀĹáŀľ":2748,"áŀļáŀĶáŀļáŀĳ":2749,"à¸Ķ":2750,"ames":2751,"ĠIs":2752,"ww":2753,"áŀīáŀĻáŀĢ":2754,"áŀİáŀĽ":2755,"Ġtone":2756,"Ġboth":2757,"ĠBC":2758,"istic":2759,"Ġvi":2760,"ĠWorld":2761,"Ġcauses":2762,"25":2763,"ype":2764,"áŀľáŀĲ":2765,"rem":2766,"ĠáŀĺáŀĵáŀŁ":2767,"ĠáŀĩáŀĵáŀĹ":2768,"ĠáŁ¥áŁ§":2769,"Ġgo":2770,"ĠKim":2771,"ours":2772,"Ġcommun":2773,"ajor":2774,"lish":2775,"ÃŃ":2776,"áŀħáŀľ":2777,"Ġsa":2778,"Ġpublic":2779,"Ġdel":2780,"Ġmov":2781,"Ġrep":2782,"Ġvirus":2783,"ĠáŁłáŁł":2784,"oultry":2785,"ien":2786,"ma":2787,"áŀĶáŀĢáŀļ":2788,"Ġser":2789,"lement":2790,"other":2791,"Ġconc":2792,"ĠáŁ©áŁ¢":2793,"Ġresult":2794,"Ġearly":2795,"ĠAmerican":2796,"hu":2797,"ohn":2798,"Ġ\\":2799,"áŀĵáŀĤ":2800,"Ġáŀ¢áŀĴáŀĺ":2801,"Ġpers":2802,"áŁ¡áŁ¡":2803,"Ġgrow":2804,"áŀĢáŀĶáŀĺ":2805,"ailed":2806,"An":2807,"ces":2808,"sc":2809,"Ã¢":2810,"à¤":2811,"áŀĽáŀĶáŀĵ":2812,"áŀĵáŀĢáŀħáŀĺ":2813,"Ġsame":2814,"áŀĻáŀĢáŀĬ":2815,"à¸Ĺ":2816,"Ġlike":2817,"Ġ.-":2818,"ument":2819,"ĠJapan":2820,"áŀļáŀĪáŀĺ":2821,"ym":2822,"áŀıáŀĢáŀĶ":2823,"Ġwell":2824,"Ġáŀīáŀı":2825,"Ġmo":2826,"Ġmus":2827,"ĠáŁ¡áŁ¥áŁ¢":2828,"ĠáŁ¢áŁłáŁłáŁ¤":2829,"everal":2830,"yle":2831,"hem":2832,"áŁĬáŀ»áŁĨ":2833,"Ġmill":2834,"Ġ195":2835,"Ġ\\>":2836,"Ġâ":2837,"áŀĵáŀĻ":2838,"ĠTr":2839,"ĠAD":2840,"ĠáŁ¢áŁłáŁłáŁ¥":2841,"áŀĴáŀĵáŀī":2842,"Ġaround":2843,"ital":2844,"itions":2845,"Ġlife":2846,"Ġcompl":2847,"uced":2848,"ĠáŀĸáŀĸáŀĢ":2849,"Ġ50":2850,"Ġsecond":2851,"áŀĶáŀĺáŀĵ":2852,"Ġáŀ¢áŀĶáŀļ":2853,"Ġcar":2854,"though":2855,"Ġchar":2856,"NE":2857,"iev":2858,"ton":2859,"wn":2860,"áŀĢáŀĶáŀĦ":2861,"áŀĺáŀļáŀ¢":2862,"ĠáŀĢáŀľ":2863,"Ġte":2864,"áŁĬáŀ¹":2865,"áŀıáŀļáŀĴáŀĺ":2866,"ĠáŁ¡áŁ¨áŁ¤":2867,"ve":2868,"yl":2869,"áŀĢáŀªáŀĸ":2870,"áŀħáŀĢáŀĺ":2871,"áŀļáŀİáŀĹ":2872,"ised":2873,"alk":2874,"ĠáŁ¤áŁłáŁł":2875,"Ġ250":2876,"ĠPal":2877,"ĠKing":2878,"ĠáŁ¢áŁłáŁłáŁ©":2879,"Ġnumber":2880,"Ġ()":2881,"Ġav":2882,"Ġsk":2883,"Ġmet":2884,"áŁ©áŁł":2885,"ained":2886,"Ġhel":2887,"ĠOr":2888,"áŀĽáŀĹáŀı":2889,"Ġmean":2890,"Ġlarge":2891,"pos":2892,"ĠÃ":2893,"Ġáŀĺáŀĳ":2894,"áŀĩáŀĸáŀĦ":2895,"ĠáŀĽáŀĶ":2896,"ĠáŀĴáŀļáŀİ":2897,"áŀĵáŀĢáŀļáŀĢ":2898,"áŀĩáŀĵáŀĩ":2899,"áŀļáŀĻáŀĢáŀħ":2900,"ĠáŁ¡áŁ©áŁ©":2901,"och":2902,"Ġtyp":2903,"vention":2904,"It":2905,"da":2906,"ĠáŀĢáŀĦáŀĸ":2907,"ĠáŀĸáŀĢ":2908,"áŀľáŀĻ":2909,"ĠáŀĩáŀĬ":2910,"áŀĵáŀĢáŀŁáŀĦ":2911,"ĠáŀĨáŀĸ":2912,"arch":2913,"Ġáŀ±áŀ¡":2914,"áŀļáŀĻáŀĢ":2915,"ĠPr":2916,"ÄĲ":2917,"Ġáŀļáŀ¢":2918,"áŀĵáŀĢáŀ¢":2919,"Ġáŀ±áŀı":2920,"Ġfil":2921,"ĠPl":2922,"ived":2923,"ĠGr":2924,"ample":2925,"uk":2926,"áŀĻáŀķáŀĽ":2927,"áŀ¡áŀľáŀĢ":2928,"áŁĬáŁģ":2929,"áŀĢáŀĺáŀĵ":2930,"arg":2931,"ices":2932,"Ġpoultry":2933,"Ġret":2934,"áŀļáŀĤáŀĶ":2935,"Ġprocess":2936,"ograph":2937,"ĠáŁ¡áŁ©áŁ©áŁ£":2938,"Ġclass":2939,"Ġbecame":2940,"Ġáŀ§áŀĶáŀŁáŀĤ":2941,"'t":2942,"ted":2943,"áŀĶáŀĨ":2944,"Ġwall":2945,"à¸ļ":2946,"Ġmajor":2947,"umb":2948,"Ġáŀ¯áŀĢáŀ§áŀı":2949,"ried":2950,"ĠáŁ©áŁ¦":2951,"Ġdisc":2952,"Ġpolit":2953,"agnosis":2954,"med":2955,"áŀŁáŀĽáŀĶ":2956,"ĠáŀħáŀħáŀĢ":2957,"áŀłáŀĽ":2958,"áŀĤáŀıáŀĢ":2959,"ĠGu":2960,"ĠáŁ¡áŁ¥áŁ¦":2961,"Ġwhile":2962,"ript":2963,"70":2964,"lo":2965,"to":2966,"Ġáŀķáŀļ":2967,"Ġdays":2968,"à¸«":2969,"ĠáŁ¦áŁ§":2970,"Ġ24":2971,"Ġ198":2972,"áŀıáŀĹáŀĢ":2973,"ĠCarN":2974,"ĠáŁ©áŁ¥":2975,"peror":2976,"ĠComm":2977,"rh":2978,"Ġever":2979,"áŀĳáŀľ":2980,"ina":2981,"Ġsom":2982,"Ġpos":2983,"ĠFor":2984,"Ġstr":2985,"Ġorgan":2986,"aking":2987,"ĠáŁ¡áŁ©áŁ¦áŁł":2988,"NA":2989,"áŀĺáŀŁáŀĺ":2990,"áŀħáŀĴ":2991,"áŀīáŀĶ":2992,"áŀģáŀĽ":2993,"ĠáŀľáŀĮ":2994,"Ġpower":2995,"ulation":2996,"ides":2997,"ote":2998,"áŁ©áŁ¢":2999,"issan":3000,"áŀĵáŀĻáŀĵ":3001,"áŀĻáŀľáŀı":3002,"ĠáŀĶáŀļáŀĸáŀĽ":3003,"áŁĨáŀ¶áŁĨ":3004,"aem":3005,"iá»":3006,"Ġide":3007,"ats":3008,"Ġcould":3009,"Ġlow":3010,"ĠáŁ¡áŁ¨áŁł":3011,"Ġcontin":3012,"ĠCambodian":3013,"hip":3014,"Ã¨":3015,"áŀļáŀĶáŀĺ":3016,"hel":3017,"Ġáŀ±áŀŁáŀĲ":3018,"ases":3019,"Ġlay":3020,"Ġlingu":3021,"ĠáŁłáŁłáŁł":3022,"ission":3023,"//":3024,"ham":3025,"oe":3026,"ries":3027,"Ġsl":3028,"Ġseveral":3029,"áŀĻáŀĢáŀĽ":3030,"Ġmilit":3031,"ĠSw":3032,"ĠáŁ§áŁ§":3033,"ĠáŁ¦áŁ¦":3034,"oci":3035,"Ġart":3036,"ttp":3037,"://":3038,"pec":3039,"Ġher":3040,"ĠáŀĺáŀĻ":3041,"áŀħáŀ¡":3042,"ined":3043,"Ġloc":3044,"Ġref":3045,"ified":3046,"itional":3047,"áŀ§áŀĶáŀĺ":3048,"Ġcountry":3049,"linical":3050,"na":3051,"Ġ$":3052,"áŀĤáŀłáŀĶáŀı":3053,"Ġlong":3054,"ĠáŀŁáŀłáŀĤ":3055,"ided":3056,"Ġgiv":3057,"ĠáŁ¡áŁ¤áŁ£":3058,"ĠCarNissan":3059,"áŀłáŀĦ":3060,"ĠáŁ¢áŁłáŁ¡áŁ¡":3061,"ĠáŁ¡áŁ©áŁ¤áŁ¥":3062,"iety":3063,"Ġtrad":3064,"Ġet":3065,"áŀĶáŀļáŀĻ":3066,"áŀĳáŀĳ":3067,"Ġsuc":3068,"Ġhouse":3069,"ĠáŀŁáŀłáŀĶ":3070,"rav":3071,"ĠAnanda":3072,"Ġagainst":3073,"LI":3074,"ration":3075,"Ãł":3076,"áŀıáŀĶáŀĦ":3077,"áŀģáŀļáŀĬ":3078,"Ġsince":3079,"Ġcor":3080,"Ġdet":3081,"Ġmed":3082,"áŀĽáŀĦáŀķ":3083,"ĠáŁ§áŁ¢":3084,"olution":3085,"Ġcond":3086,"Ġdeath":3087,"ĠáŁ¢áŁłáŁ¡áŁ§":3088,"Ġ30":3089,"rent":3090,"ency":3091,"ences":3092,"ning":3093,"pen":3094,"áŀļáŀĤáŀļ":3095,"áŀħáŀĬáŀĳ":3096,"áŀĸáŀĤáŀĶ":3097,"ĠáŀĤáŀĩ":3098,"ĠáŁ£áŁłáŁłáŁłáŁł":3099,"áŀļáŀĬáŀĢ":3100,"ional":3101,"ĠEng":3102,"ĠWar":3103,"ĠáŁ¡áŁ©áŁ©áŁ¡":3104,"Ġlarg":3105,"ĠChina":3106,"Ġsmall":3107,"áŀıáŀĢáŀļáŀİ":3108,"áŀĽáŀıáŀĶ":3109,"áŀĶáŀ¡":3110,"áŀĹáŀŁ":3111,"Ġáŀ§áŀĤ":3112,"icro":3113,"Ġrequ":3114,"Ġgood":3115,"Ġáŀ£áŀĵ":3116,"ĠáŁ¢áŁłáŁłáŁ£":3117,"Ġant":3118,"Ġexample":3119,"ĠáŁ¡áŁ©áŁ¨áŁł":3120,"Ġneed":3121,"my":3122,"Â«":3123,"áŀĵáŀķáŀĽ":3124,"áŀĺáŀļáŀŁ":3125,"áŀĺáŀļáŀİ":3126,"ata":3127,"Ġcur":3128,"itect":3129,"ories":3130,"ĠâĢĮ":3131,"Ġdirect":3132,"Ġlater":3133,"rab":3134,"ĠNational":3135,"áŁ©áŁ¤":3136,"Ġproduction":3137,"Ġspecies":3138,"ming":3139,"Ġáŀ³":3140,"áŀĸáŀľ":3141,"áŀļáŀĶáŀĶ":3142,"org":3143,"Ġway":3144,"à¸ª":3145,"ĠáŁ¨áŁ¥":3146,"uss":3147,"ĠMah":3148,"ĠáŁ¡áŁ¢áŁł":3149,"Ġ194":3150,"áŁ©áŁ¥":3151,"áŀĦáŀ¢áŀĽáŀĦ":3152,"Ġtransm":3153,"Ġinvolv":3154,"Ãª":3155,"ĠáŀŁáŀľáŀı":3156,"Ġterm":3157,"áŀĤáŀĽáŀĢ":3158,"Ġcoll":3159,"Ġleg":3160,"ĠáŁ§áŁ¨":3161,"ĠáŁ¦áŁ¨":3162,"ĠáŀĸáŀĽáŀĢáŀĺ":3163,"ĠAll":3164,"ements":3165,"áŀĺáŀĳáŀı":3166,"Ġareas":3167,"99":3168,"Th":3169,"Ġec":3170,"áŀĤáŀĴ":3171,"Ġáŀģáŀĺ":3172,"onal":3173,"áŀĥáŀĶáŀĩ":3174,"áŀĺáŀĢáŀĬáŀĽ":3175,"ĠTha":3176,"Ġnational":3177,"Ġthough":3178,"ĠáŀĢáŀĦáŀĸáŀĽ":3179,"til":3180,"yst":3181,"áŀĢáŀŁáŀĵ":3182,"ĠáŀĢáŀĦáŀļ":3183,"era":3184,"Ġday":3185,"Ġnon":3186,"ows":3187,"isture":3188,"áŀ£áŀŁ":3189,"ression":3190,"Di":3191,"nh":3192,"yn":3193,"Â·":3194,"áŀļáŀĶáŀŁáŀĺ":3195,"áŀĤáŀī":3196,"ĠáŀļáŀľáŀĽ":3197,"ision":3198,"Ġsoc":3199,"Ġschool":3200,"Ġáŀ±áŀĳ":3201,"add":3202,"...":3203,"ired":3204,"Ġcomplet":3205,"ao":3206,"áŀĴáŀĢ":3207,"ĠáŀĪáŀĺ":3208,"ĠáŀĩáŀĵáŀŁáŀĦ":3209,"Ġins":3210,"ĠSu":3211,"unct":3212,"Ġproble":3213,"Ġhead":3214,"Ġking":3215,"ological":3216,"less":3217,"mb":3218,"rac":3219,"áŀĵáŀĢáŀ¢áŀĵ":3220,"Ġnec":3221,"ross":3222,"iversity":3223,".[":3224,"02":3225,"pr":3226,"Ġ#":3227,"ĠáŀĹáŀĤáŀľ":3228,"áŀĶáŀŁáŀĦ":3229,"áŀļáŀĶáŀĢáŀŁ":3230,"áŀĮáŀĳ":3231,"idd":3232,"ĠWh":3233,"ĠâĨ":3234,"Ġhelp":3235,"áŀĢáŀ¢":3236,"ĠáŀĢáŀĭ":3237,"ĠáŀĤáŀĢ":3238,"áŀ¢áŀĻ":3239,"Ġáŀ¥áŀħ":3240,"à¸ŀ":3241,"ĠáŁ§áŁłáŁł":3242,"ocument":3243,"ively":3244,"áŀ§áŀĶáŀı":3245,"Ġanal":3246,"áŀħáŀŁáŀłáŀĶ":3247,"ibr":3248,"Ġoffic":3249,"ook":3250,"ues":3251,"áŀĶáŀĢáŀļáŀİ":3252,"áŀķáŀĶ":3253,"ĠSc":3254,"Ġáŀ¢áŀļáŀĤ":3255,"áŀ§áŀĢ":3256,"ĠáŀĬáŀĢáŀł":3257,"ffects":3258,"ĠáŁ¡áŁ©áŁ©áŁł":3259,"98":3260,"yp":3261,"áŀĻáŀıáŀĺ":3262,"áŀĮáŀĢáŀĺ":3263,"áŀĽáŀĶáŀī":3264,"Ġmin":3265,"Ġmark":3266,"ush":3267,"ĠEx":3268,"ĠáŀļáŀĦáŀĤ":3269,"ĠII":3270,"ĠáŁ¡áŁ§áŁ¨":3271,"Ġyoung":3272,"ording":3273,"Ġeven":3274,"aut":3275,"oo":3276,"áŀĢáŀĪ":3277,"áŀĻáŀĽáŀĦ":3278,"ĠáŀĹáŀİáŀĵ":3279,"atic":3280,"Ġposs":3281,"Ġdr":3282,"ĠÂ°":3283,"ota":3284,"Ġprom":3285,"ortality":3286,"Ġmodern":3287,"Ġsupport":3288,"yd":3289,"Ġáŀ°":3290,"áŀļáŀĺáŀİ":3291,"ense":3292,"Ġoper":3293,"ĠáŁ£áŁłáŁłáŁł":3294,"áŀļáŀıáŀĺ":3295,"aster":3296,"áŀĵáŀĦáŀļ":3297,"ĠGi":3298,"Ġstate":3299,"ĠThey":3300,"à¹ĥ":3301,"Ġcomb":3302,"ĠáŁ¥áŁłáŁłáŁłáŁł":3303,"ĠStates":3304,"Ġpartic":3305,"Ġdesc":3306,"wards":3307,"Ġbuild":3308,"Ġarchitect":3309,"iá»ĩ":3310,"Ġmilitary":3311,"Clinical":3312,"mar":3313,"áŀĵáŀĬáŀĽ":3314,"áŀĢáŀŁáŀĦ":3315,"Ġfore":3316,"áŁ¡áŁ©":3317,"ĠJohn":3318,"Ġusually":3319,"Ġgroup":3320,"áŀŁáŀĢáŀļ":3321,"áŀĶáŀħáŀĺ":3322,"áŀīáŀĢáŀĺ":3323,"Ġáŀ¬áŀĺ":3324,"ĠáŁ¡áŁłáŁ¨":3325,"irc":3326,"Ġeach":3327,"áŀħáŀļáŀģ":3328,"ĠKore":3329,"Ġarea":3330,"Ġwithin":3331,"ments":3332,"ĠOn":3333,"epend":3334,"Det":3335,"aul":3336,"uan":3337,"ĠáŀŁáŀĺáŀĵ":3338,"Ġdem":3339,"áŀļáŀħáŀļáŀħ":3340,"áŀļáŀľáŀĦ":3341,"Ġ100":3342,"ĠáŁ¨áŁ¢":3343,"ĠThere":3344,"à¸²à¸£":3345,"Ġfollowing":3346,"Ar":3347,"men":3348,"uce":3349,"uary":3350,"áŀĦáŀ¯áŀĢ":3351,"áŀŁáŀ¢":3352,"áŀľáŀĴ":3353,"ately":3354,"ĠCl":3355,"ential":3356,"omen":3357,"osed":3358,"áŀĻáŀĺáŀŁ":3359,"ĠEn":3360,"iving":3361,"Ġáŀ£áŀı":3362,"ĠáŁ¡áŁ¥áŁ¤":3363,"ĠNorth":3364,"Ġorig":3365,"ize":3366,"Ġhuman":3367,"by":3368,"Ġáŀłáŀĵ":3369,"áŀģáŀļáŀŁ":3370,"err":3371,"ret":3372,"reen":3373,"Ġáŀ¥áŀĽ":3374,"arv":3375,"ently":3376,"ĠCarH":3377,"ĠUS":3378,"Ġ2010":3379,"Ġ2018":3380,"Ġ2008":3381,"Ġmoisture":3382,"Diagnosis":3383,"ean":3384,"ling":3385,"ĠáŀĶáŀľáŀļ":3386,"áŀĤáŀĺáŀĢ":3387,"áŀĩáŀĦ":3388,"áŀ¢áŀļáŀłáŀı":3389,"ĠáŀĴáŀļ":3390,"áŀļáŀĶáŀĢáŀĶ":3391,"ĠMinh":3392,"Ġthose":3393,"lex":3394,"ĠáŁ¡áŁ¨áŁ£":3395,"áŁ©áŁ¦":3396,"áŀļáŀĲáŀĻ":3397,"Ġuntil":3398,"Ġtype":3399,"Ġx":3400,"áŀĢáŀĻáŀĢ":3401,"áŀľáŀ²":3402,"áŀĩáŀĩ":3403,"áŀ¶áŁĨáŁĴ":3404,"Ġmuch":3405,"Ġ28":3406,"akes":3407,"Ġmillion":3408,"AN":3409,"ris":3410,"áŀĻáŀĨ":3411,"áŀĩáŀľ":3412,"áŀķáŀĵ":3413,"Ġ\")":3414,"Ġfour":3415,"ille":3416,"echn":3417,"aving":3418,"onda":3419,"ER":3420,"IC":3421,"co":3422,"Ġáŀħáŀļáŀĵ":3423,"estern":3424,"Ġcour":3425,"ĠAd":3426,"ĠáŁ¢áŁłáŁłáŁ¡":3427,"over":3428,"ĠáŁ©áŁ£":3429,"23":3430,"Pre":3431,"mp":3432,"son":3433,"áŀĻáŀľáŀĦ":3434,"áŀŁáŀķ":3435,"áŀĬáŀİ":3436,"áŀĹáŀĺáŀĦ":3437,"Ġmake":3438,"ĠBl":3439,"Ġgreat":3440,"ĠDe":3441,"Ġstyle":3442,"à¹ģ":3443,"ĠáŁ¡áŁ¤áŁ¤":3444,"ysis":3445,"Ġappro":3446,"ronic":3447,"Ġcharacter":3448,"St":3449,"Ġáŀ§áŀĺ":3450,"erc":3451,"áŀļáŀłáŀĽ":3452,"à¸Ī":3453,"ilis":3454,"Ġless":3455,"ĠáŀŁáŀłáŀŁ":3456,"urs":3457,"une":3458,"istics":3459,"Ġstill":3460,"ĠThese":3461,"ĠáŁ¢áŁłáŁ¡áŁ¥":3462,"áŁ©áŁ¨":3463,"Ġphilosophy":3464,"ique":3465,"lor":3466,"áŀĺáŀķ":3467,"ĠáŀĲáŀĻáŀħ":3468,"ĠáŀŁáŀĺáŀĹ":3469,"áŀļáŀĩáŀĽ":3470,"ĠáŁ£áŁ©":3471,"ĠáŁ¨áŁ£":3472,"ĠáŀĵáŀĤáŀļáŀľáŀı":3473,"Ġ23":3474,"ival":3475,"ĠCarT":3476,"Ġspe":3477,"Ġsaid":3478,"Detailed":3479,"04":3480,"Effects":3481,"ipp":3482,"Ġident":3483,"áŀıáŀķ":3484,"ĠáŀĢáŀł":3485,"ĠáŀĺáŀļáŀıáŀĢ":3486,"ĠáŀŁáŀĢáŀĽáŀľ":3487,"Ġáŀ¢áŀĻáŀĽ":3488,"áŀīáŀĢ":3489,"áŀ¢áŀĶáŀĳ":3490,"iness":3491,"Ġáŀ¯áŀ¢áŀŁ":3492,"Ġshe":3493,"ĠáŁ¥áŁ¡":3494,"ĠEl":3495,"áŀĺáŀĳáŀİ":3496,"ĠGe":3497,"Ġconf":3498,"illiam":3499,"ended":3500,"Ġright":3501,"Ġtemper":3502,"ield":3503,"ee":3504,"ting":3505,"áŀļáŀļáŀħáŀĵ":3506,"áŀĢáŀĦáŀĳ":3507,"Ġáŀĵáŀĸ":3508,"áŀĤáŀħ":3509,"Ġáŀļáŀī":3510,"áŀļáŀĢáŀļ":3511,"Ġdid":3512,"ĠáŁ¨áŁ¦":3513,"ĠáŁ¡áŁłáŁ¢":3514,"à¹ĩ":3515,"ĠáŁ¢áŁłáŁ¡áŁ£":3516,"áŁ©áŁ©":3517,"Ġrice":3518,"ĠáŁ¡áŁ©áŁ©áŁ¨":3519,"soft":3520,"Ġbecome":3521,"ĠSwift":3522,"26":3523,"Post":3524,"eks":3525,"lished":3526,"uang":3527,"ya":3528,"áŀľáŀħáŀĵ":3529,"áŀºáŁĪ":3530,"ank":3531,"odes":3532,"Ġwithout":3533,"ĠáŁ¢áŁłáŁ¡áŁ¢":3534,"auses":3535,"bert":3536,"Ġcause":3537,"ĠParis":3538,"Al":3539,"mort":3540,"par":3541,"áŀĻáŀłáŀı":3542,"áŁĭáŁĸ":3543,"alism":3544,"itive":3545,"Ġhost":3546,"ĠPe":3547,"Ġ2016":3548,"Ġ/>":3549,"Ġadm":3550,"Ġjust":3551,"Ġpolitical":3552,"ih":3553,"ior":3554,"áŀĭáŀĢáŀĺ":3555,"Ġold":3556,"ĠáŁ§áŁ£":3557,"ĠáŁ§áŁ¦":3558,"ĠáŁ¨áŁłáŁł":3559,"áŀĻáŀĽáŀĢ":3560,"Ġstand":3561,"Ġalong":3562,"Ġprot":3563,"ĠáŁ¡áŁ¡áŁ¨":3564,"áŁ©áŁ§":3565,"app":3566,"Ġexper":3567,"ĠáŁ©áŁ§":3568,"Ġspread":3569,"ĠáŁ¡áŁ©áŁ©áŁ©":3570,"Ġword":3571,"Ġelect":3572,"Ġevery":3573,"Ġgiven":3574,"200":3575,"Causes":3576,"way":3577,"áŀ»áŀ¸":3578,"Ġtest":3579,"aries":3580,"Ġcost":3581,"ĠáŁ¤áŁ©":3582,"áŀĤáŀĺáŀĩ":3583,"Ġrest":3584,"ĠáŁ¡áŁłáŁ¥":3585,"ĠáŁ¡áŁ©áŁ§áŁ¦":3586,"ĠáŁ©áŁ¨":3587,"Ġusing":3588,"Ġáŀĵáŀļáŀĩáŀĵ":3589,"rict":3590,"Ġlaw":3591,"col":3592,"gin":3593,"por":3594,"áŀĶáŀĬáŀĽ":3595,"áŀļáŀĶáŀĳ":3596,"áŀĨáŀĤ":3597,"áŀĪáŀĵ":3598,"Ġfin":3599,"à¸Ľ":3600,"ĠáŀĶáŀĳáŀ§áŀĢ":3601,"ĠáŁ¡áŁ¥áŁ¥":3602,"Ġbegan":3603,"Ġbefore":3604,"ĠáŁ¡áŁ¦áŁł":3605,"aining":3606,"Ġexist":3607,"Ġ2011":3608,"Ġallow":3609,"cient":3610,"ertain":3611,"Ġsuccess":3612,"Ġeconom":3613,"24":3614,"ring":3615,"áŀĦáŀĴáŀĺ":3616,"ĠáŀŁáŀľáŀĵ":3617,"ĠáŀĻáŀĴáŀļ":3618,"áŀļáŀĶáŀģ":3619,"áŀľáŀıáŀİ":3620,"áŀĺáŀĢáŀĲ":3621,"atural":3622,"Ġ\"\"":3623,"alth":3624,"ĠáŁ¤áŁ¡":3625,"áŀļáŀĻáŀĶ":3626,"ason":3627,"oman":3628,"ives":3629,"Ġáŀ£áŀĦ":3630,"resent":3631,"ĠáŁ¡áŁ£áŁ¨":3632,"Ġweeks":3633,"Ġconsum":3634,"Ġcomput":3635,"áŀľáŀļáŀİáŀĴáŀĺ":3636,"Ġpopular":3637,"ĠEmperor":3638,"27":3639,"90":3640,"95":3641,"ĠÄĲ":3642,"áŀĽáŀ¢":3643,"áŀĤáŀŁáŀī":3644,"Ġauth":3645,"áŀĢáŀĬáŀĳ":3646,"Ġdom":3647,"ĠPol":3648,"ĠáŁ¡áŁłáŁ¤":3649,"aya":3650,"Ġwords":3651,"ples":3652,"ization":3653,"Ġpresent":3654,"Ġgrowth":3655,"icrosoft":3656,"21":3657,"97":3658,"ared":3659,"vers":3660,"áŀīáŀ²":3661,"áŁħáŁĸ":3662,"áŀĬáŀŁ":3663,"áŀĹáŀĵ":3664,"Ġown":3665,"ici":3666,"Ġbacter":3667,"Ġdown":3668,"ĠCent":3669,"ĠCol":3670,"áŀļáŀľáŀĺ":3671,"ĠTur":3672,"ĠMan":3673,"Ġ.)":3674,"Ġvow":3675,"ĠWe":3676,"ĠáŁ¡áŁ§áŁ¦":3677,"ians":3678,"Ġsee":3679,"ference":3680,"ĠAsia":3681,"à¸£à¸°":3682,"eneral":3683,"Ġcountries":3684,"Ġorder":3685,"Ġconsidered":3686,"iá»ĩt":3687,"get":3688,"of":3689,"ty":3690,"áŀıáŀļáŀĺ":3691,"áŀĳáŀĢáŀĶ":3692,"ony":3693,"Ġreport":3694,"ĠBut":3695,"ules":3696,"ĠáŀĶáŀĳáŀĬ":3697,"Ġcontent":3698,"ĠáŁ¡áŁ©áŁ¥áŁ£":3699,"Ġblood":3700,"iddle":3701,"áŀĶáŀ¢áŀŁ":3702,"ĠáŀħáŀĦáŀĢ":3703,"ĠáŀļáŀĢáŀĺ":3704,"ĠáŀĲáŀĦ":3705,"áŀĵáŀĢáŀĻáŀĽ":3706,"Ġtones":3707,"Ġáŀ¢áŀŁáŀĳ":3708,"Ġsay":3709,"Ġpass":3710,"Ġdiv":3711,"Ġdue":3712,"Ġval":3713,"Ġvacc":3714,"ĠáŁ¡áŁ©áŁ§áŁ¨":3715,"ief":3716,"Ġpract":3717,"Ġphys":3718,"span":3719,"Ġestab":3720,"Ġview":3721,"mortem":3722,"Ã´":3723,"Ġ&":3724,"áŀĽáŀļáŀŁ":3725,"áŀĵáŀĢáŀŁáŀĺ":3726,"Ġnow":3727,"ĠRep":3728,"Ġ27":3729,"ĠPart":3730,"ĠáŁ¡áŁłáŁ§":3731,"ague":3732,"ĠáŁ¢áŁłáŁ¦":3733,"Ġstat":3734,"ĠáŁ¡áŁ¦áŁ¢":3735,"ĠáŁ¡áŁ£áŁł":3736,"áŀĺáŀĸáŀļ":3737,"ogn":3738,"ption":3739,"ĠáŁ¡áŁ©áŁ©áŁ§":3740,"ĠGerman":3741,"08":3742,"28":3743,"==":3744,"ĠáŀĢáŀĲ":3745,"áŀļáŀĩáŀĢ":3746,"Ġáŀ§áŀĶáŀĩ":3747,"Ġfact":3748,"áŀĽáŀĦáŀł":3749,"ĠSut":3750,"Ġhow":3751,"Ġhand":3752,"ĠáŁ¡áŁłáŁ¦":3753,"ĠáŁ¡áŁ¥áŁ£":3754,"ĠáŁ¡áŁ¢áŁ¨":3755,"Ġexpl":3756,"Ġkill":3757,"ĠáŁ¡áŁ©áŁ©áŁ¢":3758,"ĠáŀıáŀĶáŀľáŀı":3759,"ĠUnion":3760,"ĠCarHonda":3761,"92":3762,"áŀĵáŀł":3763,"áŀıáŀĻ":3764,"Ġopp":3765,"isc":3766,"áŀļáŀıáŀĵáŀı":3767,"ental":3768,"ĠEd":3769,"áŀĦáŀĶáŀī":3770,"empt":3771,"stit":3772,"ayana":3773,"ĠáŁ¡áŁ¡áŁł":3774,"ĠUN":3775,"oyota":3776,"azda":3777,"ĠáŀĤáŀĻáŀĤáŀĵ":3778,"Ġamong":3779,"formula":3780,"Ġdepend":3781,"Ġdevelopment":3782,"):":3783,"93":3784,"96":3785,"SE":3786,"rid":3787,"side":3788,"áŀħáŀĽáŀĦ":3789,"áŀĸáŀĳ":3790,"Ġáŀļáŀĸ":3791,"áŀģáŀĮ":3792,"áŀ¡áŀĢ":3793,"áŀļáŀĢáŀı":3794,"Ġáŀ¯áŀĢáŀı":3795,"Ġáŀ¯áŀĢáŀħ":3796,"áŀļáŀİáŀĢ":3797,"Ġáŀ¢áŀĵáŀĵ":3798,"à¸¸":3799,"ivil":3800,"ĠáŁ¡áŁ¤áŁł":3801,"ĠáŁ¡áŁ¤áŁ¥":3802,"ĠáŁ¡áŁ¤áŁ¢":3803,"ĠáŁ¡áŁ£áŁ¥":3804,"ĠáŁ¡áŁ§áŁ¥":3805,"ouses":3806,"Ġchick":3807,"ĠInternational":3808,"áŀĢáŀĹáŀİ":3809,"ĠáŁ¡áŁ©áŁ¥áŁ¤":3810,"ugust":3811,"áº¡":3812,"ruit":3813,"ĠBuddhism":3814,"ĠEnglish":3815,"rist":3816,"ued":3817,"zo":3818,"áŀĵáŀĦáŀĢ":3819,"áŀĽáŀľáŀĽ":3820,"áŀĺáŀľáŀı":3821,"Ġáŀĳáŀĸ":3822,"ĠáŀıáŀĶáŀŁ":3823,"áŀĵáŀĢáŀĽáŀĢ":3824,"áŀļáŀŁáŀŁ":3825,"áŀĭáŀ¢":3826,"Ġtur":3827,"atl":3828,"Ġsw":3829,"à¸Ħ":3830,"Ġmeth":3831,"ĠAt":3832,"áŀļáŀ¢áŀı":3833,"occ":3834,"ĠBrit":3835,"Ġgl":3836,"Ġgu":3837,"áŀ±áŀĦ":3838,"ĠáŁ¡áŁ¡áŁ¤":3839,"abor":3840,"Ġdryer":3841,"Ġvarious":3842,"Ġeggs":3843,"Ġstudy":3844,"33":3845,"hi":3846,"oot":3847,"áŀĢáŀľáŀļ":3848,"ĠáŀĶáŀł":3849,"áŀģáŀĶ":3850,"ĠáŀĹáŀľáŀĦ":3851,"áŀĹáŀİ":3852,"Ġsus":3853,"Ġback":3854,"Ġmat":3855,"ilar":3856,"omm":3857,"áŀĵáŀĢáŀĶáŀĢáŀĶ":3858,"ura":3859,"áŀĻáŀĶáŀİ":3860,"ĠáŁ¡áŁ¤áŁ¨":3861,"Ġprim":3862,"ĠUniversity":3863,"ĠAss":3864,"ception":3865,"ĠCarMazda":3866,"AC":3867,"EC":3868,"ïĥ":3869,"áŀıáŀļáŀĴ":3870,"Ġáŀĵáŀı":3871,"ĠáŀĺáŀļáŀĢ":3872,"áŀĳáŀĢáŀĺ":3873,"áŀīáŀĺáŀı":3874,"áŀĴáŀĩáŀĵ":3875,"áŀĵáŀĢáŀģ":3876,"áŀĺáŀĢáŀĺ":3877,"ena":3878,"Ġhig":3879,"Ġ26":3880,"ott":3881,"raw":3882,"Ġáŀ«áŀĢáŀĸ":3883,"Ġstruct":3884,"ability":3885,"ĠáŁ¡áŁ£áŁ¦":3886,"ored":3887,"aterial":3888,"ĠáŁ¨áŁ¤áŁłáŁłáŁł":3889,"ĠCarToyota":3890,"rad":3891,"Ġáŀ¢áŀĿ":3892,"áŀĸáŀħ":3893,"áŀİáŀĳáŀİ":3894,"áŁģáŁĩáŁĸ":3895,"Ġage":3896,"áŀļáŀĳáŀĵ":3897,"áŀĮáŀľ":3898,"Ġbody":3899,"Ġmortality":3900,"Ġlast":3901,"ĠáŁ§áŁ¤":3902,"ĠAugust":3903,"ĠáŀļáŀĦáŀļáŀĶ":3904,"ĠNg":3905,"Ġsymb":3906,"áŀĽáŀĺáŀļáŀİáŀĹ":3907,"gre":3908,"ns":3909,"ple":3910,"áŀĦáŀ£áŀŁ":3911,"áŀŁáŀĻáŀĢ":3912,"ĠáŀĶáŀĶáŀī":3913,"áŀīáŀĺ":3914,"áŀĩáŀı":3915,"áŀĬáŀĢáŀĺ":3916,"áŀģáŀĳ":3917,"ither":3918,"ĠMore":3919,"urg":3920,"ump":3921,"ĠáŁ¡áŁ¥áŁ§":3922,"ĠáŁ¡áŁ¡áŁ§":3923,"ĠáŁ¡áŁ©áŁ¥áŁł":3924,"Ġliter":3925,"Ġhistor":3926,"Postmortem":3927,"Ġsymbol":3928,"pire":3929,"ïĤ":3930,"áŀĦáŀļáŀł":3931,"Ġáŀ¢áŀĲ":3932,"ĠáŀıáŀĹ":3933,"áŀĩáŀĢáŀĵ":3934,"ĠáŀĴáŀī":3935,"Ġter":3936,"Ġáŀ¯áŀıáŀĳ":3937,"atory":3938,"Ġsing":3939,"Ġland":3940,"etic":3941,"à¹Į":3942,"ĠáŀĪáŀļáŀĪ":3943,"áŁ©áŁ¡":3944,"Ġchang":3945,"ĠáŀļáŀİáŀŁ":3946,"Ġmeans":3947,"Ġrelig":3948,"ĠâĨĴ":3949,"Prevention":3950,"05":3951,"ways":3952,"Ã±":3953,"ĠáŁĴ":3954,"Ġ</":3955,"áŀĵáŀİ":3956,"erg":3957,"ĠáŁ¥áŁ©":3958,"Ġbas":3959,"ele":3960,"rod":3961,"áŀļáŀľáŀĬ":3962,"ĠáŁ§áŁ¡":3963,"ĠáŁ¦áŁ¡":3964,"Ġreal":3965,"ird":3966,"Ġ196":3967,"ĠáŁ¡áŁ©áŁ§áŁ£":3968,"ĠáŁ¡áŁ©áŁ¦áŁ©":3969,"ĠáŁ¡áŁ©áŁ¤áŁ©":3970,"ixed":3971,"Ġprogramming":3972,"Ġparticular":3973,"09":3974,"22":3975,"AP":3976,"ray":3977,"áŀĢáŀ£":3978,"áŀŁáŀľáŀı":3979,"áŀľáŀĺáŀĽ":3980,"áŀħáŀŁáŀī":3981,"Ġáŀħáŀħ":3982,"áŀĵáŀĢáŀ¢áŀĦ":3983,"Ġaffect":3984,"ering":3985,"Ġáŀ±áŀļ":3986,"ĠáŀĺáŀłáŀĤ":3987,"ico":3988,"à¸¹":3989,"Ġmar":3990,"eter":3991,"etimes":3992,"ĠLou":3993,"ĠáŀļáŀİáŀĶ":3994,"Ġdryers":3995,"Ġplan":3996,"Ġadminist":3997,"Fran":3998,"rim":3999,"tle":4000,"Æ¡":4001,"Ġå":4002,"áŀļáŀļáŀĺ":4003,"áŀĽáŀĵáŀĵ":4004,"áŀ¾áŁĩ":4005,"Ġáŀ¢áŀľáŀı":4006,"áŀ¢áŀķ":4007,"ĠSo":4008,"ĠAb":4009,"ĠMus":4010,"Ġname":4011,"ada":4012,"ĠáŁ¡áŁ¡áŁ¦":4013,"ĠChar":4014,"Ġquality":4015,"Ġappear":4016,"Ã¡hu":4017,"fl":4018,"line":4019,"ract":4020,"sh":4021,"ĠáŀŁáŀļáŀĹ":4022,"áŀĳáŀĸ":4023,"inct":4024,"ĠáŀļáŀĢáŀĶ":4025,"Ġbreed":4026,"áŁ¢áŁ¥":4027,"ley":4028,"áŀ§áŀĶáŀĩ":4029,"Ġáŀ¢áŀĺáŀļ":4030,"ĠáŁ¡áŁ¢áŁ¤":4031,"rying":4032,"ĠCarS":4033,"áŀļáŀĶáŀŁáŀĦ":4034,"Ġpopulation":4035,"ïĤ§":4036,"EN":4037,"ĠáŀŃ":4038,"áŀĺáŀĶáŀĳ":4039,"ĠáŀĤáŀłáŀĶ":4040,"áŀĴáŀļáŀĺ":4041,"ĠáŀĹáŀĻ":4042,"áŀŁáŀļáŀĩáŀĵ":4043,"ĠMicrosoft":4044,"áŀ±áŀŁ":4045,"ĠáŁ¡áŁ¢áŁ£":4046,"Ġ2000":4047,"Ġplay":4048,"à¸Ńà¸ĩ":4049,"à¸µà¹Ī":4050,"06":4051,"37":4052,"aec":4053,"put":4054,"áŀŁáŀĨ":4055,"áŀĵáŀĢáŀĲ":4056,"áŀĵáŀĢáŀķ":4057,"ĠáŁ¤áŁłáŁłáŁł":4058,"Ġmaterial":4059,"Ġhouses":4060,"omb":4061,"ĠMinist":4062,"Ġnear":4063,"rah":4064,"ĠNo":4065,"ĠáŁ¢áŁłáŁłáŁ¢":4066,"ĠáŁ¡áŁ¤áŁ§":4067,"Ġspace":4068,"philis":4069,"Ġenl":4070,"32":4071,"34":4072,"ck":4073,"iation":4074,"ner":4075,"Ġz":4076,"ĠáŀĺáŀĪ":4077,"Ġtechn":4078,"áŀĩáŀĵáŀĶáŀĳ":4079,"áŀĪáŀĥ":4080,"roll":4081,"Ġlibr":4082,"aced":4083,"Ġnatural":4084,"ĠBar":4085,"ids":4086,"ĠIf":4087,"ĠáŁ¡áŁ©áŁ§áŁ§":4088,"ĠáŁ¡áŁ©áŁ¥áŁ¥":4089,"book":4090,"ï¼Į":4091,"IA":4092,"oh":4093,"áŁįáŁĸ":4094,"áŀļáŀĢáŀĬ":4095,"ĠáŀĨáŀı":4096,"ened":4097,"Ġsal":4098,"Ġsour":4099,"Ġcrit":4100,"edia":4101,"ĠáŁ¤áŁ©áŁ£":4102,"Ġbest":4103,"ĠáŀŁáŀłáŀĺ":4104,"ĠBy":4105,"ĠHist":4106,"ects":4107,"Ġproper":4108,"Ġpropos":4109,"ava":4110,"ĠáŁ¡áŁ£áŁ¤":4111,"merc":4112,"ĠáŁ¡áŁ©áŁ¤áŁ¡":4113,"Ġconson":4114,"Ġsystems":4115,"Ġtransmission":4116,"Ġauthor":4117,"Ã¡huatl":4118,"tr":4119,"ua":4120,"áŀŀ":4121,"áŀĶáŀģ":4122,"áŀĳáŀĬ":4123,"áŁĬáŀ½":4124,"eral":4125,"enic":4126,"Ġset":4127,"âĢĶ":4128,"Ġcal":4129,"Ġcase":4130,"Ġcertain":4131,"itamin":4132,"ĠSy":4133,"áŀĢáŀŁáŀī":4134,"ĠAm":4135,"ĠMay":4136,"Ġgram":4137,"0000":4138,"ster":4139,"ĠJul":4140,"ourn":4141,"Ġke":4142,"ĠáŁ¡áŁ©áŁ¦áŁ¢":4143,"Ġ2009":4144,"]],":4145,"Ġbird":4146,"ĠáŀĹáŀľáŀľáŀĺ":4147,"Ġdoes":4148,"Ġrepresent":4149,"Ġofficial":4150,"Ã«":4151,"áŀĢáŀ±":4152,"Ġáŀ¢áŀŁáŀĵ":4153,"áŀĸáŀĴ":4154,"áŀĶáŀĵáŀĵ":4155,"Ġcity":4156,"Ġcare":4157,"Ġfunct":4158,"áŀļáŀħáŀĦáŀħ":4159,"à¸·":4160,"Ġmust":4161,"Ġmemb":4162,"áŁ¢áŁ§":4163,"Ġlog":4164,"ĠSer":4165,"ĠSal":4166,"ĠSouth":4167,"áŁ£áŁ¥":4168,"ĠáŀŁáŀĺáŀİáŀĴáŀĺ":4169,"ĠáŀŁáŀłáŀĩ":4170,"ĠnÃ¡huatl":4171,"ĠáŁ¡áŁłáŁ¡":4172,"iff":4173,"ested":4174,"ĠáŀıáŀĳáŀĽ":4175,"ĠáŁ©áŁ©":4176,"ĠáŁłáŁ¡":4177,"Ġchange":4178,"Ġarg":4179,"Ġshort":4180,"Ġemb":4181,"áŁĳáŁĩ":4182,"Ġgrains":4183,"attle":4184,"Ġoccurs":4185,"Ġconstruct":4186,"Ġcreated":4187,"Ġfilm":4188,"OR":4189,"Ph":4190,"Un":4191,"bers":4192,"http":4193,"áŀĺáŀĶáŀļ":4194,"áŀĶáŀľáŀı":4195,"áŀĶáŀļáŀĽ":4196,"ĠáŀĤáŀĴ":4197,"ĠáŀĻáŀĲ":4198,"ino":4199,"ĠáŀŁáŀĦáŀŁ":4200,"Ġáŀ±áŀĥ":4201,"Ġfly":4202,"Ġfew":4203,"iland":4204,"ĠSome":4205,"Ġhowever":4206,"ĠáŁ¦áŁ©":4207,"ĠApp":4208,"Ġthink":4209,"ĠáŁ¡áŁ¢áŁ¥":4210,"ĠChamp":4211,"áŀĮáŀĽáŀĤ":4212,"Ġrole":4213,"Ġregion":4214,"ĠLao":4215,"Ġsimilar":4216,"Ġwritten":4217,"Ġbroil":4218,"Ġmeaning":4219,"mercial":4220,".'":4221,"07":4222,"cl":4223,"gl":4224,"not":4225,"áŀľáŀĴáŀĺ":4226,"áŁĬáŁĲ":4227,"áŀļáŀĳáŀĺ":4228,"rew":4229,"Ġdu":4230,"asing":4231,"Ġtox":4232,"ĠSm":4233,"áŀĢáŀĢáŀĢ":4234,"ĠViá»ĩt":4235,"ĠáŁ¢áŁłáŁ¡áŁ¤":4236,"áŀ¥áŀı":4237,"ĠáŁ¡áŁ©áŁ©áŁ¤":4238,"áŀļáŀļáŀĢáŀĥ":4239,"Ġnumbers":4240,"Ġfamily":4241,"Ġperson":4242,"Ġ2507":4243,"Le":4244,"ON":4245,"ched":4246,"áŀŁáŀļáŀł":4247,"áŀŁáŀĵáŀĢáŀĺ":4248,"áŀĸáŀĸ":4249,"Ġtre":4250,"eration":4251,"áŀļáŀİáŀĩáŀĵ":4252,"áŀĮáŀĢ":4253,"Ġour":4254,"ator":4255,"Ġpost":4256,"Ġpath":4257,"Ġbased":4258,"ĠTw":4259,"ĠáŁ¨áŁ©":4260,"ĠMa":4261,"Ġ?Â»":4262,"ĠDocument":4263,"Ġáŀ¢áŀľáŀŁ":4264,"Ġru":4265,"áŀıáŀŁáŀļáŀŁ":4266,"ĠáŁłáŁ¢":4267,"ĠáŁ¡áŁ©áŁ©áŁ¥":4268,"ĠáŁ¡áŁ©áŁ¦áŁ£":4269,"à¸²à¸¢":4270,"Ġadv":4271,"erman":4272,"Ġque":4273,"ĠáŀŁáŀĢáŀĽáŀĽ":4274,"ification":4275,"ĠQu":4276,"Ġgeneral":4277,"ĠEuropean":4278,"Ġsometimes":4279,"Text":4280,"oint":4281,"vious":4282,"áŀĢáŀĶáŀĵ":4283,"áŀıáŀıáŀĳ":4284,"ĠáŀĢáŀĽáŀĵ":4285,"áŀħáŀĢáŀĽ":4286,"inated":4287,"heast":4288,"Ġáŀ§áŀİ":4289,"atures":4290,"ached":4291,"ĠáŁ¦áŁłáŁł":4292,"áŀĵáŀĢáŀĶáŀī":4293,"Ġrev":4294,"ĠáŁ¡áŁłáŁ£":4295,"ĠáŁ¡áŁ¥áŁłáŁł":4296,"ĠáŁ¡áŁ¥áŁ¨":4297,"ĠNam":4298,"Ġann":4299,"aks":4300,"Ġsuff":4301,"Ġchild":4302,"áŀĤáŀİáŀĶáŀĢ":4303,"ishi":4304,"Ġweight":4305,"Ġwalls":4306,"Ġstrong":4307,"iciency":4308,"Ġmethod":4309,".,":4310,"94":4311,"TS":4312,"day":4313,"ware":4314,"áŀıáŀĴ":4315,"áŁĦáŁĴ":4316,"áŀīáŀĩ":4317,"áŀģáŀĸ":4318,"áŀĹáŀĽáŀĵ":4319,"Ġáŀ§áŀĸ":4320,"eness":4321,"Ġ\",":4322,"áŀļáŀĬáŀİ":4323,"ica":4324,"áŀĪáŀĬ":4325,"ĠCor":4326,"ĠSch":4327,"ĠáŁ¨áŁ¡":4328,"ĠAf":4329,"ĠAng":4330,"Ġvis":4331,"ĠáŁ¡áŁ¢áŁ§":4332,"ĠWilliam":4333,"uck":4334,"ryst":4335,"ĠáŁ¡áŁ£áŁ§":4336,"Ġrate":4337,"áŀ«áŀŁ":4338,"Ġ2012":4339,"iple":4340,"à¸ģà¸²à¸£":4341,"Ġproduc":4342,"Ġcommonly":4343,"Ġespec":4344,"Ġlargest":4345,"ĠParty":4346,"FA":4347,"bl":4348,"yan":4349,"ĠáŀĵáŀĽ":4350,"ĠáŀĢáŀħ":4351,"áŀħáŀĹ":4352,"áŀĩáŀİ":4353,"áŀĬáŀħ":4354,"áŀĹáŀĺ":4355,"Ġ).":4356,"áŀļáŀłáŀĶáŀı":4357,"atth":4358,"ĠáŀĻáŀĢáŀĪ":4359,"Ġsent":4360,"Ġdev":4361,"Ġmor":4362,"ilt":4363,"ĠSong":4364,"lear":4365,"áŀĢáŀīáŀĻ":4366,"Ġeff":4367,"ĠáŁ¡áŁ¥áŁłáŁłáŁł":4368,"ĠáŁ¡áŁ¨áŁ¢":4369,"ques":4370,"aka":4371,"ĠáŁ¡áŁ©áŁ¦áŁ¥":4372,"ĠáŁ¡áŁ©áŁ¦áŁ§":4373,"Ġavail":4374,"ĠMahayana":4375,"addy":4376,"ĠRepublic":4377,"89":4378,"SA":4379,"bs":4380,"li":4381,"áŀŁáŀļáŀĹ":4382,"áŀĶáŀĻáŀĢ":4383,"ĠáŀĬáŀĦáŀĳ":4384,"áŀĹáŀļ":4385,"Ġtimes":4386,"ane":4387,"ĠType":4388,"ĠáŁ§áŁ©":4389,"ĠAust":4390,"ocus":4391,"ĠEar":4392,"iron":4393,"Ġeas":4394,"Ġforces":4395,"ĠGeneral":4396,"ĠWhen":4397,"ĠOther":4398,"ĠáŁ¢áŁ¤áŁ¨":4399,"Ġimm":4400,"Ġfeather":4401,"Ġabs":4402,"Ġáŀ§áŀĶáŀĵáŀĵ":4403,"Ġdeveloped":4404,"ĠThailand":4405,"menia":4406,"Ġturke":4407,"86":4408,"></":4409,"equ":4410,"most":4411,"pa":4412,"ras":4413,"round":4414,"vana":4415,"Âĳ":4416,"ãĢ":4417,"ä¸":4418,"áŀĢáŀļáŀı":4419,"áŀıáŀĨ":4420,"áŀĻáŀĻáŀŁ":4421,"ĠáŀłáŀŁ":4422,"ĠáŀľáŀļáŀŁ":4423,"Ġáŀ¯áŀı":4424,"ani":4425,"áŀļáŀĩáŀĺ":4426,"Ġcivil":4427,"orrh":4428,"Ġwomen":4429,"Ġmen":4430,"Ġlim":4431,"ĠEast":4432,"áŀĶáŀļáŀĵ":4433,"ĠáŁ¡áŁ¢áŁ¡":4434,"Ġalways":4435,"ĠáŁ¡áŁ¡áŁ£":4436,"ĠJack":4437,"ella":4438,"Ġshow":4439,"ĠYou":4440,"Ġcommand":4441,"Ġcentral":4442,"ledge":4443,"Ġincreased":4444,"Ġinfluence":4445,"Ġtypes":4446,"DP":4447,"like":4448,"oice":4449,"Ġáŀ¢áŀĤáŀı":4450,"áŀĭáŀĽ":4451,"Ġturn":4452,"Ġcamp":4453,"Ġáŀ±áŀĩ":4454,"à¸³":4455,"Ġmach":4456,"rost":4457,"Ġlist":4458,"ĠSec":4459,"Ġhaving":4460,"oms":4461,"olar":4462,"Ġrele":4463,"Ġnorth":4464,"ĠáŀĬáŀĦáŀļ":4465,"ado":4466,"ĠHis":4467,"à¸²à¸ģ":4468,"Ġ2007":4469,"Ġsyn":4470,"ĠáŁ¡áŁ©áŁ¨áŁ©":4471,"Ġflow":4472,"Ġindepend":4473,"Ġbeliev":4474,"ĠJapanese":4475,"oea":4476,"Ġinvolved":4477,"Ġproblem":4478,"ĠáŀĬáŀĦáŀĳáŀĵ":4479,"SC":4480,"áŀ¶,":4481,"áŀĵáŀļáŀı":4482,"áŀľáŀĸ":4483,"áŀĳáŀħáŀĵ":4484,"ĠáŀıáŀĶáŀı":4485,"áŀĴáŀĵáŀĢ":4486,"áŀĲáŀı":4487,"Ġsouth":4488,"Ġpal":4489,"áŀļáŀľáŀĢáŀĺ":4490,"ĠTai":4491,"ĠáŀĸáŀĽáŀĢáŀļ":4492,"eting":4493,"ĠMon":4494,"Ġreb":4495,"ĠPre":4496,"idity":4497,"irvana":4498,"ersion":4499,"Ġstart":4500,"áŀĦáŀħáŀĦ":4501,"igns":4502,"ubishi":4503,"ĠáŁ¡áŁ©áŁ¤áŁ¦":4504,"itsubishi":4505,"www":4506,"ography":4507,"rystal":4508,"Ġavailable":4509,"\"),":4510,"31":4511,"AT":4512,"de":4513,"ij":4514,"krit":4515,"áŀ¬":4516,"áŀĦáŀŁáŀĺ":4517,"áŀıáŀļáŀŁ":4518,"áŀŁáŀĶáŀī":4519,"ĠáŀĶáŀļáŀĶ":4520,"ĠáŀŁáŀĤ":4521,"áŀ¢áŀĬ":4522,"Ġáŀ§áŀļ":4523,"Ġopen":4524,"ales":4525,"Ġcirc":4526,"Ġfac":4527,"áŁ¢áŁ¨":4528,"ĠSoc":4529,"Ġhaem":4530,"áŀĳáŀĵáŀĹ":4531,"Ġrece":4532,"Ġthus":4533,"urther":4534,"ĠPen":4535,"Ġge":4536,"Ġey":4537,"áŀ§áŀĶáŀĵáŀĵ":4538,"Ġbegin":4539,"ĠWind":4540,"Ġanother":4541,"acebook":4542,"ĠáŀĺáŀļáŀİáŀŁ":4543,"ĠáŁ¡áŁ¦áŁ¦":4544,"Ġ35":4545,"ĠáŁ¡áŁ§áŁ§":4546,"Ġyour":4547,"ellow":4548,"ews":4549,"Ġ40":4550,"Ġobject":4551,"ĠVietnamese":4552,"Ġáŀ³áŀĸ":4553,"ux":4554,"ves":4555,"Ãº":4556,"áŀĺáŀģ":4557,"áŀ¸áŁĸ":4558,"áŀĳáŀĢáŀļ":4559,"ĠáŀĲáŀĵ":4560,"áŀģáŀģ":4561,"áŀĴáŀĬ":4562,"ream":4563,"ĠáŀĶáŀļáŀĽ":4564,"ĠáŀĻáŀĢáŀ¢":4565,"ising":4566,"orge":4567,"Ġinit":4568,"Ġpat":4569,"Ġdon":4570,"amm":4571,"Ġrepl":4572,"ocks":4573,"Ġnov":4574,"ĠáŀļáŀĦáŀħ":4575,"str":4576,"hers":4577,"estion":4578,"ured":4579,"ĠáŁ¡áŁ©áŁ©áŁ¦":4580,"Ġunivers":4581,"Ġ2006":4582,"Ġperform":4583,"Ġcaused":4584,"Ġsignific":4585,"Ġobs":4586,"Ġsuscept":4587,"29":4588,"cil":4589,"val":4590,"áŀıáŀıáŀĶ":4591,"áŀĺáŀļáŀĹ":4592,"ĠáŀĬáŀĢáŀŁ":4593,"áŀĳáŀħáŀĢ":4594,"áŀĸáŀ¢":4595,"ĠáŀĲáŀĺ":4596,"Ġ(Âĳ":4597,"áŀĭáŀĸ":4598,"Ġsem":4599,"esp":4600,"áŀĽáŀĶáŀł":4601,"icks":4602,"Ġfall":4603,"Ġmult":4604,"roph":4605,"Ġliver":4606,"ĠABC":4607,"ĠRev":4608,"Ġ!!":4609,"unn":4610,"ĠOne":4611,"ptember":4612,"berg":4613,"âĢ¦)":4614,"Ġáŀ¦áŀĿ":4615,"à¹Ģà¸Ľ":4616,"ĠáŀŁáŀļáŀİáŀĤáŀĺáŀĵ":4617,"Ġassoci":4618,"ĠCarMitsubishi":4619,"Ġlitter":4620,"Ġexperi":4621,"cent":4622,"cop":4623,"ead":4624,"hat":4625,"mon":4626,"Æ°":4627,"Ġáŀŀ":4628,"áŁĴáŁĴ":4629,"áŀĢáŀĶáŀī":4630,"ĠáŀĵáŀĢ":4631,"ĠáŁĽ":4632,"áŀĵáŀĢáŀĻáŀĢ":4633,"ari":4634,"áŀĨáŀĢ":4635,"Ġpur":4636,"Ġfree":4637,"Ġfinal":4638,"amed":4639,"ĠBur":4640,"imal":4641,"áŀĢáŀĶáŀĢ":4642,"Ġvir":4643,"ĠNe":4644,"ections":4645,"ands":4646,"ĠáŁ¡áŁ¡áŁ¥":4647,"There":4648,"ĠThom":4649,"ideo":4650,"áŀĵáŀĢáŀĳáŀŁ":4651,"á»Ļ":4652,"Ġdiff":4653,"Ġattempt":4654,"ĠEmpire":4655,"echan":4656,"Ġfamous":4657,"ĠPali":4658,"Ġsocial":4659,"Ġpossible":4660,"ĠSutta":4661,"Ġsingle":4662,"Ġespecially":4663,"iot":4664,"rus":4665,"uge":4666,"áŀĽáŀĴáŀĵ":4667,"ĠáŀŁáŀļáŀĳ":4668,"áŀľáŀ±":4669,"áŀħáŀľáŀĦ":4670,"ĠáŀŁáŀĺáŀĽ":4671,"Ġtake":4672,"Ġson":4673,"Ġsett":4674,"arrh":4675,"Ġfarm":4676,"Ġdial":4677,"ĠCup":4678,"Ġled":4679,"ĠShe":4680,"Ġhome":4681,"áŀĢáŀŁáŀĢ":4682,"ĠMo":4683,"Ġrefer":4684,"ĠDem":4685,"udi":4686,"Ġworks":4687,"ĠáŁ¡áŁ©áŁ¤áŁł":4688,"Ġweak":4689,"ĠáŀĵáŀĤáŀļáŀł":4690,"Ġadult":4691,"Ġplace":4692,"ĠLaos":4693,"ĠRead":4694,"Ġhistory":4695,"ĠGermany":4696,"Ġchickens":4697,"ĠLouis":4698,"85":4699,"91":4700,"On":4701,"iology":4702,"work":4703,"áŀĢáŀŁáŀĺ":4704,"áŀıáŀļáŀĢ":4705,"áŀıáŀĴáŀĺ":4706,"áŀŁáŀļáŀİ":4707,"ĠáŀĶáŀĴ":4708,"Ġáŀ§áŀĹáŀı":4709,"ison":4710,"Ġáŀ¢áŀŁáŀĺ":4711,"Ġáŀ±áŀĹ":4712,"Ġpaddy":4713,"Ġdest":4714,"Ġdiet":4715,"áŀĻáŀŁáŀı":4716,"ĠCo":4717,"ĠSiam":4718,"igure":4719,"Ġ!\"":4720,"ĠDev":4721,"ĠFe":4722,"ĠGod":4723,"Ġconv":4724,"ĠNS":4725,"ĠáŁ¡áŁ¢áŁ¢":4726,"opl":4727,"Ġalthough":4728,"ĠCarA":4729,"ĠáŀļáŀĲáŀĹ":4730,"Ġenc":4731,"Ġinform":4732,"Ġprevent":4733,"Ġevent":4734,"Ġattack":4735,"Ġpoint":4736,"ĠSeptember":4737,"Ġcommunity":4738,"ynast":4739,"Ġdescrib":4740,"Ġstandard":4741,"PA":4742,"RE":4743,"af":4744,"ef":4745,"tain":4746,"áŀļáŀ¯":4747,"áŀĦáŀħáŀĺ":4748,"áŀĺáŀĻáŀĢ":4749,"ĠáŀĵáŀĦ":4750,"Ġáŀĺáŀĥ":4751,"áŁĲáŁĴ":4752,"Ġáŀ¯áŀĴáŀĵáŀī":4753,"Ġtheory":4754,"Ġcame":4755,"áŀıáŀĺáŀĤ":4756,"roop":4757,"ĠCap":4758,"ĠáŀĸáŀĽáŀļ":4759,"ulates":4760,"ĠáŀĶáŀĳáŀĶ":4761,"ĠáŁ¢áŁłáŁ¢":4762,"ĠáŁ¢áŁłáŁ§":4763,"ĠáŁ¡áŁ¥áŁ¡áŁ¦":4764,"ĠWestern":4765,"ĠáŁ¡áŁ§áŁł":4766,"Ġrun":4767,"ĠáŁ¡áŁ©áŁ¤áŁ§":4768,"Ġintest":4769,"ensive":4770,"ternal":4771,"Ġinfection":4772,"Ġmeas":4773,"Ġ1990":4774,"ĠIndoch":4775,"uyen":4776,"Ã³n":4777,"Ġeduc":4778,"Ġskin":4779,"Ġlocal":4780,"Ġkingdom":4781,"arrhoea":4782,"Mode":4783,"bon":4784,"ban":4785,"gen":4786,"pg":4787,"sy":4788,"ÂŃ":4789,"Ã²":4790,"áŀļáŀ§áŀĶáŀı":4791,"áŀŁáŀľáŀĢ":4792,"áŁĨ.":4793,"Ġaut":4794,"Ġsun":4795,"ala":4796,"Ġche":4797,"Ġpress":4798,"Ġlos":4799,"Ġlight":4800,"Ġleng":4801,"idence":4802,"owl":4803,"Ġáŀ¯áŀĢáŀĳ":4804,"ĠáŁ¡áŁ¡áŁ¢":4805,"ably":4806,"ĠáŁ¡áŁ©áŁ¤áŁ¨":4807,"ucts":4808,"áŀģáŀıáŀĴáŀĺ":4809,"á»ĵ":4810,"Ġothers":4811,"arma":4812,"Ġpoet":4813,"alker":4814,"Ġreturn":4815,"Ġtemperature":4816,"Ġterrit":4817,"88":4818,"CA":4819,"Kim":4820,"Sp":4821,"do":4822,"for":4823,"iate":4824,"jpg":4825,"tal":4826,"Ã¼":4827,"áŀıáŀļáŀĹ":4828,"áŀĽáŀĻ":4829,"áŀĻáŀ¢":4830,"áŁĭáŁģ":4831,"ĠáŀĺáŀĬ":4832,"áŀ¸áŀ»":4833,"ĠáŁļ":4834,"áŀĤáŀħáŀĢ":4835,"áŀĤáŀļáŀĢ":4836,"áŀĴáŀĵáŀĢáŀĺ":4837,"Ġáŀľáŀĳ":4838,"áŀĭáŀĳ":4839,"Ġáŀ§áŀĶáŀĢáŀļ":4840,"Ġfood":4841,"ĠÂĴ":4842,"ĠMod":4843,"ĠRou":4844,"ĠHen":4845,"ĠIII":4846,"uted":4847,"ema":4848,"Ġbeh":4849,"ĠWal":4850,"anded":4851,"ĠáŁ¡áŁ¤áŁ¦":4852,"orther":4853,"ouncil":4854,"ĠáŁłáŁ¥":4855,"ĠáŀĶáŀļáŀĺáŀı":4856,"ĠáŁ¡áŁ©áŁ¦áŁ¨":4857,"Ġsyll":4858,"Ġsyphilis":4859,"ĠáŀĵáŀĤáŀļáŀĢ":4860,"ressed":4861,"áŀļáŀĺáŀĢáŀĬáŀĽ":4862,"Ġregard":4863,"Ġspecific":4864,"ĠSuper":4865,"áŀĢáŀ£áŀļ":4866,"Ġaffected":4867,"35":4868,"39":4869,"87":4870,"IN":4871,"aim":4872,"áŀĢáŀĴáŀĺ":4873,"áŀĢáŀĪáŀļ":4874,"áŀĺáŀĴ":4875,"áŀĴáŀĸáŀĽ":4876,"ĠáŀĻáŀĦ":4877,"Ġáŀ¥áŀľ":4878,"ĠChe":4879,"Ġlate":4880,"Ġliving":4881,"Ġ21":4882,"Ġ22":4883,"Ġ..":4884,"ĠPer":4885,"ida":4886,"Ġgive":4887,"ivid":4888,"ĠHer":4889,"ĠFl":4890,"ĠLong":4891,"ĠNov":4892,"ector":4893,"ude":4894,"ĠáŁ¡áŁ§áŁ¤":4895,"Ġheart":4896,"Ġchronic":4897,"ĠáŁ¡áŁ©áŁ¦áŁ¦":4898,"outheast":4899,"Ġincluded":4900,"ront":4901,"Ġrecogn":4902,"Ġunderst":4903,"Ġsimulates":4904,"ĠBuddhist":4905,"Ġculture":4906,"Ġseries":4907,"NET":4908,"Ġanalysis":4909,"Ġmembers":4910,"Ġhaemorrh":4911,"Ġsusceptible":4912,"orthern":4913,"65":4914,"RT":4915,"be":4916,"Ġess":4917,"áŀĵáŀĮ":4918,"áŀĻáŀĶáŀĵ":4919,"áŀĶáŀł":4920,"áŀĤáŀĸ":4921,"áŀĩáŀĶáŀİ":4922,"áŀģáŀĴáŀĺ":4923,"áŀĵáŀĢáŀľáŀĦ":4924,"Ġáŀ¡áŀĦ":4925,"orage":4926,"áŀļáŀıáŀĶ":4927,"Ġfind":4928,"áŀ¯áŀĢáŀŁ":4929,"Ġdoc":4930,"áŁ¢áŁ¤":4931,"áŁ£áŁ¤":4932,"Ġhttp":4933,"ĠAc":4934,"ĠAir":4935,"Ġread":4936,"Ġeither":4937,"aged":4938,"ests":4939,"Ġcommercial":4940,"ĠáŁ¡áŁ¦áŁ§":4941,"áŀļáŀĹáŀĸáŀļ":4942,"ĠCarC":4943,"ĠCarL":4944,"ĠáŁłáŁ¨":4945,"ĠYork":4946,"ĠáŁ¡áŁ©áŁ£áŁł":4947,"Ġdistinct":4948,"Ġcapital":4949,"Ġlinguistics":4950,"Ġantib":4951,"Ãªn":4952,"Ġterms":4953,"Ġschools":4954,"pril":4955,"ĠKorea":4956,"ĠBritish":4957,"ca":4958,"ned":4959,"uz":4960,"wh":4961,"ÂĴ":4962,"Ġ*":4963,"áŀıáŀľáŀĵ":4964,"áŀĶáŀļáŀĶáŀĦ":4965,"áŀĤáŀĻáŀĽ":4966,"ĠáŀĲáŀıáŀļ":4967,"áŀģáŀĬ":4968,"áŀ¢áŀľ":4969,"ĠáŀŁáŀĺáŀĻ":4970,"áŀĲáŀĬ":4971,"Ġáŀ¯áŀľ":4972,"Ġáŀ¢áŀŁáŀī":4973,"Ġsound":4974,"Ġside":4975,"ita":4976,"ĠCont":4977,"Ġtoget":4978,"ĠApril":4979,"ĠRoman":4980,"ĠBer":4981,"Ġiss":4982,"adem":4983,"Ġgen":4984,"Ġáŀ£áŀĶ":4985,"Ġvand":4986,"ĠáŁ¡áŁ¦áŁ¥":4987,"Ġrange":4988,"ĠáŁ¢áŁ¤áŁ§":4989,"à¸²à¹Ħ":4990,"áŀĤáŀİáŀĢáŀĺ":4991,"uddha":4992,"anskrit":4993,"Ġenter":4994,"Ġlevels":4995,"ĠIsra":4996,"Ġthought":4997,"Ġtogether":4998,"41":4999,"TO":5000,"pro":5001,"self":5002,"uel":5003,"Ã§":5004,"áŀļáŀĩáŀĵ":5005,"ĠáŀĶáŀĶáŀļ":5006,"áŀĸáŀŁáŀĺ":5007,"áŀĩáŀĢáŀļ":5008,"áŀĵáŀĢáŀķáŀĽ":5009,"áŀĮáŀī":5010,"Ġsev":5011,"Ġcode":5012,"iting":5013,"itch":5014,"Ġáŀ±áŀļáŀĺ":5015,"Ġinternational":5016,"Ġfive":5017,"Ġfurther":5018,"à¸Ĥ":5019,"ĠSchool":5020,"use":5021,"ola":5022,"ĠMal":5023,"ĠRed":5024,"ĠBo":5025,"imately":5026,"ots":5027,"ĠáŁ¡áŁ¢áŁ¦":5028,"ĠáŁ¡áŁ¦áŁ¤":5029,"ĠáŁ¡áŁ¦áŁ¨":5030,"ĠChrist":5031,"ĠáŀĢáŀıáŀī":5032,"áŀĵáŀĢáŀĵáŀĤáŀļ":5033,"Ġrather":5034,"elling":5035,"Ġ2014":5036,"ĠáŁłáŁ¤":5037,"ccording":5038,"Ġ60":5039,"Ġresist":5040,"Ġleft":5041,"Ġdiarrhoea":5042,"Ġ1970":5043,"Ġ1975":5044,"Ġmonth":5045,"Ġmusic":5046,"color":5047,"ĠAfric":5048,"ynasty":5049,"49":5050,"66":5051,"DE":5052,"gn":5053,"pid":5054,"áŀıáŀļáŀŁáŀĺ":5055,"áŀĺáŀļáŀĢ":5056,"ĠáŀĵáŀĶ":5057,"áŀ¡áŀĵ":5058,"áŀĵáŀĢáŀĸ":5059,"áŀĵáŀĢáŀ¢áŀı":5060,"áŀĲáŀĢáŀĺ":5061,"enz":5062,"Ġsch":5063,"Ġdata":5064,"ĠCE":5065,"áŁ¢áŁ¦":5066,"Ġlo":5067,"ĠAfter":5068,"Ġnature":5069,"ĠBang":5070,"ĠáŁ¡áŁłáŁ©":5071,"imate":5072,"ĠDav":5073,"áŀ§áŀĢáŀī":5074,"ify":5075,"ables":5076,"aph":5077,"Ġexec":5078,"áŀ£áŀļáŀłáŀı":5079,"ĠáŁłáŁ¦":5080,"ploy":5081,"ĠáŁ¡áŁ©áŁ¨áŁ¡":5082,"Ġbecom":5083,"Ġjo":5084,"Ġknowledge":5085,"Ġindic":5086,"Ġindust":5087,"ĠQR":5088,"board":5089,"Ġreduce":5090,"Ġservices":5091,"Ġteach":5092,"Ġorganism":5093,"Ġvowel":5094,"Ġchildren":5095,"Ġsignificant":5096,"75":5097,"Ad":5098,"IS":5099,"Or":5100,"fact":5101,"ky":5102,"áŀĦáŀŁáŀı":5103,"áŀĦáŀļáŀĽ":5104,"áŀĽáŀĺáŀı":5105,"Ġáŀĸáŀĳ":5106,"áŀĩáŀĴáŀĺ":5107,"Ġwhe":5108,"Ġwid":5109,"Ġfocus":5110,"asion":5111,"asites":5112,"Ġmount":5113,"Ġtoo":5114,"Ġlive":5115,"ĠTour":5116,"Ġhal":5117,"aces":5118,"ĠáŀŁáŀłáŀĤáŀĺ":5119,"ocrat":5120,"Ġemer":5121,"ĠLi":5122,"Ġáŀ£áŀī":5123,"ĠáŁ¡áŁ¡áŁ©":5124,"ĠáŀĢáŀļáŀİáŀĴáŀĺ":5125,"Ġclaim":5126,"Ġplant":5127,"Ġprinc":5128,"Ġtrade":5129,"Ġindivid":5130,"Ġpolic":5131,"ĠIndia":5132,"Ġrespect":5133,"ĠLeague":5134,"Ġcultural":5135,"Ġnecess":5136,"Ġbacteria":5137,"Ġfeathers":5138,";\"":5139,"Sh":5140,"ged":5141,"hik":5142,"me":5143,"Ġæ":5144,"áŀ¶áŁİ":5145,"áŀıáŀĢáŀļ":5146,"ĠáŀĲáŀĶ":5147,"áŀĹáŀĶ":5148,"áŀĹáŀľáŀı":5149,"hea":5150,"áŁĬáŀ¶áŁĨ":5151,"ĠáŀĻáŀĢáŀĺ":5152,"arian":5153,"Ġcr":5154,"Ġcyc":5155,"itted":5156,"áŀŁáŀĺáŀĹ":5157,"Ġpub":5158,"Ġbord":5159,"Ġmy":5160,"Ġmem":5161,"Ġmechan":5162,"ĠCrystal":5163,"Ġloss":5164,"ĠSam":5165,"Ġhard":5166,"olf":5167,"Ġneg":5168,"iratory":5169,"ume":5170,"Ġalmost":5171,"ĠáŁ¡áŁ¡áŁ¡":5172,"ĠJune":5173,"aken":5174,"ĠáŁ¡áŁ£áŁ¢":5175,"ĠáŁ¡áŁ£áŁ£":5176,"ape":5177,"Ġinteg":5178,"ĠáŁ¡áŁ©áŁ¨áŁ¦":5179,"ĠFrank":5180,"Ġtransl":5181,"Ġdefin":5182,"Ġaccording":5183,"Ġrespons":5184,"Ġreduced":5185,"Ġequal":5186,"Ġeffective":5187,"Ġforeign":5188,"ĠKorean":5189,"Ġcourt":5190,"Ã«l":5191,"Ġturkeys":5192,"36":5193,"48":5194,"ka":5195,"rast":5196,"yt":5197,"áŀĦáŀĲ":5198,"áŀıáŀļáŀĢáŀĺ":5199,"áŀĳáŀŁáŀĢ":5200,"áŀłáŀĻ":5201,"áŀĴáŀĢáŀĺ":5202,"Ġ)ÂĴ":5203,"hev":5204,"áŀļáŀĺáŀŁ":5205,"Ġfaec":5206,"áŀ¯áŀĢáŀĳ":5207,"Ġdrop":5208,"asc":5209,"asp":5210,"áŀĽáŀĦáŀļ":5211,"ention":5212,"Ġlet":5213,"ĠTal":5214,"ĠHouse":5215,"cean":5216,"unt":5217,"Ġconcept":5218,"Ġstorage":5219,"ĠJan":5220,"aint":5221,"ĠáŁ¡áŁ©áŁ§áŁ¢":5222,"Ġhealth":5223,"áŀ£áŀī":5224,"ĠáŁłáŁ£":5225,"Ġeng":5226,"Ġleast":5227,"Ġsoil":5228,"ĠáŁ¡áŁ©áŁ¢áŁł":5229,"Ġrelations":5230,"Ġprovide":5231,"ĠáŁ¡áŁ¨áŁ¦áŁ£":5232,"ĠComp":5233,"Ġnews":5234,"Ġpoor":5235,"Ġconsider":5236,"Ġproblems":5237,"ooks":5238,"Ġeconomic":5239,"Ġvaccine":5240,"Ġobserv":5241,"100":5242,"300":5243,"78":5244,"82":5245,"IV":5246,"Spec":5247,"UN":5248,"ches":5249,"face":5250,"fess":5251,"ges":5252,"Ġut":5253,"áŀ¶áŀ»áŁĨ":5254,"áŀ·áŁĶ":5255,"áŀĻáŀĢáŀļ":5256,"áŀŁáŀĶáŀĵ":5257,"áŀĶáŀĭ":5258,"áŁĨáŀ»":5259,"áŀĤáŀĦáŀħ":5260,"áŀīáŀľ":5261,"ĠáŀĽáŀı":5262,"ĠáŀĽáŀĽ":5263,"ĠáŀĹáŀľáŀıáŀİ":5264,"áŀļáŀŁáŀī":5265,"Ġtreatment":5266,"áŀĥáŀĢáŀĺ":5267,"áŀļáŀĩáŀĩ":5268,"icult":5269,"Ġfund":5270,"à¸Ĭ":5271,"à¸ĭ":5272,"Ġmind":5273,"Ġmaking":5274,"iles":5275,"rote":5276,"ĠSanskrit":5277,"ĠTo":5278,"ete":5279,"áŀļáŀ¢áŀĴ":5280,"ĠMed":5281,"ĠPark":5282,"otype":5283,"Ġeat":5284,"agu":5285,"ĠHT":5286,"ĠIm":5287,"ĠFacebook":5288,"ĠGo":5289,"Ġproject":5290,"Ġáŀ¯áŀĢáŀ¯áŀĦ":5291,"ĠJong":5292,"ĠCarF":5293,"ĠáŁ¢áŁ¤áŁ¦":5294,"ought":5295,"ĠáŁ¡áŁ©áŁ¤áŁ¢":5296,"Ġabove":5297,"Ġphot":5298,"ĠPhil":5299,"rown":5300,"Ġprovided":5301,"Ġearth":5302,"Ġdefe":5303,"Ġthroughout":5304,"Ġviol":5305,"Ġallowed":5306,"Ġhigher":5307,"ĠWindows":5308,"64":5309,"ozo":5310,"áŀļáŀļáŀĦ":5311,"áŀļáŀĬáŀĽ":5312,"áŀĻáŀĻáŀŁáŀļ":5313,"áŀĺáŀĩáŀĵ":5314,"áŁĭáŁĤ":5315,"ĠáŀĶáŀĹ":5316,"áŀħáŀĻáŀŁáŀĺ":5317,"Ġáŀ¢áŀľáŀĢ":5318,"ĠáŀķáŀĤ":5319,"áŀĵáŀĢáŀĦ":5320,"ini":5321,"inent":5322,"ators":5323,"ication":5324,"Ġfung":5325,"à¸ł":5326,"ĠCa":5327,"ĠCal":5328,"Ġhours":5329,"áŀĸáŀĽáŀĹ":5330,"ĠMe":5331,"Ġreason":5332,"ĠRiver":5333,"ĠEU":5334,"Ġáŀ¢áŀĹáŀĻ":5335,"Ġgre":5336,"ago":5337,"áŀ§áŀĶáŀļ":5338,"ĠGames":5339,"ĠLord":5340,"Ġash":5341,"thumb":5342,"Ġwhole":5343,"ĠEvilD":5344,"Ġsugg":5345,"Ġ2015":5346,"Ġ2017":5347,"ĠáŁłáŁ©":5348,"Ġcontamin":5349,"ĠáŁ¡áŁ©áŁ¥áŁ©":5350,"Ġflo":5351,"enced":5352,"Ġprovinc":5353,"ances":5354,"Ġacute":5355,"Ġentire":5356,"Ġesc":5357,"Ġimplement":5358,"Ġcolon":5359,"ĠGrand":5360,"Ġlinguistic":5361,"Ġtraditional":5362,"Ġarchitecture":5363,"Ġcomputer":5364,"Ġestablished":5365,"ĠMinister":5366,"ournal":5367,"ĠIndochina":5368,"ĠRouge":5369,"Ġindividual":5370,"'re":5371,"CD":5372,"HP":5373,"Kh":5374,"We":5375,"hing":5376,"know":5377,"ved":5378,"yper":5379,"ze":5380,"ä»":5381,"Ġáŀ¢áŀĻáŀŁ":5382,"áŀĳáŀļáŀĢ":5383,"Ġáŀĩáŀľáŀĵ":5384,"áŀĤáŀĤáŀłáŀĶáŀı":5385,"áŀīáŀľáŀĵ":5386,"áŀģáŀĢ":5387,"áŁīáŁĲ":5388,"Ġtax":5389,"enn":5390,"aru":5391,"icism":5392,"Ġfather":5393,"Ġbre":5394,"roy":5395,"ĠáŀķáŀĽáŀĢáŀĺ":5396,"ĠTa":5397,"Ġhab":5398,"olds":5399,"ĠMag":5400,"ĠMart":5401,"ĠMont":5402,"Ġnever":5403,"Ġáŀ¢áŀļáŀī":5404,"ĠEc":5405,"Ġget":5406,"ĠGal":5407,"ĠKong":5408,"Ġ1950":5409,"Ġ1980":5410,"sequ":5411,"ĠáŁ¢áŁ¥áŁ¦":5412,"ĠáŁ¢áŁ¤áŁł":5413,"Ġformer":5414,"ibility":5415,"áŀıáŀĩáŀĦ":5416,"Ġ2002":5417,"Ġoutside":5418,"áº£":5419,"Ġactiv":5420,"ĠProv":5421,"Ġsurv":5422,"Ġincrease":5423,"Ġcontinu":5424,"Ġconditions":5425,"Ġlibraries":5426,"Ġbroilers":5427,"TA":5428,"fruit":5429,"ger":5430,"ius":5431,"rich":5432,"Ġi":5433,"áŁĿ":5434,"áŀĶáŀĶáŀī":5435,"ĠáŀŁáŀĻ":5436,"ĠáŀŁáŀĬ":5437,"áŀĬáŀĢáŀŁ":5438,"áŀļáŀĶáŀģáŀİ":5439,"ints":5440,"itation":5441,"Ġport":5442,"Ġdone":5443,"Ġlower":5444,"ĠáŀķáŀĽáŀĳ":5445,"ĠáŀĸáŀĽáŀ¡":5446,"ĠMount":5447,"ĠáŀŁáŀłáŀĴáŀĺ":5448,"Ġáŀ§áŀĳáŀĻ":5449,"ĠNot":5450,"ĠáŁ¡áŁ¢áŁ©":5451,"Ġstage":5452,"ĠáŁ©áŁłáŁł":5453,"ĠáŁ¡áŁ¤áŁ©":5454,"Ġcome":5455,"Ġdeep":5456,"ĠáŁ¡áŁ¦áŁ£":5457,"ounced":5458,"Ġ45":5459,"Ġseed":5460,"áŀłáŀļáŀİáŀĢáŀĺ":5461,"Ġ70":5462,"ĠáŁ¡áŁ©áŁ¨áŁ¢":5463,"Ġpron":5464,"Ġable":5465,"ĠáŁ¡áŁ©áŁ£áŁ©":5466,"Ġlarv":5467,"ĠAlthough":5468,"Ġamount":5469,"ĠMarch":5470,"III":5471,"Ġaddition":5472,"Ġbuilt":5473,"Ġconcern":5474,"ĠOrc":5475,"Ġgroups":5476,"ïĥĺ":5477,"Ġreligious":5478,"ĠCharles":5479,"ĠJuly":5480,"ĠIsraÃ«l":5481,"84":5482,"Col":5483,"SI":5484,"press":5485,"Ġ01":5486,"áŁĻ":5487,"áŀĦáŀĻ":5488,"áŀŁáŀŁáŀĺ":5489,"áŁģáŁģ":5490,"ĠáŁĤ":5491,"áŀłáŀĴ":5492,"áŀļáŀİáŀĢáŀŁ":5493,"áŀĩáŀĵáŀļáŀŁ":5494,"Ġsel":5495,"Ġsaw":5496,"arb":5497,"arily":5498,"iter":5499,"áŀļáŀıáŀĳ":5500,"Ġáŀ±áŀĺ":5501,"Ġwant":5502,"ĠáŁ¤áŁłáŁłáŁłáŁł":5503,"icient":5504,"ĠCity":5505,"Ġline":5506,"ocene":5507,"Ġthings":5508,"ĠBr":5509,"ĠBec":5510,"uri":5511,"ĠFrost":5512,"ĠJames":5513,"ĠáŁ¡áŁ§áŁ£":5514,"ĠáŀļáŀĲáŀĢ":5515,"à¸²à¸ĩ":5516,"ĠáŁ¡áŁ©áŁ¥áŁ¢":5517,"ĠáŁ¢áŁ¢áŁł":5518,"ĠáŁ¡áŁ©áŁ¢áŁ§":5519,"Ġinvest":5520,"ĠáŁ¡áŁ©áŁłáŁ¤":5521,"Ġfollowed":5522,"Ġwriter":5523,"Ġconstit":5524,"reme":5525,"Ġrequired":5526,"Ġneeded":5527,"Ġkeep":5528,"As":5529,"BM":5530,"Cambod":5531,"con":5532,"go":5533,"kin":5534,"ked":5535,"Ġran":5536,"áŀĺáŀļáŀĶ":5537,"áŀĶáŀ¥áŀı":5538,"áŀ¸,":5539,"Ġáŀ¢áŀĮ":5540,"áŀ¢áŀļáŀŁ":5541,"ĠáŀĻáŀĺ":5542,"aria":5543,"aly":5544,"ords":5545,"Ġinequ":5546,"áŀ¯áŀİ":5547,"Ġtook":5548,"Ġtotal":5549,"Ġlat":5550,"ĠSK":5551,"oly":5552,"etle":5553,"Ġrese":5554,"ĠBill":5555,"lymp":5556,"ivate":5557,"ĠHo":5558,"ĠHigh":5559,"ĠHong":5560,"ĠIS":5561,"áŀŁáŀľáŀĴáŀĺ":5562,"ayo":5563,"áŀıáŀļáŀĵ":5564,"ĠJean":5565,"Ġforms":5566,"áŀīáŀĺáŀĢáŀĸ":5567,"ĠáŁ¡áŁ©áŁ¥áŁ¦":5568,"ĠáŀļáŀıáŀĵáŀĤ":5569,"Ġenv":5570,"ĠáŁ¡áŁ©áŁ¨áŁ¥":5571,"ĠáŀĵáŀĤáŀļáŀŁ":5572,"ĠáŁ¨áŁłáŁ¢":5573,"Ġproduced":5574,"augh":5575,"Ġvariety":5576,"Ġdepression":5577,"Ġphilosoph":5578,"Ġimpro":5579,"Ġincreasing":5580,"Ġcells":5581,"Ġdesigned":5582,"Ġgoing":5583,"Ġmovement":5584,"Ġmusc":5585,"ĠCommun":5586,"Ġetc":5587,"Ġcurrent":5588,"Ġbreeders":5589,"42":5590,"46":5591,"72":5592,"81":5593,"Ind":5594,"ML":5595,"burg":5596,"harma":5597,"äº":5598,"áŀĺáŀ¢":5599,"áŀĬáŀĺáŀŁ":5600,"inate":5601,"Ġáŀ¯áŀŁ":5602,"reg":5603,"itor":5604,"Ġwet":5605,"ouv":5606,"ĠSport":5607,"áŀĢáŀĤáŀĤ":5608,"ulated":5609,"ĠâĢ¦.":5610,"Ġisol":5611,"áŀĻáŀĶáŀī":5612,"Ġep":5613,"odh":5614,"ĠáŁ¡áŁ¥áŁ¡":5615,"rak":5616,"Ġwhose":5617,"illed":5618,"rome":5619,"aper":5620,"ĠáŁ¡áŁ©áŁ§áŁ¡":5621,"Ġ300":5622,"rip":5623,"Ġheav":5624,"ĠáŁ¡áŁ©áŁ¥áŁ¡":5625,"ormal":5626,"ney":5627,"à¸Ńà¸ģ":5628,"Ġtherefore":5629,"Ġaccess":5630,"________________________":5631,"________________________________________":5632,"Ġbuilding":5633,"Ġfunction":5634,"ĠEarth":5635,"Ġdifficult":5636,")\"":5637,"76":5638,"77":5639,"La":5640,"Mah":5641,"OC":5642,"cious":5643,"ores":5644,"pon":5645,"watth":5646,"ĠáŀĸáŀĽáŀĳ":5647,"áŀħáŀļáŀı":5648,"áŀĸáŀĻ":5649,"ĠáŀļáŀĶáŀļ":5650,"áŁīáŁĪ":5651,"Ġtend":5652,"atical":5653,"Ġáŀ±áŀŁ":5654,"áŀŁáŀĺáŀĲ":5655,"Ġwood":5656,"Ġpred":5657,"Ġfav":5658,"Ġbhik":5659,"outher":5660,"áŀŁáŀĦáŀĸ":5661,"road":5662,"ĠChen":5663,"ĠCyst":5664,"áŁ¢áŁ¢":5665,"Ġlabor":5666,"ĠAM":5667,"ĠMc":5668,"ĠMany":5669,"ĠáŀŁáŀłáŀļ":5670,"osp":5671,"áŀļáŀĤáŀİáŀĵ":5672,"ĠElement":5673,"ĠáŀĬáŀĦáŀķ":5674,"ĠIM":5675,"ĠáŁ¡áŁ¥áŁ©":5676,"rake":5677,"akh":5678,"áŀ¥áŀ¡":5679,"pper":5680,"_____":5681,"Ġnote":5682,"hai":5683,"ĠáŁ¢áŁ¤áŁ¥":5684,"ĠáŁ¡áŁ©áŁ¦áŁ¤":5685,"Ġsepar":5686,"Ã©e":5687,"Ġund":5688,"Ġ186":5689,"á»ĭ":5690,"Ġinfected":5691,"Ġprevious":5692,"Ġground":5693,"Ġremains":5694,"Ġhighly":5695,"ĠMars":5696,"Ġphilosop":5697,"2017":5698,"Ġ5030":5699,"Ġsecondary":5700,"ĠKingdom":5701,"Ġáŀ¯áŀıáŀĳáŀĤ":5702,"ergy":5703,"France":5704,"Ġenlarg":5705,"Ġnovel":5706,"Ġinformation":5707,"sych":5708,"ocratic":5709,"_____________________________________________":5710,"outhern":5711,"YLI":5712,"px":5713,"sk":5714,"Äĥ":5715,"åľ":5716,"áŁĴáŁĤ":5717,"áŀŁáŀľáŀĵ":5718,"ĠáŀĶáŀĢáŀı":5719,"áŀĵáŀĢáŀĨ":5720,"áŀļáŀĶáŀı":5721,"Ġaff":5722,"áŀĶáŀıáŀĵ":5723,"onic":5724,"erous":5725,"ato":5726,"ateg":5727,"atively":5728,"Ġsold":5729,"aro":5730,"ito":5731,"itz":5732,"Ġfull":5733,"astern":5734,"ĠCouncil":5735,"ĠSI":5736,"ĠTan":5737,"omet":5738,"ĠMiddle":5739,"Ġreached":5740,"ocal":5741,"ĠRX":5742,"ĠRes":5743,"áŀļáŀĤáŀĺáŀĵ":5744,"Ġ29":5745,"ĠPres":5746,"idi":5747,"Ġ?)":5748,"ĠáŁ¢áŁłáŁ¥":5749,"Ġvol":5750,"ithm":5751,"ĠWest":5752,"thing":5753,"Ġstates":5754,"ĠEvilG":5755,"ĠáŁ¡áŁ£áŁ©":5756,"rie":5757,"ogle":5758,"ogenic":5759,"Ġrad":5760,"ĠOlymp":5761,"ĠáŁłáŁ§":5762,"áŀĺáŀīáŀī":5763,"ĠáŁ¢áŁ¤áŁ£":5764,"Ġcannot":5765,"ika":5766,"Ġ2004":5767,"Ġintrod":5768,"ĠáŁ¢áŁ£áŁł":5769,"Ġfeel":5770,"Ġconsist":5771,"ĠAsian":5772,"Ġoccup":5773,"annel":5774,"Ġproduce":5775,"cience":5776,"ĠArmenia":5777,"ething":5778,"Ġrapid":5779,"script":5780,"ĠÃ·":5781,"Ã¨re":5782,"Ġrefus":5783,"Ġsociety":5784,"racy":5785,"arvard":5786,"Ġpressure":5787,"ĠSKYLI":5788,"Ġresearch":5789,"ĠSKYLINE":5790,"38":5791,"AM":5792,"AS":5793,"Pro":5794,"So":5795,"ais":5796,"lad":5797,"wan":5798,"wing":5799,"åı":5800,"Ġur":5801,"áŀŁáŀĺáŀĢ":5802,"áŀīáŀī":5803,"áŀİáŀĦáŀĶ":5804,"ĠáŀıáŀĻ":5805,"áŀĬáŀł":5806,"ĠáŀĽáŀĽáŀĢ":5807,"Ġtext":5808,"Ġsan":5809,"Ġsat":5810,"Ġscient":5811,"itan":5812,"Ġwrote":5813,"Ġpa":5814,"Ġfar":5815,"Ġbatch":5816,"áŀĺáŀłáŀĵ":5817,"ĠMad":5818,"Ġthird":5819,"ĠRS":5820,"urity":5821,"igayo":5822,"irds":5823,"oted":5824,"ĠáŀļáŀĶáŀĢáŀĤ":5825,"ĠDel":5826,"agen":5827,"ope":5828,"oviet":5829,"ĠáŁ¡áŁ£áŁ¡":5830,"ĠOct":5831,"perial":5832,"ĠInt":5833,"ĠáŁ¢áŁ¤áŁ¤":5834,"izing":5835,"Ġ2005":5836,"Ġfeatures":5837,"Ġcomplex":5838,"à¸ģà¸¥":5839,"Ġapplic":5840,"Ġgrad":5841,"Ġspecial":5842,"them":5843,"ĠReich":5844,"à¹Ħà¸Ķ":5845,"ÃŃa":5846,"ĠáŁłáŁłáŁ¤":5847,"Ġlayers":5848,"Ġrequire":5849,"Ġcomplete":5850,"Ġoperation":5851,"Ġorigin":5852,"Ġkilled":5853,"ĠNguyen":5854,"Ġbelieved":5855,"Ġvandalism":5856,"Special":5857,"Ġinequality":5858,"watthama":5859,"\"\"":5860,"43":5861,"79":5862,"83":5863,"?)":5864,"Ng":5865,"Tr":5866,"cont":5867,"let":5868,"ober":5869,"pose":5870,"ti":5871,"van":5872,"Ġ_":5873,"ĠáŀĶáŀĲ":5874,"ĠáŀŁáŀ§áŀĶ":5875,"áŀĳáŀī":5876,"áŀĸáŀł":5877,"áŀļáŀŁáŀłáŀĢ":5878,"Ġtrain":5879,"hest":5880,"áŀļáŀĺáŀĦ":5881,"ona":5882,"Ġsol":5883,"aring":5884,"alysis":5885,"ĠáŀĩáŀĵáŀĽ":5886,"Ġwild":5887,"Ġáŀĺáŀłáŀĵ":5888,"áŀļáŀĬáŀĢáŀł":5889,"ĠâĢį":5890,"Ġpast":5891,"Ġborn":5892,"áŀĢáŀĬáŀĶ":5893,"inger":5894,"Ġdig":5895,"Ġdocument":5896,"Ġdynasty":5897,"oud":5898,"oupe":5899,"Ġmer":5900,"Ġmass":5901,"áŁ¢áŁ£":5902,"Ġhatch":5903,"ĠAwards":5904,"ĠMark":5905,"Ġnight":5906,"lean":5907,"ĠBBC":5908,"ĠBTS":5909,"ĠáŀĶáŀĳáŀĹ":5910,"Ġ!Â»":5911,"ager":5912,"struct":5913,"Ġáŀ¢áŀĶáŀ¢áŀļáŀŁ":5914,"raft":5915,"Ġvideo":5916,"aves":5917,"ĠáŁ¡áŁ¤áŁ¡":5918,"antic":5919,"aps":5920,"ĠáŁ¡áŁ©áŁ§áŁ¤":5921,"Ġheld":5922,"Ġspray":5923,"Ġkind":5924,"ĠáŁ¡áŁ©áŁ¥áŁ§":5925,"ueen":5926,"ĠáŁ¡áŁ©áŁ¨áŁ¨":5927,"Ġparty":5928,"rolet":5929,"ĠáŁ¡áŁ¨áŁ¦áŁ§":5930,"Ġamb":5931,"à¸Ļà¸Ķ":5932,"Ġsomething":5933,"This":5934,"Ġspeech":5935,"Ġreported":5936,"Ġhistorical":5937,"Ġsymbols":5938,"Ġchanges":5939,"ĠHistory":5940,"ĠRevolution":5941,"ĠOctober":5942,"%)":5943,"ball":5944,"che":5945,"eum":5946,"iec":5947,"nom":5948,"uis":5949,"upp":5950,"Ä«":5951,"áŀ·,":5952,"áŀĽáŀļáŀĺ":5953,"áŀĻáŀĴ":5954,"ĠáŀĵáŀĺáŀŁ":5955,"ĠáŀŁáŀĩ":5956,"áŀľáŀŁáŀĺ":5957,"ĠáŀĩáŀĤ":5958,"áŀīáŀŁ":5959,"áŀĵáŀĢáŀĻ":5960,"áŀĲáŀĳ":5961,"Ġtroop":5962,"Ġtaken":5963,"Ġaway":5964,"áŀļáŀĺáŀļ":5965,"Ġ\"(":5966,"Ġsac":5967,"Ġsite":5968,"Ġsix":5969,"ali":5970,"Ġchem":5971,"Ġpor":5972,"Ġput":5973,"Ġfut":5974,"Ġfight":5975,"ĠSan":5976,"ĠSoutheast":5977,"Ġhyp":5978,"ĠAct":5979,"ĠRec":5980,"ĠRome":5981,"ĠBell":5982,"ider":5983,"ĠáŀĢáŀĦáŀħáŀĢ":5984,"utions":5985,"chiev":5986,"ĠNations":5987,"Ġprob":5988,"iforn":5989,"anta":5990,"ĠEvilN":5991,"Ġdeb":5992,"Ġrout":5993,"ĠáŀĶáŀĭáŀĺáŀī":5994,"ĠInstit":5995,"ube":5996,"oyd":5997,"ĠáŁ¢áŁ£áŁ¦":5998,"Ġ75":5999,"Ġagre":6000,"bruary":6001,"ĠáŁ¡áŁ©áŁ¢áŁ¥":6002,"cipl":6003,"Ġrecord":6004,"Ġdeficiency":6005,"Ġsubject":6006,"ĠIndian":6007,"Ġdiagn":6008,"Ġaccept":6009,"Ġrespiratory":6010,"ĠBeetle":6011,"Ġsurface":6012,"ĠGroup":6013,"Ġforest":6014,"ĠGeorge":6015,"Ġstructure":6016,"Æ¡n":6017,"Ġmachine":6018,"ĠCarChev":6019,"ĠJanuary":6020,"áŀĳáŀļáŀĢáŀĲ":6021,"ĠProvince":6022,"Ġtroops":6023,"ifornia":6024,"ĠCarChevrolet":6025,"AR":6026,"En":6027,"FI":6028,"Is":6029,"Signs":6030,"iant":6031,"loyd":6032,"off":6033,"pre":6034,"rated":6035,"uong":6036,"Ġer":6037,"Ġáŀ¶":6038,"áŀļáŀĤáŀı":6039,"áŀĦáŀĹ":6040,"áŀĽáŀĴáŀĵáŀī":6041,"áŀ»áŀ¶áŁĨ":6042,"áŀģáŀļáŀĶ":6043,"áŀĵáŀĢáŀĶáŀĵ":6044,"áŀĲáŀľ":6045,"rect":6046,"ĠáŀĶáŀļáŀĵ":6047,"isk":6048,"Ġsit":6049,"Ġsha":6050,"âĢĮ":6051,"arge":6052,"icros":6053,"Ġbi":6054,"ington":6055,"elet":6056,"Ġmove":6057,"ĠCH":6058,"áŁ¢áŁ¡":6059,"Ġhour":6060,"Ġhold":6061,"ococc":6062,"Ġ.,":6063,"ĠPers":6064,"irit":6065,"otic":6066,"áŀ§áŀŁ":6067,"umours":6068,"Ġvict":6069,"ander":6070,"Ġanim":6071,"ĠVi":6072,"illa":6073,"ĠChang":6074,"Ġcontain":6075,"áŀįáŀĵáŀĹ":6076,"Ġarmy":6077,"ĠThat":6078,"Ã©n":6079,"Ã©s":6080,"ĠáŁ¢áŁ¢áŁ§":6081,"Ġclos":6082,"Ġago":6083,"Ġsoft":6084,"Ġpeace":6085,"Ġlaun":6086,"Ġinterest":6087,"Ġdecre":6088,"Ġleader":6089,"ĠGuard":6090,"Ġidea":6091,"Ġideas":6092,"ĠPeople":6093,"Ġsuccessful":6094,"Ġsource":6095,"Ġconsonant":6096,"Ġbeginning":6097,"Ġassociated":6098,"500":6099,"71":6100,"DN":6101,"can":6102,"fect":6103,"iro":6104,"iers":6105,"part":6106,"ĶĢ":6107,"áŀĦáŀĻáŀĵ":6108,"áŀıáŀĦáŀĺ":6109,"áŀıáŀĬáŀĳ":6110,"áŀľáŀļáŀĢáŀļ":6111,"ĠáŀĽáŀľ":6112,"áŀģáŀŁáŀĺ":6113,"áŀĴáŀłáŀı":6114,"áŀĴáŀľáŀħáŀĵ":6115,"áŁĢáŁĴ":6116,"áŀĵáŀĢáŀĽáŀĵ":6117,"áŀļáŀŁáŀĽ":6118,"inter":6119,"áŀļáŀĳáŀĶ":6120,"ati":6121,"ises":6122,"Ġsum":6123,"Ġsense":6124,"itter":6125,"áŀļáŀıáŀľ":6126,"Ġbed":6127,"Ġder":6128,"Ġmix":6129,"ĠCan":6130,"Ġtop":6131,"Ġlook":6132,"ĠSoviet":6133,"ĠTs":6134,"acy":6135,"ĠÂĳ":6136,"leg":6137,"ading":6138,"ceed":6139,"Ġ1960":6140,"Ġáŀ¥áŀİáŀĳ":6141,"à¹Ĥ":6142,"estival":6143,"ĠáŁ¡áŁ¦áŁ¡":6144,"Ġ32":6145,"Ġrules":6146,"áŀ£áŀĵ":6147,"Ġ]](":6148,"oney":6149,"Ġfeature":6150,"Ġparts":6151,"Ġitself":6152,"ĠPhot":6153,"Ġemploy":6154,"Ġrelated":6155,"Ġlittle":6156,"Ġserved":6157,"Ġhimself":6158,"ields":6159,"Ġfilms":6160,"aemia":6161,"ĠThai":6162,"ĠGiant":6163,"Ġbuildings":6164,"Ġdivided":6165,"Ġprimary":6166,"Ġeffort":6167,"ĠAustral":6168,"Ġreceived":6169,"Ġeventually":6170,"ĠDavid":6171,"Ġhalf":6172,"Ġfaeces":6173,"LE":6174,"OD":6175,"OM":6176,"cast":6177,"der":6178,"ein":6179,"hyd":6180,"lied":6181,"oi":6182,"ois":6183,"uj":6184,"åħ":6185,"Ġera":6186,"áŀ¶áŁĩ":6187,"áŀļáŀ¢áŀī":6188,"áŀıáŀĶáŀĳ":6189,"áŀ»áŁĴ":6190,"áŀ¸.":6191,"ĠáŁĺ":6192,"Ġáŀ¢áŀķ":6193,"áŀĸáŀĹ":6194,"áŀ½áŀ½":6195,"áŀİáŀļáŀĤ":6196,"áŀĩáŀŁáŀı":6197,"áŀĴáŀĻ":6198,"áŀ¡áŀľ":6199,"Ġ(,":6200,"áŀĭáŀĦ":6201,"inn":6202,"Ġáŀ§áŀĩ":6203,"ero":6204,"atin":6205,"Ġáŀ¥áŀĴ":6206,"Ġsin":6207,"Ġpale":6208,"Ġfre":6209,"Ġfield":6210,"Ġfoot":6211,"Ġdro":6212,"Ġdie":6213,"Ġmiddle":6214,"iloid":6215,"oma":6216,"ĠMC":6217,"ocracy":6218,"Ġnamed":6219,"ĠBu":6220,"ulk":6221,"ulating":6222,"ĠáŀĶáŀĳáŀĺáŀĵ":6223,"imer":6224,"othes":6225,"ivan":6226,"Ġforce":6227,"ems":6228,"ĠGar":6229,"ĠLloyd":6230,"rap":6231,"estodes":6232,"Ġwhite":6233,"ĠEvilM":6234,"áŀ¥áŀĳ":6235,"iane":6236,"Ġclin":6237,"ackfruit":6238,"exic":6239,"ollen":6240,"Ġtrac":6241,"ĠPhu":6242,"Ġrod":6243,"Ġregions":6244,"ungs":6245,"rought":6246,"ĠZh":6247,"Ġremov":6248,"Ġacross":6249,"ready":6250,"2018":6251,"Ġbroad":6252,"ĠRobert":6253,"áŀĹáŀĤáŀľáŀĵ":6254,"Ġdeterm":6255,"Ġmedia":6256,"autiloid":6257,"Ġvalue":6258,"Ġestablish":6259,"Ġmathem":6260,"oplas":6261,"Ġunderstand":6262,"Ġdoctr":6263,"Ġwhether":6264,"à¸łà¸²à¸":6265,"Ġbhikkh":6266,"ĠElemental":6267,"\").":6268,"69":6269,"FL":6270,"Pe":6271,"Qu":6272,"cis":6273,"cher":6274,"ford":6275,"rd":6276,"wa":6277,"á¹":6278,"âĶĢ":6279,"æ²":6280,"Ġill":6281,"áŀĦáŀħáŀĵ":6282,"áŀħáŀŁáŀĺ":6283,"Ġáŀ¢áŀĽáŀĦ":6284,"ĠáŀļáŀĤ":6285,"áŀ¹áŁĴ":6286,"áŀĴáŀĶ":6287,"ĠáŀĴáŀı":6288,"áŀĵáŀĢáŀī":6289,"Ġachiev":6290,"áŀļáŀĺáŀļáŀķ":6291,"eros":6292,"áŀŁáŀĵáŀĬ":6293,"enment":6294,"isation":6295,"Ġsize":6296,"Ġcities":6297,"Ġcodes":6298,"Ġoffer":6299,"icated":6300,"Ġfem":6301,"Ġden":6302,"Ġmight":6303,"Ġmother":6304,"ĠSa":6305,"usion":6306,"olic":6307,"osa":6308,"Ġnuc":6309,"Ġthing":6310,"ĠBush":6311,"ĠBattle":6312,"ulf":6313,"ĠPy":6314,"ĠâĢ¦.)":6315,"ĠáŀĶáŀĳáŀŁáŀĺ":6316,"agement":6317,"ĠHol":6318,"ĠKamp":6319,"ĠáŁ¡áŁ¨áŁ¡":6320,"ĠáŁ¡áŁ¢áŁłáŁłáŁłáŁł":6321,"ectic":6322,"iable":6323,"Ġáŀĺáŀļáŀİáŀĵ":6324,"Ġcomo":6325,"ĠVir":6326,"resh":6327,"Ġheat":6328,"Ġexc":6329,"ĠáŀļáŀĲáŀĳ":6330,"ĠáŀĬáŀĢáŀĲáŀĻ":6331,"áŀĺáŀĹáŀĸ":6332,"ightenment":6333,"Ġcontaining":6334,"Ġ%)":6335,"ismo":6336,"ĠState":6337,"ĠáŁ¡áŁ©áŁ¥áŁ¨":6338,"orms":6339,"Ġflu":6340,"áŀļáŀļáŀĢáŀŁ":6341,"Ġevents":6342,"à¸Ļà¸Ĺ":6343,"uyá»":6344,"Ġwriting":6345,"Ġáŀ¢áŀĶáŀļáŀĵ":6346,"Ġteac":6347,"umbus":6348,"ïĥ¼":6349,"Ġembry":6350,"Ġinitial":6351,"Ġexperience":6352,"Ġdestroy":6353,"ĠFebruary":6354,"á»ĵng":6355,"Kimigayo":6356,"55":6357,"67":6358,"All":6359,"Con":6360,"PP":6361,"iang":6362,"iÃ³n":6363,"lar":6364,"pect":6365,"sw":6366,"wood":6367,"à¥":6368,"ïģ":6369,"Ġult":6370,"Ġáŀ¸":6371,"áŀ¶áŁĭ":6372,"áŀĵáŀĴáŀĺ":6373,"áŀĦáŀĻáŀī":6374,"áŀ·.":6375,"áŀĽáŀļáŀĵ":6376,"áŁģ)":6377,"Ġáŀĺáŀī":6378,"áŀĤáŀĴáŀĺ":6379,"áŀģáŀŁáŀħ":6380,"áŀģáŀĻáŀī":6381,"áŀĴáŀĴáŀĺ":6382,"áŀĵáŀĢáŀ¢áŀŁ":6383,"áŀļáŀĢáŀĦ":6384,"ĠáŀĺáŀĢáŀĶ":6385,"ening":6386,"Ġáŀ¥áŀĺ":6387,"áŀĶáŀĵáŀĶ":6388,"Ġsil":6389,"ĠâĢĺ":6390,"asa":6391,"Ġminist":6392,"Ġmember":6393,"ĠSÆ¡n":6394,"ĠáŀĦáŀĶ":6395,"ĠTe":6396,"ĠáŁ¦áŁłáŁłáŁł":6397,"áŀĵáŀĢáŀĶáŀĬ":6398,"etwork":6399,"ĠMat":6400,"Ġthous":6401,"ĠRuss":6402,"ulus":6403,"iment":6404,"Ġgovern":6405,"agg":6406,"áŀĢáŀĶáŀĸ":6407,"ĠFI":6408,"ĠáŁ¢áŁłáŁ¨":6409,"unos":6410,"istan":6411,"Ġonce":6412,"Ġbeings":6413,"Ġversion":6414,"ĠWy":6415,"áŀĽáŀĺáŀĢáŀĢ":6416,"Ġáŀªáŀ¡":6417,"ĠáŁ¡áŁ¦áŁłáŁł":6418,"aped":6419,"icha":6420,"see":6421,"ostic":6422,"ellion":6423,"áŀ£áŀı":6424,"Ġuser":6425,"Ġcontrast":6426,"Ġformal":6427,"Ġuna":6428,"ĠáŁ¡áŁ©áŁ¨áŁ¤":6429,"Ġelements":6430,"ĠAsh":6431,"Ġappoint":6432,"ĠáŁ¡áŁ©áŁ¢áŁ¢":6433,"Ġregular":6434,"anna":6435,"ĠáŁ¡áŁ¨áŁ¦áŁ¢":6436,"anche":6437,"Ġoffice":6438,"Ġsimple":6439,"Ġgenerally":6440,"Ã¢n":6441,"Ġposition":6442,"Ġlocated":6443,"ĠáŁ¡áŁ¡áŁ¨áŁ¡":6444,"Ġliterature":6445,"000000":6446,"Ġeducation":6447,"ĠNovember":6448,"Ġnecessary":6449,"Ġpublished":6450,"ĠBecause":6451,",\"":6452,"47":6453,"68":6454,"74":6455,"For":6456,"IM":6457,"Pl":6458,"bear":6459,"iern":6460,"mage":6461,"oon":6462,"ule":6463,"wide":6464,"ximately":6465,"yi":6466,"à»":6467,"åį":6468,"çİ":6469,"Ġà¸ŀ":6470,"áŀĺáŀĩáŀĢ":6471,"áŀŁáŀĻáŀĵ":6472,"ĠáŀĳáŀŁáŀĺ":6473,"Ġáŀ¢áŀľáŀĵ":6474,"áŀĤáŀħáŀĵ":6475,"ĠáŀģáŀĽ":6476,"áŀ¡áŀĬ":6477,"áŀĭáŀŁ":6478,"arin":6479,"itiz":6480,"Ġbo":6481,"Ġdried":6482,"ouk":6483,"à¸¨":6484,"ilm":6485,"ĠCam":6486,"ĠSince":6487,"áŁ£áŁ¨":6488,"ĠTerr":6489,"ĠÂŃ":6490,"uries":6491,"ĠáŁ¡áŁłáŁ¥áŁł":6492,"iding":6493,"irl":6494,"irm":6495,"ĠDuring":6496,"ĠDNA":6497,"ĠáŁ¢áŁłáŁ¤":6498,"Ġalready":6499,"estine":6500,"ongs":6501,"Ġrul":6502,"Ġriver":6503,"ĠáŁ¢áŁ¥áŁ¥":6504,"Ġsple":6505,"reng":6506,"ubation":6507,"ĠáŀĻáŀŁáŀŁáŀĢ":6508,"ĠáŁ¢áŁ£áŁ£":6509,"ĠáŁ¢áŁ£áŁ¤":6510,"reaty":6511,"Ġclose":6512,"issance":6513,"Ġphon":6514,"Ġtract":6515,"Ġ90":6516,"áŀĩáŀĤáŀł":6517,"ĠáŁ¡áŁ©áŁ¡áŁ¤":6518,"ĠáŁ¡áŁ©áŁ¡áŁ§":6519,"ĠAmerica":6520,"ĠLee":6521,"Ġservice":6522,"iction":6523,"áŀĹáŀĤáŀľáŀı":6524,"Ġbelow":6525,"Ġleading":6526,"ekong":6527,"embly":6528,"Ġsaf":6529,"Ġpositive":6530,"Ġlayer":6531,"Ġlegs":6532,"ypes":6533,"Ġidentified":6534,"Ġconsumption":6535,"Ġvowels":6536,"SET":6537,"ĠAssoci":6538,"Ġconsonants":6539,"ironment":6540,"Ġdescribed":6541,"ĠChristian":6542,"Ġcycle":6543,"known":6544,"Ġlarvae":6545,"Ġphilosophical":6546,"Ġenlarged":6547,"icroscop":6548,"Ġanimals":6549,"âĶĢâĶĢ":6550,"63":6551,"At":6552,"And":6553,"Bl":6554,"Figure":6555,"GT":6556,"John":6557,"Vol":6558,"][":6559,"bor":6560,"ias":6561,"lam":6562,"night":6563,"áŀĦáŀļáŀı":6564,"áŀĢáŀĺáŀĢ":6565,"ĠáŀĤáŀŁ":6566,"áŀĹáŀļáŀİ":6567,"áŀĹáŀľáŀıáŀİ":6568,"áŀĵáŀĢáŀĥ":6569,"ĠáŀĨáŀĶ":6570,"áŀĮáŀĸáŀĽ":6571,"atal":6572,"ĠáŀĻáŀĢáŀĺáŀł":6573,"isl":6574,"arant":6575,"Ġcut":6576,"Ġcases":6577,"itt":6578,"Ġwent":6579,"Ġpitch":6580,"Ġbus":6581,"Ġtowards":6582,"ĠSir":6583,"ĠSun":6584,"Ġ120":6585,"Ġhot":6586,"omp":6587,"ĠAv":6588,"áŀĢáŀĤáŀłáŀĶáŀı":6589,"olars":6590,"left":6591,"ĠPaul":6592,"ĠáŀĤáŀİáŀĹ":6593,"Ġgave":6594,"ĠDes":6595,"ĠFar":6596,"una":6597,"ĠGl":6598,"Ġáŀ£áŀļáŀłáŀı":6599,"raf":6600,"Ġvitamin":6601,"Ġvoice":6602,"ĠWith":6603,"Ġanthem":6604,"overed":6605,"ovirus":6606,"ĠVan":6607,"ills":6608,"ĠJac":6609,"ĠJava":6610,"rior":6611,"ĠOgre":6612,"áŀ«áŀı":6613,"Ġkm":6614,"perception":6615,"Ġchicks":6616,"ĠInf":6617,"Ġcontact":6618,"Ġnothing":6619,"Ġdise":6620,"Ġ55":6621,"Ã©x":6622,"Ġ65":6623,"Ġages":6624,"Ġ80":6625,"oseph":6626,"ĠáŁ¡áŁ©áŁ£áŁ¢":6627,"ĠArch":6628,"ĠArmy":6629,"Ġprovince":6630,"ribution":6631,"ĠProt":6632,"Ġaccount":6633,"à¸¢à¸²à¹Ħ":6634,"Ġmodel":6635,"Ġpresident":6636,"ashington":6637,"ĠSea":6638,"ï¼Ī":6639,"ï¼ī":6640,"Ġviruses":6641,"ĠáŁłáŁłáŁ£":6642,"archy":6643,"à¹ģà¸¥":6644,"Ġcharacteristic":6645,"verse":6646,"Ġmaterials":6647,"glass":6648,"Ġwidely":6649,"Ġfuture":6650,"ichael":6651,"44":6652,"73":6653,"EV":6654,"Ex":6655,"If":6656,"Wh":6657,"ait":6658,"ires":6659,"ser":6660,"uation":6661,"ufact":6662,"vi":6663,"Ã¬":6664,"Ġrain":6665,"Ġáŀ©":6666,"áŀļáŀļáŀı":6667,"áŀĽáŀĢáŀŁ":6668,"áŀĺáŀľáŀĵ":6669,"áŀĳáŀĴáŀĺ":6670,"áŀİáŀŁ":6671,"Ġáŀıáŀĺáŀł":6672,"ĠáŀĤáŀħ":6673,"áŀģáŀ¢":6674,"Ġáŀķáŀı":6675,"áŀĵáŀĢáŀ¯áŀĢáŀĳ":6676,"áŀļáŀĦáŀĵ":6677,"Ġtree":6678,"inary":6679,"áŀĮáŀļ":6680,"áŀĮáŀĹ":6681,"Ġoed":6682,"áŀĦáŀĢáŀĦ":6683,"Ġáŀ§áŀĶáŀĶ":6684,"Ġfan":6685,"Ġbook":6686,"Ġbooks":6687,"Ġdam":6688,"elt":6689,"à¸ĸ":6690,"Ġmuc":6691,"áŀŁáŀĽáŀĴáŀĺ":6692,"ente":6693,"Ġlas":6694,"ĠTV":6695,"even":6696,"amples":6697,"usse":6698,"ĠAccording":6699,"ette":6700,"ĠMost":6701,"osition":6702,"Ġnation":6703,"Ġ.[[":6704,"ĠPort":6705,"ĠHind":6706,"uments":6707,"ĠNic":6708,"Ġstrain":6709,"uda":6710,"Ġancient":6711,"rian":6712,"riend":6713,"Ġsuper":6714,"phas":6715,"Ġ500":6716,"à¸²à¸¡":6717,"Ġáŀļáŀıáŀĵáŀı":6718,"Ġsynd":6719,"ĠáŁ¡áŁ©áŁ¨áŁ§":6720,"ĠáŁ¢áŁ¦áŁ¥":6721,"Ġcompon":6722,"Ġflies":6723,"Ġflocks":6724,"Ġsoon":6725,"]].":6726,"à¸Ńà¸¢":6727,"anned":6728,"aux":6729,"Ġupon":6730,"Ġactive":6731,"Ġdistingu":6732,"à¹Ħà¸ĭ":6733,"ientiane":6734,"Ġsurround":6735,"Ġcapt":6736,"Ġneeds":6737,"Ġmarket":6738,"Ġcourse":6739,"Ġspeak":6740,"ĠCentral":6741,"ĠTurismo":6742,"Ġhighest":6743,"Ġbasis":6744,"ĠSystem":6745,"ĠApple":6746,"Ġrule":6747,"ĠJackie":6748,"ĠAcadem":6749,"ĠCalifornia":6750,"Ġprovinces":6751,"ĠMartin":6752,"ĠPresident":6753,"Ġdiagnostic":6754,"Ġclinical":6755,"iernan":6756,"Am":6757,"After":6758,"CC":6759,"Par":6760,"TI":6761,"back":6762,"ker":6763,"text":6764,"va":6765,"Ã¶":6766,"Ġáŀ·":6767,"áŀļáŀ®":6768,"áŀĦáŀ¯":6769,"áŀĦáŀ¯áŀĦ":6770,"áŀıáŀļáŀĶ":6771,"Ġáŀĵáŀ¡":6772,"áŀĳáŀĶáŀı":6773,"áŀĸáŀıáŀĳ":6774,"ĠáŀĽáŀĻ":6775,"áŀĴáŀŁáŀħ":6776,"ĠáŀľáŀļáŀľáŀĦ":6777,"ĠáŀĨáŀŁ":6778,"áŀļáŀŁáŀĩáŀĵ":6779,"áŀĭáŀĵ":6780,"het":6781,"erre":6782,"Ġcrop":6783,"itle":6784,"Ġfixed":6785,"Ġbron":6786,"Ġbrought":6787,"à¸ĵ":6788,"Ġmid":6789,"ils":6790,"ilities":6791,"áŀĻáŀŁáŀĢ":6792,"ĠCO":6793,"entric":6794,"Ġlib":6795,"Ġlungs":6796,"ĠTim":6797,"ĠTra":6798,"ĠáŀĸáŀĽáŀĢ":6799,"Ġnext":6800,"ĠEastern":6801,"ĠáŀĬáŀĦáŀģ":6802,"ads":6803,"Ġgod":6804,"ĠDep":6805,"ĠFirst":6806,"Ġforced":6807,"ister":6808,"uman":6809,"ĠGreat":6810,"erson":6811,"Ġvia":6812,"ĠVen":6813,"ĠCham":6814,"ĠChÃ¢":6815,"ĠOff":6816,"iance":6817,"Ġáŀ«áŀŁáŀĤáŀĽ":6818,"Ġformed":6819,"ikip":6820,"ubaru":6821,"ĠáŀĶáŀļáŀĺáŀŁ":6822,"ulture":6823,"ĠáŁ¢áŁ¡áŁł":6824,"ĠáŁ¢áŁ¡áŁ¨":6825,"ĠáŁ¢áŁ¡áŁ¦":6826,"áŀĴáŀĹáŀİ":6827,"ĠStalker":6828,"ĠáŀļáŀıáŀĵáŀŁáŀĺ":6829,"ips":6830,"Ġenergy":6831,"oke":6832,"ondon":6833,"Ġprivate":6834,"Ġincludes":6835,"ĠáŁ¢áŁ§áŁł":6836,"Ġmostly":6837,"Ġemperor":6838,"ĠDecember":6839,"Ġacid":6840,"Ġwhereas":6841,"Ġpresence":6842,"olved":6843,"Ġaddress":6844,"Ġpersonal":6845,"ĠPalestine":6846,"Ġmajority":6847,"Ġ1989":6848,"ĠâĨĳ":6849,"Ġshell":6850,"Ġrights":6851,"Ġpractice":6852,"stitution":6853,"áº¡c":6854,"ĠCarSubaru":6855,"Ġsources":6856,"Ġlimited":6857,"Ġreferred":6858,"Ã²a":6859,"Ġlengua":6860,"Ġpolicy":6861,"Ġspleen":6862,"Ġdiseases":6863,"à¸¢à¸²à¹Ħà¸Ļà¸Ķ":6864,"à¹Ħà¸ĭà¸¢à¸²à¹Ħà¸Ļà¸Ķ":6865,".âĢĿ":6866,"By":6867,"French":6868,"Go":6869,"Re":6870,"Sw":6871,"ault":6872,"bidity":6873,"gar":6874,"hib":6875,"iy":6876,"lier":6877,"ply":6878,"Åį":6879,"æľ":6880,"ïĢ":6881,"Ġign":6882,"áŀĵáŀĶáŀĵ":6883,"áŀĦáŀļáŀĦ":6884,"áŀıáŀħáŀļ":6885,"áŀĻáŀĩáŀĵ":6886,"áŀĻáŀĴáŀĵ":6887,"áŀĻáŀĤáŀĦ":6888,"áŀĶáŀļáŀĶáŀĶ":6889,"ĠáŀĵáŀŁ":6890,"áŀ¸áŁģ":6891,"Ġáŀ¢áŀĥ":6892,"áŀĳáŀĺáŀĵ":6893,"áŀĳáŀĻáŀŁáŀħ":6894,"áŀĩáŀł":6895,"áŀłáŀĺáŀĦ":6896,"áŀĴáŀľ":6897,"Ġtour":6898,"Ġtrib":6899,"Ġtakes":6900,"Ġáŀ¯áŀĸáŀĽ":6901,"áŁĬáŁĨ":6902,"anh":6903,"ald":6904,"Ġcreat":6905,"Ġing":6906,"Ġpot":6907,"Ġpain":6908,"Ġpull":6909,"Ġbur":6910,"áŀıáŀĺáŀı":6911,"Ġdark":6912,"Ġdied":6913,"Ġmouth":6914,"ĠCons":6915,"ĠCoupe":6916,"áŁİáŁĴ":6917,"ĠTrans":6918,"aciation":6919,"ĠáŁ¦áŁłáŁłáŁłáŁł":6920,"ĠáŀĸáŀĽáŀļáŀı":6921,"ĠMand":6922,"Ġreach":6923,"Ġnorthern":6924,"ĠBern":6925,"ulations":6926,"ades":6927,"ĠDrying":6928,"áŀĭáŀĢáŀĲ":6929,"Ġconn":6930,"ĠKir":6931,"Ġstory":6932,"Ġ1920":6933,"Ġwithd":6934,"ĠEvilC":6935,"ĠáŁ¡áŁ¦áŁ©":6936,"ĠJust":6937,"ĠáŁ¡áŁ§áŁ©":6938,"ĠOb":6939,"ĠáŁ¢áŁ¥áŁłáŁł":6940,"arden":6941,"alled":6942,"ĠInter":6943,"phon":6944,"ĠáŁ¢áŁ¡áŁ§":6945,"à¸²à¸Ļ":6946,"ĠáŁ¢áŁ£áŁ¢":6947,"ĠáŁ¢áŁ¢áŁ¡":6948,"Ġens":6949,"á»¹":6950,"á»ĳ":6951,"ĠYoung":6952,"Ġprice":6953,"Ġagent":6954,"ĠáŁ¢áŁ¨áŁł":6955,"áŀĽáŀĹáŀĳ":6956,"obile":6957,"Ġblock":6958,"olden":6959,"Ġremained":6960,"Ġexpress":6961,"ĠáŁ¨áŁ¨áŁ©":6962,"ĠConf":6963,"Ġfamil":6964,"Ġadded":6965,"Ġinstead":6966,"Ġleaders":6967,"Ġmaint":6968,"ymph":6969,"Ġtypically":6970,"Ġcontinued":6971,"Ġsmaller":6972,"Ġapproach":6973,"ercus":6974,"ĠGeorg":6975,"Ã´ng":6976,"rolled":6977,"Ġtoxic":6978,"Ġproduces":6979,"Ġreleased":6980,"Ġindependent":6981,"ĠÂĴ)":6982,"Ġmechanical":6983,"ĠGoogle":6984,"Ġchemical":6985,"ussein":6986,"Ġsyndrome":6987,"ikipedia":6988,"File":6989,"GM":6990,"Ge":6991,"US":6992,"aud":6993,"aill":6994,"gress":6995,"iend":6996,"iÃªn":6997,"ps":6998,"rative":6999,"vern":7000,"Ġ{":7001,"Ġir":7002,"áŀŁáŀħáŀĺ":7003,"áŁĦ,":7004,"áŀ¼,":7005,"áŀĤáŀŁáŀħ":7006,"áŀĤáŀ§áŀı":7007,"áŀĬáŀı":7008,"ĠáŀłáŀĢ":7009,"ĠáŀłáŀĤ":7010,"Ġten":7011,"Ġtonal":7012,"Ġtumours":7013,"ano":7014,"Ġsut":7015,"Ġcer":7016,"itude":7017,"áŀĦáŀĢáŀļáŀĩáŀĢ":7018,"Ġáŀ±áŀĬ":7019,"áŀĻáŀĢáŀĺáŀĢ":7020,"Ġfire":7021,"ouch":7022,"oured":7023,"à¸¶":7024,"Ġmot":7025,"áŀĽáŀĦáŀĸ":7026,"Ġtool":7027,"ĠSen":7028,"omin":7029,"aman":7030,"oles":7031,"Ġreign":7032,"Ġnerv":7033,"Ġthick":7034,"áŀļáŀĤáŀłáŀĶáŀı":7035,"urch":7036,"ĠPrab":7037,"ĠDis":7038,"ĠDay":7039,"ĠHussein":7040,"áŀ±áŀĵ":7041,"ĠFrom":7042,"ĠFestival":7043,"odies":7044,"ĠLuang":7045,"ĠKDE":7046,"ĠáŁ¡áŁ¨áŁ©":7047,"Ġvill":7048,"ĠNor":7049,"ĠWashington":7050,"Ġalg":7051,"Ġáŀªáŀĺ":7052,"ĠEvilB":7053,"ĠVB":7054,"ĠVientiane":7055,"....":7056,"appe":7057,"áŀļáŀĲáŀĸ":7058,"ĠáŁ¡áŁ§áŁ¡":7059,"Ġkey":7060,"ously":7061,"Ġincome":7062,"Ġarr":7063,"Ġenough":7064,"eps":7065,"Ġcompil":7066,"Ġinfect":7067,"Ġtrue":7068,"Ġquestion":7069,"Ġjournal":7070,"Ġjackfruit":7071,"ĠáŁ£áŁ¥áŁł":7072,"obal":7073,"ĠáŁ¡áŁ©áŁ£áŁ¦":7074,"ciples":7075,"Ġ1994":7076,"Ġ1999":7077,"Ġbetter":7078,"spec":7079,"ĠáŁ¢áŁ©áŁ§":7080,"khmer":7081,"Ġprograms":7082,"lands":7083,"Ġadditional":7084,"reedom":7085,"Ġmoved":7086,"Ġconcent":7087,"Ġresults":7088,"Ġlargely":7089,"Ġcollection":7090,"ĠWhile":7091,"Ġminor":7092,"Ġdrink":7093,"Ġoriginal":7094,"Ġconstruction":7095,"Ġbehind":7096,"Khmer":7097,"ithmetic":7098,"ĠPrabang":7099,"**":7100,"2000":7101,"Ev":7102,"MS":7103,"aign":7104,"eed":7105,"field":7106,"min":7107,"new":7108,"sing":7109,"uated":7110,"zing":7111,"å®":7112,"áŀ¶áŀ¶":7113,"áŀıáŀŁáŀĦ":7114,"áŀıáŀļáŀŁáŀĢ":7115,"áŁĨáŁģ":7116,"áŀ¾áŁĭ":7117,"áŀħáŀĨ":7118,"áŀħáŀĸáŀĵ":7119,"Ġáŀĩáŀı":7120,"áŀĩáŀĹ":7121,"áŀĩáŀĻáŀĵ":7122,"áŁīáŁĢ":7123,"áŀĹáŀĩ":7124,"áŀļáŀŁáŀĴáŀĺ":7125,"áŀĭáŀľ":7126,"onite":7127,"rel":7128,"anks":7129,"Ġself":7130,"Ġcam":7131,"orial":7132,"áŀŁáŀĺáŀı":7133,"Ġwon":7134,"áŀļáŀĬáŀĳ":7135,"ician":7136,"Ġáŀ§áŀĶáŀĶáŀı":7137,"Ġfruit":7138,"Ġbran":7139,"Ġbone":7140,"Ġdou":7141,"Ġmakes":7142,"ĠCour":7143,"Ġtoday":7144,"Ġlik":7145,"ĠSE":7146,"ĠSha":7147,"áŁ¤áŁł":7148,"Ġha":7149,"acific":7150,"omatic":7151,"ĠMass":7152,"Ġreally":7153,"Ġgross":7154,"Ġgreen":7155,"ĠDharma":7156,"ĠHa":7157,"emat":7158,"áŀĺáŀĳáŀĦ":7159,"ĠGreen":7160,"Ġáŀ¢áŀĶáŀ¢áŀļ":7161,"Ġstun":7162,"Ġanaemia":7163,"ĠáŀĶáŀĭáŀĺáŀĢ":7164,"ĠáŁ¡áŁ§áŁ¢":7165,"ĠOut":7166,"Ġyet":7167,"Ġuses":7168,"Ġkid":7169,"áŀħáŀŁáŀŁ":7170,"áŀĢáŀĹáŀľ":7171,"áŀīáŀĺáŀĢáŀĬáŀĽ":7172,"ĠáŁ¢áŁ£áŁ¥":7173,"ĠáŁ¢áŁ¢áŁ¥":7174,"Ġadop":7175,"ĠáŁ¢áŁ¦áŁł":7176,"ĠáŁ£áŁ¢áŁł":7177,"aily":7178,"Ġquick":7179,"Ġappe":7180,"àº²":7181,"Ġrelative":7182,"ugbear":7183,"Ġrecomm":7184,"Ġ1993":7185,"ierre":7186,"ĠáŁ¤áŁ¥áŁłáŁłáŁł":7187,"Ġscript":7188,"2014":7189,"Ġinstance":7190,"enef":7191,"Ġrare":7192,"Ġ1954":7193,"Ġ25070":7194,"ĠPrince":7195,"Ġtradition":7196,"LISA":7197,"Ġconduct":7198,"Ġcompleted":7199,"Ġanaly":7200,"à¹ĥà¸Ļà¸":7201,"ĠBlack":7202,"enaissance":7203,"Ġofficials":7204,"ĠTwo":7205,"ãĢĤ":7206,"áŀŁáŀļáŀİáŀĴáŀĺ":7207,"ĠCarAudi":7208,"ĠWalrus":7209,"Ġscholars":7210,"ĠTouring":7211,"ozoic":7212,"Columbus":7213,"Ġenvironment":7214,"ategory":7215,"Ġhypothes":7216,"Ġfrequ":7217,"Ġtrachea":7218,"à¸łà¸²à¸©":7219,"ĠFIFA":7220,"ïĢŃ":7221,"62":7222,"CP":7223,"Cl":7224,"MO":7225,"OV":7226,"RA":7227,"TV":7228,"William":7229,"ZA":7230,"eff":7231,"iqu":7232,"ken":7233,"lies":7234,"sch":7235,"tec":7236,"áŁĴáŁĢ":7237,"áŀĢáŀļáŀĺáŀĳ":7238,"áŀ·áŁı":7239,"áŀĶáŀĶáŀļáŀĺ":7240,"áŀħáŀħáŀĢ":7241,"Ġáŀ¢áŀĩáŀĶ":7242,"áŀĸáŀĳáŀĵ":7243,"áŁħáŁĪ":7244,"áŀĹáŀŁáŀī":7245,"ĠáŀĨáŀĺ":7246,"Ġ))":7247,"Ġsens":7248,"esh":7249,"arp":7250,"ora":7251,"áŀŁáŀĺáŀĵ":7252,"Ġpiec":7253,"Ġfish":7254,"eles":7255,"ila":7256,"ĠCur":7257,"Ġlost":7258,"ĠSk":7259,"ĠSum":7260,"ĠSub":7261,"áŁ£áŁ§":7262,"Ġhapp":7263,"ĠAP":7264,"ĠMac":7265,"ocyst":7266,"osqu":7267,"Ġnor":7268,"Ġnirvana":7269,"ĠReg":7270,"ĠBen":7271,"ĠBay":7272,"ĠEX":7273,"ĠPra":7274,"ĠPand":7275,"Ġáŀ§áŀĳáŀĦ":7276,"otypes":7277,"aded":7278,"Ġ!âĢĿ":7279,"ĠDi":7280,"ĠDist":7281,"ĠHou":7282,"ĠHarvard":7283,"owers":7284,"utes":7285,"chin":7286,"odice":7287,"áŀĶáŀļáŀĺáŀĢ":7288,"ĠGram":7289,"ectors":7290,"Ġstop":7291,"Ġ1945":7292,"ĠEvilT":7293,"ending":7294,"ĠáŁ¢áŁ¥áŁ£":7295,"Ġformation":7296,"ĠáŁ¢áŁ¡áŁ¥":7297,"ĠáŁ¡áŁ©áŁ¤áŁ¤":7298,"ĠáŁ¢áŁ£áŁ§":7299,"ĠáŁ¢áŁ¢áŁ¦":7300,"oker":7301,"Ġweek":7302,"ĠáŁ¢áŁ¦áŁ£":7303,"ĠáŁ¢áŁ¦áŁ§":7304,"ĠáŁ¢áŁ¨áŁ©":7305,"ĠáŁ¡áŁ©áŁ¢áŁ¡":7306,"ĠáŁ¡áŁ©áŁ¢áŁ¤":7307,"ĠáŁ¡áŁ©áŁ£áŁ¥":7308,"ĠáŁ¡áŁ©áŁ£áŁ£":7309,"Ġproducts":7310,"azine":7311,"Ġ1998":7312,"Ġremember":7313,"ĠLaw":7314,"ĠáŁ¡áŁ©áŁłáŁ§":7315,"ullivan":7316,"Char":7317,"Ġrespon":7318,"Ġassum":7319,"ycin":7320,"onomic":7321,"Ġinstit":7322,"Ġequality":7323,"Ġdirectly":7324,"Ġcompletely":7325,"ĠWhite":7326,"ihan":7327,"Ġstatus":7328,"Ġgrammar":7329,"Ġargued":7330,"paÃ±":7331,"Ġgeomet":7332,"rophy":7333,"áŀĵáŀĢáŀĻáŀĢáŀĸ":7334,"ĠDemocratic":7335,"Ġadults":7336,"ĠHenry":7337,"Ġsyllable":7338,"Ġsevere":7339,"Ġresistance":7340,"ĠAfrica":7341,"Ġborder":7342,"Ġcontaminated":7343,"ĠInstitute":7344,"Ã©xico":7345,"Ã¬nh":7346,");":7347,",'":7348,"LA":7349,"Mar":7350,"New":7351,"Ro":7352,"cript":7353,"circ":7354,"gy":7355,"sel":7356,"war":7357,"with":7358,"wagen":7359,"å¤":7360,"çļ":7361,"èĢ":7362,"éĥ":7363,"éĦ":7364,"éĻ":7365,"ħn":7366,"áŀĻáŀĥ":7367,"áŀĺáŀ¢áŀī":7368,"áŀĺáŀħáŀĵ":7369,"áŁĩáŁĶ":7370,"áŀľáŀĸáŀŁ":7371,"áŀħáŀ¢áŀŁ":7372,"áŀĸáŀħáŀĺ":7373,"áŀĸáŀ¢áŀŁ":7374,"áŀĩáŀ²":7375,"áŁĦáŁĩáŁĸ":7376,"áŀĲáŀķáŀĦ":7377,"Ġtrav":7378,"Ġáŀ§áŀ¡":7379,"áŀļáŀĳáŀı":7380,"atitis":7381,"Ġsam":7382,"Ġsouthern":7383,"Ġcuis":7384,"áŀļáŀĢáŀĶáŀļáŀĶ":7385,"ĠâĢĳ":7386,"icago":7387,"Ġinsp":7388,"Ġbar":7389,"Ġbric":7390,"asal":7391,"ĠCestodes":7392,"Ġlove":7393,"ĠSL":7394,"ĠSon":7395,"ĠSol":7396,"ĠSullivan":7397,"ĠáŁ¨áŁ©áŁ¢":7398,"acks":7399,"ĠáŀĸáŀĽáŀĲáŀĻ":7400,"ĠAg":7401,"ĠMill":7402,"ĠáŀĵáŀĤáŀļáŀħáŀĺ":7403,"ĠRel":7404,"ĠDew":7405,"ĠHam":7406,"ĠIB":7407,"ĠFilm":7408,"ĠáŁ¢áŁłáŁ©":7409,"emon":7410,"uni":7411,"istot":7412,"áŀīáŀıáŀķáŀĽ":7413,"Ġconqu":7414,"ĠKe":7415,"ĠNa":7416,"Ġalt":7417,"Ġprop":7418,"áŀĺáŀŁáŀĹ":7419,"ĠEvilF":7420,"ĠEvilS":7421,"ĠáŁ¡áŁłáŁłáŁłáŁłáŁł":7422,"rier":7423,"Ġexcept":7424,"ĠáŁ¢áŁ¥áŁ©":7425,"Ġarithmetic":7426,"phal":7427,"ĠáŁ¡áŁ©áŁ¦áŁ¡":7428,"Ġunc":7429,"anguage":7430,"Ġ2001":7431,"ĠáŁ¢áŁ£áŁ¨":7432,"áŀĦáŀ¢áŀĢ":7433,"ĠáŁ¢áŁ¢áŁ¨":7434,"Ġcomposed":7435,"ĠáŁ£áŁ¡áŁ¡":7436,"Ġtruth":7437,"Ġjud":7438,"ĠPhnom":7439,"rosis":7440,"Äģn":7441,"evelopment":7442,"ributed":7443,"Ġnumerous":7444,"ĠáŁ¢áŁ©áŁł":7445,"ĠQueen":7446,"ancer":7447,"áºŃ":7448,"Ġacqu":7449,"Ġsimply":7450,"ycoplas":7451,"ĠáŁ¡áŁ¨áŁ¨áŁ¤":7452,"Ġsupply":7453,"Ġparalysis":7454,"Ġcreation":7455,"Ġcreate":7456,"Ġarchae":7457,"Ġmainly":7458,"Ġideal":7459,"Ġinside":7460,"Ġmarked":7461,"Ġprominent":7462,"ĠGiang":7463,"Ġapproximately":7464,"Ġconflic":7465,"Ġfinanc":7466,"Ġdependent":7467,"ĠAssembly":7468,"Æ¡ng":7469,"Ġtreated":7470,"yanmar":7471,"Ġabsol":7472,"Ġeyes":7473,"Æ°Æ¡ng":7474,"Ġsettlement":7475,"ĠáŀĵáŀĤáŀļáŀłáŀĦ":7476,"ĠNSX":7477,"Ġfundam":7478,"Ġprojects":7479,"ĠCarFord":7480,"ĠBillboard":7481,"Ġphilosophers":7482,"uyá»ħn":7483,"ĠWyvern":7484,"ĠAcademy":7485,"osquito":7486,"áŀħáŀ¢áŀŁáŀŁ":7487,"57":7488,"61":7489,"Ab":7490,"Be":7491,"Comm":7492,"DV":7493,"During":7494,"aff":7495,"bed":7496,"cer":7497,"iations":7498,"lan":7499,"life":7500,"neg":7501,"well":7502,"water":7503,"yal":7504,"zh":7505,"áŀ¶)":7506,"áŀĺáŀŁáŀī":7507,"áŀŁáŀ§áŀı":7508,"ĠáŀĢáŀģ":7509,"áŁģáŁĶ":7510,"ĠáŀģáŀĢáŀģ":7511,"ĠáŀĽáŀĹáŀı":7512,"áŀĴáŀħáŀĢ":7513,"inds":7514,"anish":7515,"Ġáŀ¢áŀŁáŀĢáŀĺ":7516,"Ġcast":7517,"ĠâĢº":7518,"ĠâĢĻ":7519,"áŀĪáŀı":7520,"Ġpage":7521,"Ġperman":7522,"Ġfr":7523,"Ġbreat":7524,"Ġdust":7525,"eline":7526,"Ġmm":7527,"Ġmixed":7528,"Ġmamm":7529,"ĠCrab":7530,"enth":7531,"Ġlab":7532,"ĠSar":7533,"ĠSur":7534,"ĠSim":7535,"ĠSadd":7536,"áŁ£áŁ¦":7537,"ĠTem":7538,"ĠTay":7539,"ĠáŁ¨áŁłáŁłáŁłáŁł":7540,"olk":7541,"ĠMet":7542,"ĠMax":7543,"ĠMekong":7544,"ĠMá»¹":7545,"Ġnasal":7546,"ĠRally":7547,"ĠRenaissance":7548,"ĠBh":7549,"ĠBull":7550,"ido":7551,"igr":7552,"áŀĽáŀĢáŀħ":7553,"Ġgall":7554,"ĠáŀĢáŀĦáŀĻ":7555,"umn":7556,"ĠGre":7557,"ĠGen":7558,"ĠáŁ¡áŁ¨áŁ©áŁ£":7559,"Ġvon":7560,"Ġvent":7561,"Ġvers":7562,"ĠNai":7563,"ĠWild":7564,"Ġstrict":7565,"Ġstreng":7566,"Ġprofess":7567,"ĠáŀªáŀĢ":7568,"Ġcomment":7569,"mente":7570,"ortun":7571,"ichard":7572,"áŀ¥áŀİ":7573,"Ġkings":7574,"áŀĵáŀĸáŀļ":7575,"áŀ§áŀĳáŀļ":7576,"ĠáŁ¡áŁ©áŁłáŁłáŁłáŁł":7577,"ĠáŁ¢áŁ¡áŁ¡":7578,"ĠáŁ¢áŁ¡áŁ¤":7579,"áŀıáŀĺáŀĢáŀĳáŀĽ":7580,"Ã©d":7581,"Ã©p":7582,"Ġ2003":7583,"ĠáŁ¢áŁ¢áŁ¤":7584,"ĠáŁ¢áŁ¢áŁ©":7585,"ieties":7586,"Ġcompar":7587,"ĠáŁ£áŁ¡áŁ§":7588,"à¸ģà¸£":7589,"Ġcenturies":7590,"ĠáŁ¡áŁ©áŁ£áŁ§":7591,"Ġemphas":7592,"Ġemaciation":7593,"Ġ1991":7594,"Ġdefined":7595,"ropol":7596,"Ġdiac":7597,"Ġaction":7598,"Ġdecla":7599,"Ġáŀ¢áŀĺáŀıáŀĴáŀĺ":7600,"Ġworking":7601,"ĠespaÃ±":7602,"ĠSpec":7603,"ĠNews":7604,"Ġbrother":7605,"rateg":7606,"ĠRoot":7607,"Ġordered":7608,"Ġavoid":7609,"Ġcorres":7610,"Ġcorrect":7611,"Ġdrug":7612,"Ġfinally":7613,"Ġfactors":7614,"áº¡i":7615,"Ġliterary":7616,"Ġviral":7617,"Ġkingdoms":7618,"Ġbecoming":7619,"Ġindustry":7620,"Ġprinciple":7621,"Ġengine":7622,"Ġrelationship":7623,"áŀĶáŀĭáŀĺ":7624,"Ġcolonial":7625,"ĠRomeo":7626,"Ġhourglass":7627,"Ġlaunched":7628,"ĠTerrant":7629,"çļĦ":7630,"(\"":7631,"*</":7632,"Em":7633,"Most":7634,"SR":7635,"UC":7636,"ground":7637,"ios":7638,"iques":7639,"kok":7640,"lim":7641,"ria":7642,"rates":7643,"uff":7644,"under":7645,"ville":7646,"ye":7647,"yo":7648,"yun":7649,"å¾":7650,"ĠáŁģáŁĩ":7651,"Ġiron":7652,"áŁĴáŁĭ":7653,"áŀŁáŀļáŀĢ":7654,"áŁĭáŁĪ":7655,"Ġáŀļáŀħ":7656,"áŀīáŀĲ":7657,"ĠáŀłáŀĿ":7658,"áŁī,":7659,"áŀ¡áŀĶ":7660,"Ġ)\"":7661,"ining":7662,"erced":7663,"Ġáŀ¬áŀĢ":7664,"isp":7665,"Ġsong":7666,"Ġsites":7667,"Ġcover":7668,"Ġwr":7669,"Ġwestern":7670,"Ġ-]":7671,"icercus":7672,"Ġpsych":7673,"Ġfowl":7674,"Ġbase":7675,"áŀļáŀħáŀĦáŀĢ":7676,"Ġmaster":7677,"ĠCamp":7678,"ĠCath":7679,"Ġtown":7680,"Ġlink":7681,"Ġ150":7682,"eva":7683,"aches":7684,"ĠMor":7685,"ĠMaster":7686,"Ġreference":7687,"ĠRFI":7688,"ĠEst":7689,"ĠESET":7690,"ully":7691,"ĠPit":7692,"ĠPet":7693,"irav":7694,"imum":7695,"ĠáŀĬáŀĦáŀŁ":7696,"iva":7697,"agic":7698,"ĠáŀĢáŀĦáŀĴáŀĺ":7699,"unan":7700,"ĠGaul":7701,"ĠLin":7702,"ĠLondon":7703,"áŀıáŀĦáŀĦáŀĽ":7704,"Ġvoid":7705,"ĠNag":7706,"ecting":7707,"avas":7708,"iab":7709,"Ġwhy":7710,"overy":7711,"áŀĻáŀĸáŀļ":7712,"antes":7713,"Ġdeg":7714,"Ġdeal":7715,"ĠVersion":7716,"rike":7717,"Ġhere":7718,"ĠOper":7719,"ĠOcean":7720,"ĠáŁ¢áŁ¥áŁ¤":7721,"ights":7722,"ĠInc":7723,"ework":7724,"Ġworms":7725,"áŀħáŀħáŀļáŀħ":7726,"Ġseek":7727,"earch":7728,"ĠáŁ¢áŁ£áŁ©":7729,"heng":7730,"action":7731,"Ġimmed":7732,"Ġplaced":7733,"exts":7734,"Ġagreed":7735,"ĠáŁ¢áŁ¨áŁ¥":7736,"Ġdesp":7737,"Ġ95":7738,"à¸£à¸¡":7739,"Ġevidence":7740,"ĠXion":7741,"àº§":7742,"Ġempt":7743,"attles":7744,"ĠáŁ¡áŁ©áŁ¡áŁ¨":7745,"Ã¡s":7746,"áº¿":7747,"Ġdiagnosis":7748,"Ġ060":7749,"ĠáŁ¢áŁ©áŁ¤":7750,"Ġmanure":7751,"Ġmanufact":7752,"ĠáŁ¡áŁ¨áŁ¨áŁ¥":7753,"Ġreduc":7754,"oxin":7755,"Ġcoli":7756,"etting":7757,"ĠÃī":7758,"ographic":7759,"ĠáŁ©áŁ¦áŁ¨":7760,"Ġhelpful":7761,"Ġdescript":7762,"rison":7763,"Ġparticularly":7764,"Ġplanets":7765,"ĠMusic":7766,"Ġcritic":7767,"à¸·à¹Ī":7768,"Ġeasily":7769,"Ġstarted":7770,"ĠSociety":7771,"ĠáŀĲáŀĺáŀĲáŀĻ":7772,"Ġ!!!":7773,"Ġpurpose":7774,"ĠáŀŁáŀļáŀĳáŀı":7775,"Ġweakness":7776,"Ġmeasure":7777,"Ġmemory":7778,"Ġresponsible":7779,"ĠCompany":7780,"ĠPhilipp":7781,"Ġgreater":7782,"æ²³":7783,"ĠAssociation":7784,"Ġresponse":7785,"ihanouk":7786,"Ġ06020":7787,".),":7788,"BE":7789,"DA":7790,"DC":7791,"Jack":7792,"One":7793,"Pr":7794,"SS":7795,"When":7796,"iÃ¨re":7797,"pret":7798,"set":7799,"section":7800,"ties":7801,"uh":7802,"ui":7803,"za":7804,"Î±":7805,"ä¾":7806,"çĶ":7807,"áŀļáŀ§áŀĳ":7808,"áŀĵáŀĲ":7809,"áŀĦáŀļáŀĶáŀļ":7810,"áŀĢáŀ¢áŀŁ":7811,"áŀĽáŀĶáŀı":7812,"Ġáŀĳáŀ¡":7813,"áŀĸáŀħáŀĽ":7814,"áŀīáŀĻ":7815,"áŀĩáŀĺáŀĢ":7816,"ĠáŀłáŀĽ":7817,"áŀļáŀĢáŀī":7818,"áŁĮáŁģ":7819,"Ġtel":7820,"Ġaward":7821,"ĠáŀĺáŀĢáŀĳáŀĽ":7822,"head":7823,"Ġáŀ¯áŀģ":7824,"rete":7825,"Ġop":7826,"Ġáŀ¯áŀĦáŀł":7827,"Ġáŀ¢áŀŁáŀĢ":7828,"áŀľáŀĶáŀĳ":7829,"áŀļáŀıáŀĻ":7830,"Ġwide":7831,"Ġways":7832,"Ġwife":7833,"ĠáŁ¤áŁ¥áŁł":7834,"icit":7835,"Ġpup":7836,"Ġfat":7837,"Ġfran":7838,"Ġfail":7839,"Ġburs":7840,"Ġbuddha":7841,"áŀĺáŀıáŀİ":7842,"ented":7843,"ĠSi":7844,"ĠSpe":7845,"ĠSaint":7846,"áŀľáŀĢáŀļáŀİ":7847,"ĠTon":7848,"Ġhor":7849,"acity":7850,"eti":7851,"ĠáŀŁáŀłáŀĢáŀĺ":7852,"ĠáŀŁáŀłáŀĢáŀļáŀİ":7853,"áŀļáŀĤáŀĦ":7854,"ĠPHP":7855,"otus":7856,"ĠáŀĳáŀŁáŀĢ":7857,"Ġgar":7858,"aging":7859,"ĠHill":7860,"áŀ±áŀļ":7861,"áŀ±áŀļáŀŁ":7862,"ĠFed":7863,"ĠFore":7864,"ĠáŁ¢áŁłáŁ£":7865,"ĠGran":7866,"ĠGree":7867,"ĠLand":7868,"Ġver":7869,"Ġstored":7870,"udh":7871,"apa":7872,"ĠOl":7873,"elled":7874,"ĠáŁ¢áŁ¥áŁ§":7875,"allow":7876,"áŀļáŀģáŀı":7877,"Ġcontains":7878,"ĠáŁ£áŁłáŁ¤":7879,"Ġdisp":7880,"Ġdiscipl":7881,"ounds":7882,"kswagen":7883,"ipal":7884,"Ġconscious":7885,"Ġcompared":7886,"ĠUnit":7887,"ĠáŁ¢áŁ¨áŁ§":7888,"áŀĽáŀĺáŀĻ":7889,"Ġ85":7890,"ansion":7891,"Ġquite":7892,"Inc":7893,"à¸£à¸²à¸":7894,"encia":7895,"àº°":7896,"Ġ1992":7897,"Ġearlier":7898,"Ġoccurred":7899,"arman":7900,"áº§":7901,"rupt":7902,"ĠáŁ¢áŁ©áŁ¡":7903,"ĠáŁ¢áŁ©áŁ£":7904,"Ġsecret":7905,"áŀŁáŀłáŀĤáŀĺáŀĵ":7906,"airs":7907,"Ġinfluential":7908,"Ġinfluenced":7909,"Ġ1939":7910,"ĠáŁ¡áŁ¨áŁ¥áŁ©":7911,"Ġresulting":7912,"ĠOrgan":7913,"ĠáŁ¡áŁ¥áŁ¦áŁ©":7914,"ĠCambodians":7915,"Ġlonger":7916,"arvest":7917,"Ġconsumer":7918,"ĠTurbo":7919,"Ġphysical":7920,"Ġprimarily":7921,"Ġchanged":7922,"Ġlibrary":7923,"Ġlogic":7924,"ĠChampions":7925,"Ġcommander":7926,"ĠSocial":7927,"unny":7928,"gnu":7929,"Ġteachings":7930,"Ġemerg":7931,"Ġutil":7932,"ĠHTML":7933,"Ġdefeated":7934,"Ġfungi":7935,"ĠMountains":7936,"BMW":7937,"Ġscientific":7938,"Ġrodents":7939,"Ġfemale":7940,"Ġoedema":7941,"Ġquickly":7942,"Ġhypothesis":7943,"chinococc":7944,"Ġgeometric":7945,"éĦļ":7946,"ycoplasma":7947,"ercedes":7948,"%),":7949,">*</":7950,"Ed":7951,"FC":7952,"German":7953,"LT":7954,"Per":7955,"PRE":7956,"hab":7957,"liam":7958,"nce":7959,"rial":7960,"Ã¯":7961,"æĸ":7962,"áŀĢáŀĶáŀĳ":7963,"áŀĽáŀĴ":7964,"áŀŁáŀĥ":7965,"áŀŁáŀļáŀľ":7966,"áŀĶáŀĥ":7967,"ĠáŀĶáŀĻ":7968,"ĠáŀĢáŀĦáŀĢ":7969,"ĠáŁĪ":7970,"áŀľáŀļáŀĢ":7971,"áŀĸáŀŁáŀĦ":7972,"áŀĴáŀĶáŀİ":7973,"áŀĦáŀ¡áŀĦ":7974,"áŀļáŀĢáŀĽ":7975,"ĠáŀĨáŀľ":7976,"ĠáŀĨáŀĳ":7977,"Ġtrop":7978,"Ġtrem":7979,"Ġ);":7980,"Ġáŀ¯áŀĴáŀĺ":7981,"Ġáŀ¯áŀĢáŀĤ":7982,"rest":7983,"Ġsought":7984,"Ġcop":7985,"itro":7986,"áŀļáŀıáŀĹ":7987,"Ġwalk":7988,"icial":7989,"Ġáŀ§áŀĶáŀĹ":7990,"Ġpig":7991,"Ġbill":7992,"Ġbound":7993,"áŀĶáŀĳáŀĵ":7994,"à¸Ĳ":7995,"asia":7996,"asons":7997,"áŁ¥áŁłáŁł":7998,"áŀļáŀľáŀħ":7999,"Ġlam":8000,"áŁ£áŁ£":8001,"ĠTig":8002,"ĠTimes":8003,"Ġholds":8004,"áŀĢáŀŁáŀļ":8005,"áŀĤáŀĺáŀĤ":8006,"ĠArab":8007,"ĠMy":8008,"ĠMic":8009,"Ġnut":8010,"Ġáŀ¢áŀĢáŀıáŀī":8011,"ĠPrem":8012,"ira":8013,"Ġeight":8014,"ĠHay":8015,"ĠHÃ²a":8016,"ĠIl":8017,"ĠGovernment":8018,"ĠLos":8019,"ĠLeg":8020,"Ġasc":8021,"ĠáŁ¡áŁ¥áŁ¡áŁ¢":8022,"ĠKar":8023,"ĠKnight":8024,"ĠNautiloid":8025,"ĠWu":8026,"Ġstated":8027,"Ġ1940":8028,"Ġalone":8029,"ucci":8030,"ĠVal":8031,"ĠVaj":8032,"ĠáŁ¡áŁłáŁłáŁ¢":8033,"apt":8034,"ĠChi":8035,"ĠChicago":8036,"ĠáŁ¢áŁ¥áŁ¡":8037,"Ġcontrolled":8038,"ffled":8039,"ibly":8040,"ĠáŁ¢áŁ¡áŁ©":8041,"Ġseason":8042,"ĠáŁ¢áŁ£áŁ¡":8043,"ĠáŁ¢áŁ¢áŁ¢":8044,"ĠáŁ¢áŁ¢áŁ£":8045,"luded":8046,"ĠáŁ¡áŁ©áŁ¨áŁ£":8047,"Ġweather":8048,"áŀŃáŀĢáŀļ":8049,"ramework":8050,"ension":8051,"ĠáŁ¢áŁ¦áŁ¡":8052,"ĠáŁ£áŁ¡áŁ¥":8053,"Ġinfections":8054,"ĠáŁ¢áŁ§áŁ¥":8055,"ĠáŁ£áŁ¢áŁ¡":8056,"áŀĽáŀĺáŀļáŀİ":8057,"Ġcenter":8058,"Ġapplied":8059,"ĠPhan":8060,"Ġprem":8061,"Ġprefer":8062,"anning":8063,"ugg":8064,"Ġrecently":8065,"Ġattend":8066,"Ġblue":8067,"Ġblack":8068,"Ġwatery":8069,"ĠáŁ¡áŁ¨áŁ¦áŁ¦":8070,"Ġremain":8071,"ĠSodaC":8072,"à¸Ļà¸ķ":8073,"2016":8074,"Ġestim":8075,"ĠáŁ¨áŁ§áŁ¨":8076,"ĠáŁ¡áŁ¥áŁ¢áŁ¥":8077,"Ġteam":8078,"ĠPlay":8079,"Ġdiscuss":8080,"Ġartists":8081,"Ġethn":8082,"Ġpossess":8083,"Ġcombination":8084,"Ġcombined":8085,"ĠEnter":8086,"ICA":8087,"Ġgreatest":8088,"Ġelections":8089,"Ġtests":8090,"Ġeconomy":8091,"ridge":8092,"ĠáŁ¡áŁ¡áŁ§áŁ§":8093,"Ġtoxin":8094,"Ġrelease":8095,"Ġrebellion":8096,"ĠPenh":8097,"Ġuniversal":8098,"Ġsyllables":8099,"Ġmonths":8100,"Ġbecomes":8101,"ä»Ļ":8102,"Ġpronounced":8103,"Cambodia":8104,"Ġincreasingly":8105,"Nguyá»ħn":8106,"Ġdoctrine":8107,"Ġfluid":8108,"ĠSaddam":8109,"Ġdiacrit":8110,"Ġdeclared":8111,"liament":8112,"-%":8113,"Cons":8114,"Def":8115,"Long":8116,"MA":8117,"RO":8118,"bre":8119,"fi":8120,"gr":8121,"ht":8122,"ients":8123,"mat":8124,"pond":8125,"ror":8126,"sung":8127,"var":8128,"zard":8129,"ä¹":8130,"áŀļáŀ£":8131,"áŀıáŀĬ":8132,"áŀ·áŁĸ":8133,"áŀĽáŀĻáŀĶ":8134,"ĠáŀŁáŀŁáŀĦ":8135,"áŀľáŀļáŀĳ":8136,"áŀĤáŀĢáŀĺ":8137,"ĠáŀļáŀŃáŀĢáŀļ":8138,"áŀĬáŀĬ":8139,"áŀ¢áŀİ":8140,"áŀĵáŀĢáŀĭ":8141,"Ġ(;":8142,"Ġtreat":8143,"Ġtiss":8144,"Ġtaking":8145,"Ġáŀ¯áŀ¢áŀĶ":8146,"reet":8147,"áŀļáŀłáŀĶ":8148,"Ġox":8149,"Ġopt":8150,"Ġáŀ¢áŀĵáŀ¡":8151,"isions":8152,"alse":8153,"Ġwattles":8154,"ĠáŁ¥áŁ¥áŁł":8155,"Ġfa":8156,"Ġfully":8157,"Ġbenef":8158,"áŀļáŀħáŀı":8159,"áŀļáŀħáŀĽ":8160,"roid":8161,"ĠCao":8162,"enty":8163,"Ġlack":8164,"ĠSl":8165,"Ġ101":8166,"Ġ110":8167,"ĠTroll":8168,"Ġhom":8169,"ĠáŁ¨áŁ¥áŁł":8170,"omo":8171,"amy":8172,"áŀĢáŀĽáŀħáŀļ":8173,"ĠáŀĸáŀĽáŀī":8174,"olith":8175,"ĠáŀļáŀłáŀŁ":8176,"ĠMi":8177,"ĠMot":8178,"ĠMedia":8179,"Ġnom":8180,"Ġnormal":8181,"lege":8182,"ĠBor":8183,"ĠBas":8184,"ulate":8185,"ĠPo":8186,"ĠPacific":8187,"ĠâĢ¦âĢ¦":8188,"iring":8189,"ĠDong":8190,"ĠHar":8191,"ĠHung":8192,"ĠFair":8193,"áŀŁáŀĢáŀĩáŀĵ":8194,"Ġasked":8195,"ĠNow":8196,"anga":8197,"ĠWil":8198,"ĠWang":8199,"Ġstar":8200,"Ġaltern":8201,"udget":8202,"áŀŁáŀĳáŀİ":8203,"Ġwhom":8204,"ĠáŁ¡áŁ¡áŁ¡áŁ£":8205,"ĠEvolution":8206,"abs":8207,"ĠVI":8208,"ĠVol":8209,"eget":8210,"apew":8211,"ĠCarBMW":8212,"Ġ36":8213,"riz":8214,"ourse":8215,"Ġyellow":8216,"ĠáŁ¢áŁ¥áŁ¨":8217,"ĠáŁ¢áŁ¤áŁ¢":8218,"Ġarm":8219,"Ġdisappe":8220,"áŀŁáŀĲáŀĢáŀĺ":8221,"Ġsex":8222,"oyle":8223,"ieu":8224,"Ġshift":8225,"Ġsym":8226,"uddh":8227,"ternet":8228,"ĠáŁ¢áŁ¦áŁ¦":8229,"Ġagents":8230,"ĠáŁ£áŁ¡áŁ£":8231,"ĠáŁ¢áŁ¨áŁ¨":8232,"ĠáŁ¢áŁ¨áŁ¦":8233,"ĠáŁ¢áŁ§áŁ¨":8234,"ĠAnt":8235,"Ġmeeting":8236,"ĠáŁ¡áŁ©áŁ¢áŁ¦":8237,"Ġroyal":8238,"anner":8239,"Ġrelatively":8240,"ĠArt":8241,"ĠáŁ¡áŁ¨áŁ¦áŁł":8242,"Ġearli":8243,"à¹Ģà¸Ĥ":8244,"comm":8245,"ĠSodaD":8246,"ĠáŁ¢áŁ©áŁ©":8247,"Ġcolor":8248,"ĠConference":8249,"ictor":8250,"ĠRoad":8251,"ĠTrump":8252,"à¸«à¸¥":8253,"hamm":8254,"Ġslow":8255,"ĠáŁ¡áŁ¤áŁ£áŁ¡":8256,"à¹ĥà¸«":8257,"Armenia":8258,"ĠElect":8259,"Ġolder":8260,"Ġprotected":8261,"Ġdomest":8262,"ĠPoland":8263,"Ġphysiology":8264,"Ġdepending":8265,"ĠáŁ¡áŁ¤áŁ¥áŁ¢":8266,"Ġadministration":8267,"Ġadministrative":8268,"Ġbroiler":8269,"Ġmachines":8270,"áŀıáŀļáŀŁáŀľáŀĤ":8271,"Ġdialect":8272,"Ġencour":8273,"Ġintestinal":8274,"Ġcheck":8275,"ĠBangkok":8276,"Ġmountain":8277,"odhis":8278,"ĠIMPRE":8279,"Ġnovelist":8280,"ĠOlympic":8281,"Ġintroduced":8282,"Ġhatchability":8283,"eletal":8284,"Ġremoved":8285,"Ġdestroyed":8286,"Ġappointed":8287,"anchester":8288,"Volkswagen":8289,"Ġbusiness":8290,"negative":8291,"ĠXiongnu":8292,"Ġearliest":8293,"ĠIMPREZA":8294,"%.":8295,"Cont":8296,"DAP":8297,"EG":8298,"FD":8299,"ID":8300,"Kiernan":8301,"ND":8302,"gers":8303,"hav":8304,"iately":8305,"mark":8306,"pir":8307,"rate":8308,"time":8309,"uros":8310,"Äĵ":8311,"à¦":8312,"Ġà¤":8313,"áŀĦáŀĶáŀĵ":8314,"áŀıáŀĻáŀĢ":8315,"áŀ»)":8316,"áŀ»áŁĶ":8317,"áŀŁáŀĻáŀĬ":8318,"áŀŁáŀłáŀŁ":8319,"áŀľáŀ¡":8320,"áŀĸáŀ¢áŀı":8321,"áŀĤáŀĲ":8322,"Ġáŀľáŀĳáŀĺ":8323,"ĠáŀĻáŀĺáŀĢ":8324,"áŀĹáŀķ":8325,"áŀĲáŀļ":8326,"áŀĲáŀŁ":8327,"áŁįáŁĪ":8328,"Ġast":8329,"ĠáŀİáŀĦ":8330,"herent":8331,"áŀļáŀĺáŀĽ":8332,"áŀļáŀĳáŀĦ":8333,"áŀĥáŀĵ":8334,"enes":8335,"atives":8336,"Ġsov":8337,"Ġseg":8338,"Ġswe":8339,"Ġcart":8340,"Ġcool":8341,"Ġcitiz":8342,"itic":8343,"itors":8344,"áŀĨáŀĩ":8345,"oral":8346,"Ġwest":8347,"iced":8348,"Ġfigure":8349,"Ġfriend":8350,"Ġbin":8351,"Ġburn":8352,"Ġbulk":8353,"Ġmicroscop":8354,"Ġlymph":8355,"ĠSing":8356,"ĠTu":8357,"ĠTreaty":8358,"ĠMS":8359,"ĠManchester":8360,"Ġreform":8361,"ĠáŀŁáŀłáŀŁáŀĺ":8362,"Ġnob":8363,"ĠELISA":8364,"oto":8365,"otal":8366,"ĠDevelopment":8367,"ĠHy":8368,"ĠIrak":8369,"ĠFound":8370,"ĠLight":8371,"ĠNi":8372,"Ġstories":8373,"open":8374,"Ġ1930":8375,"Ġprote":8376,"iful":8377,"ĠáŁ¡áŁ¤áŁłáŁłáŁłáŁł":8378,"ĠVitamin":8379,"ĠáŁ¢áŁłáŁ¡áŁ©":8380,"áŀļáŀĲáŀĻáŀħ":8381,"rix":8382,"Ġexact":8383,"Ġexternal":8384,"ĠOld":8385,"Ġsup":8386,"Ġchief":8387,"rence":8388,"Ġ/><":8389,"ĠáŁ¢áŁ¤áŁ¡":8390,"Ġdispl":8391,"ultural":8392,"ĠáŁ¢áŁ¡áŁ¢":8393,"ĠáŁ¢áŁ¡áŁ£":8394,"Ġshows":8395,"ĠFrancis":8396,"ĠáŁ¢áŁ¦áŁ¢":8397,"ĠáŁ¢áŁ¦áŁ¨":8398,"ĠáŁ£áŁ¡áŁ¤":8399,"ĠáŁ£áŁ¡áŁ¨":8400,"ĠáŁ¢áŁ¨áŁ¢":8401,"ĠáŁ¢áŁ¨áŁ£":8402,"ĠáŁ¢áŁ§áŁ¡":8403,"ĠáŁ¢áŁ§áŁ£":8404,"ĠáŁ¢áŁ§áŁ¦":8405,"Ġparties":8406,"Ġflag":8407,"à¹Ģà¸£":8408,"Ġevident":8409,"ĠáŁ¡áŁ©áŁ¢áŁ©":8410,"Ġregist":8411,"Ġproduct":8412,"Ġ1995":8413,"ĠáŁ¡áŁ©áŁ¡áŁ¥":8414,"Ġworldwide":8415,"Ġremaining":8416,"Ġinterpret":8417,"Ġactual":8418,"Ġneigh":8419,"ĠProgram":8420,"ĠáŁ¢áŁ©áŁ¨":8421,"Ġfounded":8422,"Ġdistribution":8423,"Ġworked":8424,"Ġscale":8425,"Ġmanagement":8426,"Ġcoast":8427,"Ġstudies":8428,"Ġextended":8429,"Ġbelief":8430,"à¸ķà¸£":8431,"Ġcommunication":8432,"Ġserious":8433,"Ġgrowing":8434,"Ġcarried":8435,"ĠPrime":8436,"Ġlegisl":8437,"Ġnecrosis":8438,"ĠWhat":8439,"Ġtemperatures":8440,"Ġdomin":8441,"Ġbacterial":8442,"Ġswollen":8443,"ĠBritain":8444,"Ġreligion":8445,"à¸¹à¹Ī":8446,"Ġplayed":8447,"ĠMinistry":8448,"Ġenlightenment":8449,"ĠSalmon":8450,"ORD":8451,"Ġpathogenic":8452,"Ġruffled":8453,"Ġmorbidity":8454,"ĠSecond":8455,"Ġsynt":8456,"Ġindependence":8457,"Ġeye":8458,"Ġmultiple":8459,"ĠThomas":8460,"ĠThomson":8461,"iotics":8462,"ĠáŁ¢áŁłáŁ§áŁ¤":8463,"ĠAfrican":8464,"Ġindicate":8465,"Ġnegot":8466,"aught":8467,"roadwing":8468,"Ġpreviously":8469,"Ġfighting":8470,"Ġsinus":8471,"à¥į":8472,"unosupp":8473,"à¹ģà¸¥à¸°":8474,"osquitoes":8475,"ĠTaylor":8476,"ĠVajirav":8477,".-":8478,"53":8479,"58":8480,"Europe":8481,"He":8482,"Hen":8483,"LV":8484,"Man":8485,"Many":8486,"No":8487,"RI":8488,"ST":8489,"To":8490,"iated":8491,"mit":8492,"mese":8493,"rish":8494,"word":8495,"yond":8496,"ËĲ":8497,"Ġ}":8498,"áŁĴáŀ¶":8499,"áŀĵáŀļáŀĢ":8500,"áŀĵáŀĻáŀĶ":8501,"áŀĻáŀŁáŀĵ":8502,"áŀĺáŀĽáŀĢ":8503,"áŀħáŀĻáŀŁ":8504,"áŀĳáŀĢáŀı":8505,"Ġáŀĩáŀł":8506,"Ġáŀħáŀī":8507,"áŀĤáŀĻ":8508,"áŁħáŁĴ":8509,"ĠáŀģáŀĢ":8510,"áŀģáŀĻ":8511,"áŀĹáŀĻ":8512,"áŀĵáŀĢáŀıáŀŁ":8513,"ĠáŀĨáŀĬ":8514,"Ġtitle":8515,"Ġaver":8516,"ĠáŀĺáŀĢáŀĬáŀİ":8517,"hell":8518,"Ġáŀ¯áŀıáŀĺáŀı":8519,"áŀĤáŀĽáŀĶ":8520,"onia":8521,"onts":8522,"áŀļáŀİáŀī":8523,"rey":8524,"Ġ])":8525,"enium":8526,"Ġocean":8527,"arc":8528,"alian":8529,"Ġcaec":8530,"itte":8531,"áŀļáŀĻáŀı":8532,"ĠâĢ¹":8533,"ĠáŀīáŀĢ":8534,"icate":8535,"Ġáŀ§áŀĶáŀľ":8536,"Ġpen":8537,"Ġpap":8538,"Ġperm":8539,"Ġpoll":8540,"iones":8541,"Ġmale":8542,"ĠCong":8543,"ĠCount":8544,"Ġlear":8545,"ĠST":8546,"ĠSihanouk":8547,"Ġhon":8548,"Ġhyd":8549,"omy":8550,"omon":8551,"oment":8552,"ĠAlex":8553,"Ġ[-":8554,"olas":8555,"olid":8556,"ĠMyanmar":8557,"áŀĸáŀĦáŀĦ":8558,"Ġnetwork":8559,"Ġthin":8560,"ĠBac":8561,"ĠBae":8562,"ĠBien":8563,"ĠBrah":8564,"ĠEchinococc":8565,"áŀģáŀİáŀī":8566,"ulose":8567,"ĠPeter":8568,"ima":8569,"imited":8570,"áŀĢáŀħáŀĦ":8571,"Ġgran":8572,"Ġeast":8573,"ĠDV":8574,"ĠDien":8575,"ĠImp":8576,"ĠFive":8577,"ĠFunan":8578,"charge":8579,"áŀ§áŀħ":8580,"áŀ§áŀĶáŀŁ":8581,"unich":8582,"stant":8583,"ĠGa":8584,"Ġcong":8585,"ĠLu":8586,"ĠLib":8587,"ĠLancer":8588,"Ġbeg":8589,"Ġbeyond":8590,"ĠáŁ¡áŁ¨áŁ©áŁł":8591,"tered":8592,"ĠáŁ¡áŁ¢áŁłáŁł":8593,"ĠWill":8594,"Ġ1925":8595,"ifest":8596,"ĠáŀĺáŀļáŀİáŀŁáŀī":8597,"Ġdead":8598,"ĠVers":8599,"ĠJo":8600,"ighter":8601,"ĠCarVolkswagen":8602,"Ġ33":8603,"Ġexamples":8604,"ellect":8605,"ĠáŁ¢áŁ¥áŁ¢":8606,"áŀħáŀŁáŀłáŀĢ":8607,"ĠáŁ¢áŁ¤áŁ©":8608,"Ġartic":8609,"ernal":8610,"Ġ400":8611,"áŀĲáŀĶáŀĳáŀħáŀĺ":8612,"ĠáŁ¡áŁ©áŁłáŁł":8613,"à¸²à¸Ĺ":8614,"ĠStart":8615,"henomen":8616,"Ġimperial":8617,"Ġclip":8618,"Ġplants":8619,"ĠYu":8620,"Ġcompos":8621,"Ġabol":8622,"ĠAnna":8623,"ĠItaly":8624,"encies":8625,"Ġprec":8626,"ĠXuan":8627,"Ġroot":8628,"Ġregime":8629,"Ġoccasion":8630,"Ġ1996":8631,"Ġtransc":8632,"ĠáŁ¡áŁ©áŁ¡áŁ¡":8633,"ĠáŁ¡áŁ©áŁłáŁ£":8634,"ruits":8635,"Ġactions":8636,"ĠáŁ¢áŁ©áŁ¥":8637,"ĠáŁ¢áŁ©áŁ¦":8638,"Ġcook":8639,"ĠConcept":8640,"Ġhumidity":8641,"ĠáŁ©áŁ¤áŁ¤":8642,"Ġeffects":8643,"Ġmuseum":8644,"ĠáŁ¡áŁ¨áŁ¤áŁł":8645,"Ġmetaph":8646,"Ġrefuge":8647,"ĠClass":8648,"Ġexistence":8649,"ĠáŁ¢áŁłáŁ¦áŁł":8650,"Ġstatement":8651,"flat":8652,"Ġsalt":8653,"Ġproperties":8654,"Ġobjects":8655,"espucci":8656,"Æ°á»":8657,"ĠBurma":8658,"ĠSiamese":8659,"ĠNSDAP":8660,"áŀļáŀ¯áŀĢáŀĹ":8661,"Ġterritory":8662,"ĠModel":8663,"à¸Ĥà¸Ńà¸ĩ":8664,";\"><":8665,"Ġbreak":8666,"ĠCysticercus":8667,"ĠáŀĶáŀĢáŀıáŀı":8668,"Ġdigital":8669,"Ġagreement":8670,"ĠÂĳ(":8671,"Ġnuclear":8672,"ĠAshwatthama":8673,"Ġwithdraw":8674,"ailles":8675,"Ġbranch":8676,"àº²àº":8677,"Ġfrequently":8678,"ocysts":8679,"circulating":8680,"Ġcuisine":8681,"ropolitan":8682,"æ²³ä»Ļ":8683,"ĠGreek":8684,"odhisatt":8685,"ĠVajiravudh":8686,"59":8687,"BA":8688,"Benz":8689,"EU":8690,"Lesions":8691,"Now":8692,"OT":8693,"Sub":8694,"bit":8695,"eur":8696,"fa":8697,"hr":8698,"ieng":8699,"iya":8700,"kg":8701,"mond":8702,"mann":8703,"no":8704,"nov":8705,"win":8706,"worth":8707,"wiki":8708,"Ã¹":8709,"Ġic":8710,"ĠÃ©":8711,"Ġà¸¡":8712,"áŀļáŀļáŀĬ":8713,"áŀĽáŀĲ":8714,"áŀĺáŀĭ":8715,"áŀĶáŀĢáŀĶ":8716,"ĠáŀĸáŀĶ":8717,"áŀľáŀģ":8718,"áŀľáŀĵáŀĢ":8719,"áŀħáŀ®":8720,"áŀĳáŀĹ":8721,"áŀĸáŀĺ":8722,"ĠáŀļáŀĶáŀı":8723,"áŀģáŀļáŀĢáŀĺ":8724,"áŀłáŀ¡":8725,"áŀ¢áŀĸ":8726,"áŀ¡áŀŁ":8727,"áŀĹáŀĤáŀľ":8728,"áŀļáŀŁáŀĺáŀİ":8729,"áŀļáŀĶáŀļáŀĶ":8730,"Ġtra":8731,"Ġtexts":8732,"Ġaim":8733,"Ġáŀ§áŀĢáŀĺ":8734,"áŀŁáŀĵáŀĴáŀĺ":8735,"anth":8736,"isdom":8737,"Ġ\"[[":8738,"Ġscience":8739,"Ġcm":8740,"Ġcodice":8741,"Ġáŀ±áŀĵáŀĹ":8742,"Ġwind":8743,"Ġinternal":8744,"Ġinscript":8745,"Ġpay":8746,"Ġpill":8747,"Ġbr":8748,"elle":8749,"à¸ľ":8750,"Ġmag":8751,"Ġmiss":8752,"rotic":8753,"ĠCP":8754,"ĠCEN":8755,"Ġlived":8756,"ĠáŀķáŀĽáŀħ":8757,"ĠáŁ¨áŁłáŁłáŁł":8758,"aciÃ³n":8759,"omination":8760,"ĠAH":8761,"ĠAR":8762,"ĠMex":8763,"ĠMÃ©xico":8764,"Ġreve":8765,"osph":8766,"Ġáŀ®áŀı":8767,"ĠBugbear":8768,"igg":8769,"igm":8770,"irs":8771,"áŀĻáŀĶáŀļáŀĺ":8772,"ador":8773,"ados":8774,"Ġgirl":8775,"ĠHot":8776,"áŀ±áŀĢ":8777,"ĠIP":8778,"ĠFre":8779,"ĠFried":8780,"áŀ§áŀļ":8781,"áŀŁáŀľáŀİ":8782,"ston":8783,"ista":8784,"ĠGh":8785,"ĠLo":8786,"ĠLan":8787,"ĠáŁ¡áŁ¨áŁłáŁł":8788,"ĠNom":8789,"ĠNav":8790,"ĠNight":8791,"ĠNik":8792,"ĠNorthern":8793,"Ġpros":8794,"abh":8795,"abha":8796,"rypt":8797,"orts":8798,"áŀ¥áŀļ":8799,"Ġrat":8800,"ĠOs":8801,"ource":8802,"ells":8803,"Ġkinds":8804,"ĠáŁ£áŁłáŁ§":8805,"ereign":8806,"Ġsea":8807,"Ġsequ":8808,"ears":8809,"Ġshape":8810,"Ġresid":8811,"luding":8812,"Ġweap":8813,"exus":8814,"ĠáŁ¢áŁ¦áŁ¤":8815,"Ġinfl":8816,"ĠáŁ¢áŁ¨áŁ¤":8817,"ĠáŁ¢áŁ§áŁ§":8818,"ĠáŁ£áŁ¢áŁ¢":8819,"ĠáŁ£áŁ¢áŁ¤":8820,"Ġdesire":8821,"Ġflat":8822,"Ġleaves":8823,"Ġinvasion":8824,"Ġproventric":8825,"ĠáŁ¡áŁ©áŁ¡áŁ¢":8826,"ribed":8827,"orning":8828,"Ã¡n":8829,"Ġpolice":8830,"ĠáŁ¡áŁ©áŁłáŁ¨":8831,"ĠáŁ£áŁ¨áŁł":8832,"Ġdepart":8833,"Ġactually":8834,"ĠáŁ¢áŁ©áŁ¢":8835,"ĠáŀĶáŀľáŀļáŀŁ":8836,"ĠáŀŁáŀľáŀĸ":8837,"ĠCarMercedes":8838,"ĠParasites":8839,"oxic":8840,"uyÃªn":8841,"ĠBeer":8842,"Ġparasites":8843,"aird":8844,"Ġtemples":8845,"Ġcapacity":8846,"Ġ1938":8847,"ĠáŁ¡áŁ¨áŁ¥áŁ¦":8848,"ĠBCE":8849,"Ġmovie":8850,"ĠáŁłáŁłáŁ¢":8851,"ĠáŀĢáŀľáŀ¡":8852,"Ġavian":8853,"Ġsky":8854,"mediate":8855,"helm":8856,"ĠáŁ¡áŁ¤áŁ£áŁ¨":8857,"autiful":8858,"à¹ĥà¸Ļ":8859,"à¸Īà¸²à¸ģ":8860,"Although":8861,"Ġhosts":8862,"Ġlaws":8863,"porary":8864,"Ġbasic":8865,"Ġtechnology":8866,"Ġcalc":8867,"Ġkept":8868,"aksin":8869,"SCO":8870,"ĠTaiwan":8871,"Ġsemant":8872,"ĠBurmese":8873,"Ġmeasures":8874,"Ġhaemorrhages":8875,"which":8876,"ĠBerlin":8877,"Ġenteritis":8878,"Ġclaimed":8879,";\">":8880,"aguerre":8881,"Ġfloor":8882,"Ġhabl":8883,"Ġcontinuous":8884,"Ġinvestig":8885,"Ġconstitution":8886,"osphere":8887,"á»ĭnh":8888,"Ġprobably":8889,"Ġdropp":8890,"ĠHouyi":8891,"Charles":8892,"gypt":8893,"Ġconflict":8894,"Ġmammals":8895,"Ġcorrespond":8896,"Ġimmediately":8897,"Ġsovereign":8898,")(":8899,"51":8900,"54":8901,"AD":8902,"Category":8903,"Hist":8904,"based":8905,"car":8906,"dam":8907,"eh":8908,"gal":8909,"ja":8910,"king":8911,"rum":8912,"tes":8913,"west":8914,"xia":8915,"ying":8916,"yang":8917,"å¯":8918,"æĽ":8919,"ĠÐ":8920,"áŀĦáŀ¢áŀĵ":8921,"áŀıáŀĭ":8922,"áŀıáŀŁáŀĺ":8923,"áŀŁáŀłáŀĹ":8924,"áŁĨáŁĶ":8925,"ĠáŀĢáŀĸ":8926,"ĠáŀŁáŀ§áŀı":8927,"áŀľáŀĺáŀĵ":8928,"áŀĸáŀĶáŀļ":8929,"Ġáŀļáŀļ":8930,"áŀīáŀ±":8931,"áŀĩáŀĢáŀī":8932,"ĠáŀĽáŀĶáŀŁ":8933,"áŀģáŀħáŀĢ":8934,"áŀłáŀİ":8935,"áŀłáŀĴáŀĺ":8936,"ĠáŀĹáŀĻáŀĵ":8937,"ĠáŀľáŀĴ":8938,"ĠáŀĻáŀı":8939,"áŀĵáŀĢáŀĩáŀĵ":8940,"Ġtalk":8941,"Ġ)(":8942,"Ġaet":8943,"hew":8944,"áŀķáŀļáŀİ":8945,"Ġtheories":8946,"atar":8947,"ĠáŀĻáŀĢáŀī":8948,"isher":8949,"áŀĢáŀĺáŀĽ":8950,"ĠáŀļáŀĺáŀĤ":8951,"Ġpara":8952,"Ġphenomen":8953,"Ġfront":8954,"Ġbox":8955,"Ġbudget":8956,"Ġdut":8957,"Ġdivers":8958,"à¸į":8959,"Ġmax":8960,"áŀĽáŀĦáŀħ":8961,"áŀļáŀľáŀĢ":8962,"entially":8963,"ĠSri":8964,"áŁ¤áŁ¥":8965,"ĠTor":8966,"áŁ¨áŁł":8967,"Ġhat":8968,"evision":8969,"acing":8970,"ĠMin":8971,"ĠMil":8972,"ĠMichael":8973,"Ġnations":8974,"Ġthreat":8975,"ĠRNA":8976,"Ġáŀ¢áŀĢáŀĶ":8977,"ĠPress":8978,"ĠPublic":8979,"ĠPierre":8980,"imb":8981,"Ġgain":8982,"ivity":8983,"ĠHor":8984,"ĠIV":8985,"ĠIb":8986,"change":8987,"iste":8988,"ĠGall":8989,"Ġáŀ¢áŀĶáŀİ":8990,"Ġconver":8991,"ĠLM":8992,"ĠLow":8993,"ĠLatin":8994,"ĠáŁ¡áŁ¥áŁ¡áŁ¨":8995,"Ġones":8996,"Ġveget":8997,"ĠNob":8998,"ĠNirvana":8999,"ĠWolf":9000,"Ġste":9001,"Ġang":9002,"anton":9003,"ĠVAT":9004,"aine":9005,"ĠáŁ¡áŁłáŁłáŁ¡":9006,"ĠCarR":9007,"rium":9008,"ĠUr":9009,"áŀ£áŀļáŀłáŀĵ":9010,"ptic":9011,"Ġáŀ¯áŀĢáŀŁáŀİ":9012,"ards":9013,"Ġspok":9014,"Ġchlor":9015,"rents":9016,"ĠáŁ£áŁłáŁ¡":9017,"ctuary":9018,"phone":9019,"Ġdischarge":9020,"berry":9021,"ĠStud":9022,"hens":9023,"Ġ64":9024,"Ġimage":9025,"ĠáŀĵáŀĤáŀļáŀħ":9026,"udden":9027,"ĠUnic":9028,"ĠáŁ£áŁ¡áŁ¦":9029,"ĠáŁ¢áŁ¨áŁ¡":9030,"ĠáŁ¢áŁ§áŁ¤":9031,"ĠáŁ£áŁ¢áŁ¥":9032,"ĠáŁ£áŁ¢áŁ¨":9033,"obs":9034,"à¹Ģà¸ģ":9035,"ĠáŁ¡áŁ©áŁ¢áŁ¨":9036,"ĠHeb":9037,"Ġregional":9038,"àºĻ":9039,"ĠAristot":9040,"Ġrecent":9041,"ĠDrac":9042,"à¸±à¹ī":9043,"atta":9044,"ĠáŁ¡áŁ©áŁ¡áŁ©":9045,"Ġremove":9046,"Ġsubsequ":9047,"Ġdipl":9048,"Channel":9049,"Ġentered":9050,"ĠáŀŁáŀľáŀĵáŀĢ":9051,"Ġcolspan":9052,"Ġconstant":9053,"Ġinstr":9054,"Ġ1932":9055,"Ġ25050":9056,"ĠPalace":9057,"uki":9058,"Ġprocessing":9059,"ĠEngland":9060,"Ġanti":9061,"Ġ1941":9062,"Ġtransmitted":9063,"Ġpromot":9064,"ependent":9065,"Ġelectric":9066,"à¸Ľà¸£à¸°":9067,"Ġdominated":9068,"Ġsaying":9069,"ĠSutra":9070,"Ġswelling":9071,"elebr":9072,"ombie":9073,"Ġcritical":9074,"Ġpropositions":9075,"Ġgramm":9076,"Ġmethods":9077,"ĠAngeles":9078,"blog":9079,"Ġvirt":9080,"Ġterritories":9081,"ĠHenri":9082,"Ġrecognized":9083,"Ġissue":9084,"Ã§ois":9085,"Ġmountains":9086,"Ġeaten":9087,"Ġdefeat":9088,"áº£o":9089,"Ġactivity":9090,"SIP":9091,"Ġlatter":9092,"Ġisolation":9093,"Ġseparate":9094,"Ġsoldiers":9095,"Ġoccupied":9096,"Ġapplication":9097,"Ġroute":9098,"Ġclosely":9099,"ĠTsai":9100,"ceeded":9101,"imeria":9102,"çİĸ":9103,"Ġdamage":9104,"Ġfamilies":9105,"Ġconcentration":9106,"Ġlikely":9107,"ĠDistrict":9108,"ĠespaÃ±ol":9109,"áº§n":9110,"Ġlameness":9111,"56":9112,"Ang":9113,"According":9114,"BS":9115,"Buddha":9116,"CR":9117,"EF":9118,"EL":9119,"LD":9120,"Mo":9121,"Mon":9122,"National":9123,"OS":9124,"Paul":9125,"Se":9126,"Sam":9127,"VT":9128,"YP":9129,"bes":9130,"din":9131,"date":9132,"fr":9133,"grah":9134,"hm":9135,"ii":9136,"ieg":9137,"iens":9138,"level":9139,"nail":9140,"pic":9141,"post":9142,"where":9143,"wikipedia":9144,"year":9145,"zy":9146,"Ð¸":9147,"è¶":9148,"Ġerr":9149,"áŀ³":9150,"áŀ¶áŁĶ":9151,"áŀĵáŀĻáŀĢáŀĺ":9152,"áŀĢáŀıáŀĶ":9153,"áŀıáŀĸáŀĽ":9154,"áŀĽáŀ¡":9155,"áŀĽáŀĻáŀĽ":9156,"áŀŁáŀĶáŀŁ":9157,"Ġáŀĵáŀļáŀľ":9158,"áŁĨ,":9159,"ĠáŀĢáŀļáŀľ":9160,"Ġáŀĸáŀĺ":9161,"áŀľáŀļáŀĶ":9162,"áŀħáŀĬ":9163,"áŀħáŀĽáŀĵ":9164,"ĠáŀĩáŀĽáŀĩ":9165,"áŀĤáŀľáŀı":9166,"áŀĩáŀłáŀĦ":9167,"áŀĹáŀľáŀĦ":9168,"áŀĵáŀĢáŀļáŀĽ":9169,"ĠáŀŁáŀĺáŀĶ":9170,"áŀħáŀĢáŀļ":9171,"áŁĮâĢĮ":9172,"áŀļáŀŁáŀİ":9173,"áŀļáŀŁáŀĩ":9174,"heas":9175,"Ġáŀ§áŀĽ":9176,"ĠáŀķáŀĦáŀĢ":9177,"áŀľáŀıáŀı":9178,"Ġtheore":9179,"Ġsqu":9180,"Ġcust":9181,"Ġcred":9182,"Ġcold":9183,"Ġcogn":9184,"itable":9185,"ittle":9186,"ede":9187,"Ġáŀ±áŀĻ":9188,"Ġwww":9189,"áŀļáŀĬáŀĢáŀĬáŀĦ":9190,"icus":9191,"ications":9192,"Ġinj":9193,"Ġface":9194,"Ġfuel":9195,"Ġfelt":9196,"Ġframework":9197,"Ġfalse":9198,"áŀĶáŀĳáŀĶáŀī":9199,"Ġdram":9200,"Ġmental":9201,"ĠCN":9202,"ĠSel":9203,"ĠSang":9204,"ĠSup":9205,"Ġhund":9206,"Ġhyper":9207,"áŀĺáŀłáŀĢ":9208,"ams":9209,"áŀĢáŀĽáŀĽ":9210,"ĠáŀĸáŀĽáŀĺáŀĢ":9211,"ĠMang":9212,"Ġrepe":9213,"lem":9214,"leep":9215,"ĠRad":9216,"ĠRod":9217,"ĠBro":9218,"ĠBase":9219,"ĠBoth":9220,"ĠBank":9221,"ĠEimeria":9222,"urd":9223,"ĠPost":9224,"imm":9225,"ĠDu":9226,"ĠHu":9227,"ĠFour":9228,"ĠFuj":9229,"ĠFiend":9230,"ĠFunny":9231,"áŀ§áŀİ":9232,"áŀĶáŀļáŀĺáŀľáŀĦ":9233,"uns":9234,"Ġconj":9235,"Ġconvers":9236,"ĠLag":9237,"ĠLanguage":9238,"Ġáŀ£áŀļ":9239,"áŀĺáŀľáŀļáŀľáŀĦ":9240,"ĠNep":9241,"ĠNote":9242,"ĠáŁ¢áŁłáŁłáŁłáŁłáŁł":9243,"anges":9244,"ĠWork":9245,"Ġstay":9246,"Ġstream":9247,"opath":9248,"herry":9249,"estions":9250,"ĠáŁ¡áŁ¡áŁ¥áŁł":9251,"áŀļáŀīáŀī":9252,"abil":9253,"ryphon":9254,"rane":9255,"ĠCarD":9256,"ĠCarl":9257,"Ġrh":9258,"Ġrise":9259,"Ġrisk":9260,"Ġspor":9261,"Ġspirit":9262,"Ġcho":9263,"ĠáŁ£áŁłáŁ¢":9264,"ĠáŁ£áŁłáŁ£":9265,"ĠáŁ£áŁłáŁ¦":9266,"hao":9267,"Ġincubation":9268,"Ġdiss":9269,"Ġ44":9270,"áŀıáŀħáŀĽ":9271,"Ġáŀļáŀİáŀ«áŀĳ":9272,"Ġshown":9273,"áŀľáŀĬáŀĳ":9274,"ĠYuan":9275,"ĠáŁ£áŁ¡áŁ¢":9276,"ĠáŁ£áŁ¡áŁ©":9277,"ĠáŁ¢áŁ§áŁ©":9278,"ailin":9279,"Ġdesired":9280,"Ġelim":9281,"Ġelected":9282,"ĠIts":9283,"Ġquant":9284,"Ġleave":9285,"ĠPhuc":9286,"ervation":9287,"teau":9288,"Ġbirth":9289,"ĠáŁ¡áŁ©áŁ¢áŁ£":9290,"ĠXang":9291,"Ġrock":9292,"Ġgrand":9293,"ĠáŁ¡áŁ©áŁ¡áŁ¦":9294,"Ġvarieties":9295,"Ã¡p":9296,"ĠáŁ¡áŁ©áŁłáŁ¥":9297,"Ġintermediate":9298,"ĠMarx":9299,"Ġ125":9300,"ĠáŁ¤áŁ¢áŁł":9301,"Ġfoundation":9302,"axy":9303,"áŀľáŀĳáŀł":9304,"Ġimposs":9305,"Ġhumans":9306,"Ġconstrain":9307,"Ġserve":9308,"ĠáŁ¡áŁ¨áŁ§áŁł":9309,"Ġconcrete":9310,"Ġ.-(":9311,"ylvan":9312,"Ġclassical":9313,"à¸«à¸Ļ":9314,"Ġslight":9315,"Ãłnh":9316,"Ġlarger":9317,"Ġinvolvement":9318,"à¸ŀà¸£à¸°":9319,"Ġsupported":9320,"Ġprotect":9321,"Ġeverything":9322,"ĠCenter":9323,"ĠCollege":9324,"Ġopportun":9325,"Ġstructures":9326,"flow":9327,"shaped":9328,"Ġnearly":9329,"Ġauthority":9330,"Ġconstructed":9331,"Ġrevolution":9332,"ĠEarly":9333,"Ġpattern":9334,"Ġdialects":9335,"Ġintestine":9336,"ĠModern":9337,"Ġbehav":9338,"Ġessential":9339,"Ġrespectively":9340,"ĠCrystalon":9341,"ĠISO":9342,"Ġmuscle":9343,"Ġisolated":9344,"Ġunderstanding":9345,"ĠVirgin":9346,"åįĹ":9347,"ĠJacques":9348,"á»ĳc":9349,"ĠCourt":9350,"Ġadopted":9351,"Ġappeared":9352,"Ġfundamental":9353,"éĦļçİĸ":9354,"Ġtropical":9355,"ĠSalmonella":9356,"ittee":9357,"ĠVersailles":9358,"Ġsemantics":9359,"Ġaetiology":9360,"ĠDraconite":9361,"!\"":9362,"120":9363,"130":9364,"BI":9365,"Car":9366,"Cal":9367,"Com":9368,"EM":9369,"From":9370,"Gr":9371,"OP":9372,"Other":9373,"PHP":9374,"Some":9375,"Tur":9376,"Ven":9377,"bur":9378,"body":9379,"cel":9380,"den":9381,"fold":9382,"house":9383,"kor":9384,"lig":9385,"lop":9386,"light":9387,"lie":9388,"nt":9389,"net":9390,"zak":9391,"Â°":9392,"Ä©":9393,"Î¿":9394,"Ïģ":9395,"éĸ":9396,"éļ":9397,"Ġè":9398,"Ġáŀ»":9399,"áŀ·)":9400,"áŀĽáŀī":9401,"áŀĻáŀıáŀĢ":9402,"áŁĭáŀ¶":9403,"ĠáŀĵáŀĢáŀĺ":9404,"Ġáŀ¢áŀĺáŀĵáŀŁ":9405,"áŀĳáŀļáŀĩ":9406,"ĠáŀĩáŀĤáŀı":9407,"áŀīáŀľáŀĦ":9408,"áŀĩáŀĬ":9409,"ĠáŀģáŀĢáŀħ":9410,"Ġáŀłáŀĺ":9411,"ĠáŀĽáŀĶáŀĽ":9412,"áŀłáŀľ":9413,"áŀĲáŀĳáŀŁ":9414,"Ġ(?)":9415,"áŀļáŀŁáŀĦáŀŁ":9416,"inf":9417,"iny":9418,"inciples":9419,"Ġaid":9420,"Ġáŀ¯áŀļáŀĢ":9421,"Ġáŀ§áŀĻ":9422,"onym":9423,"áŀľáŀıáŀĶáŀļ":9424,"anies":9425,"Ġoil":9426,"ĠáŀĻáŀĢáŀı":9427,"Ġáŀ¢áŀŁáŀĢáŀĽ":9428,"Ġsection":9429,"Ġsides":9430,"Ġcos":9431,"Ġclear":9432,"Ġclean":9433,"itage":9434,"orat":9435,"ĠáŁ£áŁ©áŁł":9436,"Ġwings":9437,"Ġwarm":9438,"Ġwides":9439,"áŀĻáŀĢáŀĵ":9440,"Ġpurs":9441,"Ġfailed":9442,"Ġdate":9443,"Ġmis":9444,"Ġmoney":9445,"áŀĽáŀĦáŀľ":9446,"áŀŁáŀĽáŀĵ":9447,"áŀĺáŀıáŀĳ":9448,"ĠColl":9449,"Ġtold":9450,"Ġlegend":9451,"Ġ1000":9452,"Ġ119":9453,"Ġ111":9454,"ĠTechn":9455,"áŁ§áŁł":9456,"used":9457,"ĠAre":9458,"ĠAge":9459,"ĠAges":9460,"ĠMX":9461,"Ġreject":9462,"ĠáŀĵáŀĤáŀļáŀľ":9463,"ĠRichard":9464,"ĠBal":9465,"ĠBet":9466,"uls":9467,"ĠPan":9468,"ĠPat":9469,"igen":9470,"iri":9471,"Ġ??":9472,"lying":9473,"ĠHyper":9474,"utral":9475,"ĠFire":9476,"isted":9477,"ĠGDP":9478,"ĠLang":9479,"ĠLive":9480,"Ġáŀ£áŀĤ":9481,"ĠKan":9482,"ĠKen":9483,"áŀĻáŀĺáŀĢáŀĬáŀĽ":9484,"ĠáŁ¡áŁ¨áŁ©áŁ¥":9485,"rait":9486,"Ġvel":9487,"ĠWatch":9488,"ĠWTO":9489,"thur":9490,"Ġstrateg":9491,"opol":9492,"Ġ1900":9493,"Ġ1918":9494,"Ġanimal":9495,"Ġcomes":9496,"iesin":9497,"abin":9498,"Ġdehyd":9499,"ĠVSIP":9500,"illing":9501,"ĠJoseph":9502,"ĠJeff":9503,"apore":9504,"ĠCarP":9505,"oger":9506,"Ġrates":9507,"ĠOver":9508,"ptoms":9509,"Ġusers":9510,"Ġincor":9511,"ibb":9512,"ĠáŀĿáŀĺ":9513,"Ġ42":9514,"ĠThus":9515,"izzard":9516,"ĠáŁ¡áŁ©áŁ¤áŁ£":9517,"Ġintended":9518,"Ġupper":9519,"Ġclimate":9520,"ĠáŁ¢áŁ¦áŁ©":9521,"ĠáŁ¢áŁ§áŁ¢":9522,"ĠáŁ£áŁ¢áŁ£":9523,"ĠáŁ£áŁ¢áŁ©":9524,"Ġpercent":9525,"Ġflav":9526,"Ġflesh":9527,"Ġelection":9528,"ahu":9529,"ĠáŁ£áŁ¥áŁ§":9530,"nee":9531,"ĠáŁ£áŁ£áŁ¥":9532,"ĠáŁ£áŁ£áŁ¤":9533,"ĠáŁ£áŁ£áŁ§":9534,"à¹Ģà¸Ńà¸ģ":9535,"Ġevolution":9536,"aysia":9537,"cium":9538,"ugby":9539,"Ġtransform":9540,"áŀ¯áŀĢáŀ§áŀı":9541,"ĠáŁ¡áŁ©áŁ¡áŁ£":9542,"ĠAlf":9543,"ĠáŁ£áŁ¤áŁ§":9544,"ropri":9545,"ancell":9546,"ĠáŁ¡áŁ©áŁłáŁ¢":9547,"ĠIndones":9548,"Ġthemsel":9549,"Ġdifference":9550,"Ġdeveloping":9551,"ĠSodaM":9552,"Ġexpanded":9553,"Ġanything":9554,"ĠáŁ¡áŁ¨áŁ¨áŁ§":9555,"ashion":9556,"Ġáŀ¢áŀłáŀĦ":9557,"Ġtemple":9558,"Ġstudents":9559,"Ġended":9560,"Ġdesigns":9561,"ĠáŁ¡áŁ¨áŁ§áŁ¡":9562,"Ananda":9563,"Ġcarbon":9564,"NESCO":9565,"ĠáŁ¡áŁ¨áŁ¤áŁ¢":9566,"Ġmetal":9567,"Ġmetab":9568,"ĠGuang":9569,"tozo":9570,"ĠáŁ¡áŁ¨áŁłáŁ¢":9571,"Ġlaying":9572,"Ġcondition":9573,"Ġtransmit":9574,"onald":9575,"Ġdemon":9576,"Ġdemand":9577,"ĠáŁ¡áŁ¨áŁ£áŁ©":9578,"risis":9579,"ĠDef":9580,"Ġexisting":9581,"Ġpassed":9582,"====":9583,"Ġopposed":9584,"áŀĵáŀĢáŀĲáŀıáŀļ":9585,"ohann":9586,"ĠHistor":9587,"ournalism":9588,"ĠSmith":9589,"ĠSmart":9590,"Ġ250701":9591,"Ġsufficient":9592,"ĠSecret":9593,"ĠSecurity":9594,"Ġreplaced":9595,"strong":9596,"Ġperformed":9597,"Ġperformance":9598,"Ġreturned":9599,"ĠCarLexus":9600,"Ġsounds":9601,"Ġemerged":9602,"ĠLiu":9603,"Ġpolicies":9604,"Ġnegative":9605,"ytes":9606,"Ġletter":9607,"ĠGalaxy":9608,"Ġactivities":9609,"Ġseeds":9610,"aughter":9611,"Ġcurrently":9612,"Ġrefused":9613,"Ġrecorded":9614,"Ġáŀ¶áŁĨ":9615,"Ġdecreased":9616,"ĠAustralia":9617,"Ġmathematical":9618,"erosol":9619,"Ġthousands":9620,"Ġingred":9621,"George":9622,"Ġnervous":9623,"ĠPandavas":9624,"Ġarchaeological":9625,"Ġestimated":9626,"olithic":9627,"Ġcitizens":9628,"ĠMexico":9629,"ĠFriedrich":9630,"ylvania":9631,"Ġthemselves":9632,".[[":9633,"?\"":9634,"Av":9635,"EFA":9636,"Hitler":9637,"RC":9638,"Sy":9639,"Viá»ĩt":9640,"])":9641,"bal":9642,"gu":9643,"iac":9644,"pread":9645,"prod":9646,"rn":9647,"rin":9648,"rif":9649,"ship":9650,"tone":9651,"wise":9652,"zen":9653,"à®":9654,"ĠÎ":9655,"Ġï¼Ī":9656,"áŀ¶áŁĤ":9657,"áŀĦáŀ¥áŀĵ":9658,"áŀĢáŀ¯áŀĦ":9659,"áŀıáŀĽáŀĦ":9660,"áŀĽáŀĢáŀĺ":9661,"áŀĺáŀŁáŀĦ":9662,"áŀ»áŀ·":9663,"ĠáŀĢáŀĳ":9664,"ĠáŀĢáŀĢáŀļ":9665,"áŁģ.":9666,"Ġáŀĺáŀļ":9667,"áŀľáŀļáŀĢáŀĺ":9668,"Ġáŀ¢áŀļáŀı":9669,"áŀĳáŀıáŀĶ":9670,"áŀĳáŀħáŀļáŀı":9671,"áŀİáŀĻ":9672,"áŀİáŀļáŀĦ":9673,"ĠáŀıáŀĶáŀĴáŀĺ":9674,"ĠáŀĤáŀĩáŀĻ":9675,"áŀģáŀļáŀĢ":9676,"áŀłáŀħ":9677,"ĠáŀĹáŀĵ":9678,"ĠáŀĹáŀĽ":9679,"áŀĵáŀĢáŀł":9680,"áŀĲáŀī":9681,"Ġ(<":9682,"Ġtub":9683,"hered":9684,"erate":9685,"áŀĮáŀĸ":9686,"áŀĺáŀĢáŀļáŀİ":9687,"Ġot":9688,"Ġsudden":9689,"âĢĺ":9690,"alo":9691,"Ġcrow":9692,"áŀĨáŀĶ":9693,"eds":9694,"Ġple":9695,"Ġpun":9696,"Ġpark":9697,"Ġpowers":9698,"Ġfig":9699,"Ġfell":9700,"Ġfresh":9701,"Ġbones":9702,"Ġded":9703,"Ġdraw":9704,"ask":9705,"asak":9706,"Ġmal":9707,"Ġmosquitoes":9708,"Ġmorning":9709,"ĠCA":9710,"ĠCr":9711,"Ġlives":9712,"ĠSM":9713,"áŁ£áŁ¢":9714,"áŁ¤áŁ¤":9715,"Ġ118":9716,"ĠTi":9717,"omat":9718,"ĠAC":9719,"ĠAy":9720,"ĠMortality":9721,"ĠMunich":9722,"ĠRom":9723,"ĠBat":9724,"ĠBel":9725,"ĠBaird":9726,"ĠEqu":9727,"ĠEgypt":9728,"urus":9729,"áŀģáŀİáŀŁáŀĺ":9730,"ĠáŀĤáŀİáŀļáŀĬ":9731,"otan":9732,"otes":9733,"Ġgained":9734,"ĠDark":9735,"agious":9736,"ĠHun":9737,"ĠIN":9738,"ĠIran":9739,"unis":9740,"ĠâĢĿ(":9741,"ĠGaz":9742,"ĠLam":9743,"ĠLove":9744,"ĠLCD":9745,"ĠKant":9746,"ĠNap":9747,"ĠNok":9748,"ĠáŁ¡áŁ¢áŁ¥áŁł":9749,"ĠWall":9750,"iform":9751,"áŀıáŀĹáŀĸ":9752,"ante":9753,"ucks":9754,"quo":9755,"ĠáŁ¡áŁ¦áŁłáŁłáŁł":9756,"ĠVis":9757,"ession":9758,"ĠCart":9759,"ĠCarAl":9760,"Ġ34":9761,"Ġ38":9762,"Ġrough":9763,"áŀ«áŀĶ":9764,"ĠUK":9765,"ĠUp":9766,"Ġcontem":9767,"Ġcontour":9768,"ĠáŁ£áŁłáŁ¥":9769,"ĠáŁ£áŁłáŁ©":9770,"Ġnoted":9771,"igned":9772,"Ġ]],":9773,"Ġarms":9774,"Ġarmed":9775,"Ġdishes":9776,"Ġ56":9777,"ĠThaksin":9778,"Ġseem":9779,"ounded":9780,"ateral":9781,"Ġ600":9782,"ishing":9783,"Ġ77":9784,"Ġ737":9785,"Ġclosed":9786,"ordan":9787,"Ġwealth":9788,"Ġplays":9789,"Ġconsists":9790,"Ġagric":9791,"ampire":9792,"Ġmeant":9793,"Ġquestions":9794,"ĠáŁ£áŁ¥áŁ£":9795,"ĠáŁ£áŁ£áŁ¡":9796,"Ġ--(":9797,"àº±":9798,"àºĩ":9799,"Ġempire":9800,"rowing":9801,"arek":9802,"Ġgrant":9803,"azi":9804,"ĠáŁ£áŁ¦áŁ£":9805,"ĠáŁ¡áŁ¨áŁ¦áŁ¤":9806,"ĠáŁ¡áŁ©áŁ¡áŁł":9807,"ĠáŁ£áŁ¤áŁł":9808,"named":9809,"Ġfeeding":9810,"Ġvariable":9811,"idential":9812,"Ġsubc":9813,"ĠáŁ¡áŁ©áŁłáŁ¡":9814,"ĠáŁģáŁģ":9815,"ĠReal":9816,"áŀ¶.,":9817,"Ġ1979":9818,"Ġexpansion":9819,"ĠáŁ¦áŁ¢áŁ¡":9820,"Ġmonks":9821,"olve":9822,"Ġcoal":9823,"Ġparad":9824,"áŀļáŀĸáŀĽáŀľáŀĶ":9825,"etters":9826,"ĠRoak":9827,"Ġinstruct":9828,"Ġextrem":9829,"Ġbelong":9830,"ĠáŁ¨áŁ§áŁ§":9831,"Ġ1936":9832,"Ġcommunist":9833,"ĠáŁ©áŁ¢áŁ¨":9834,"ĠCommon":9835,"Ġgiving":9836,"Ġcurve":9837,"Ãªu":9838,"unction":9839,"ĠTherefore":9840,"Ġidentity":9841,"Ġelectronic":9842,"Ġcosts":9843,"poration":9844,"à¸£à¸°à¸ģ":9845,"Ġviews":9846,"ĠáŁ¡áŁ¢áŁ¨áŁ§":9847,"Ġchicken":9848,"Ġmatter":9849,"Ġstructural":9850,"nsylvania":9851,"Ġappears":9852,"enicill":9853,"Ġthinking":9854,"clus":9855,"Ġadvant":9856,"Ġeastern":9857,"Ġcampaign":9858,"ijing":9859,"ĠPennsylvania":9860,"Ġfalling":9861,"century":9862,"ugeot":9863,"Ġfarmers":9864,"Ġpoetry":9865,"Ġhaemorrhage":9866,"Ġissues":9867,"Ġexecut":9868,"Ġexecution":9869,"Ġjoined":9870,"Ġsuggest":9871,"Ġfloors":9872,"Ġconcerned":9873,"ouvong":9874,"Ġfavor":9875,"Äĥn":9876,"Ġradio":9877,"Ġrefusal":9878,"Ġurban":9879,"Ġaccepted":9880,"ĠPersian":9881,"Ġvictory":9882,"ĠAustralian":9883,"ĠZhang":9884,"Ġminister":9885,"Ġsafe":9886,"verseas":9887,"Ġstrains":9888,"Ġbronch":9889,"ĠChÃ¢teau":9890,"ĠOffice":9891,"Swift":9892,"ĠKirby":9893,"ĠObama":9894,"Ġinfectious":9895,"Ġcamera":9896,"ĠCatholic":9897,"Ġdespite":9898,"Ġawarded":9899,"Ġaverage":9900,"Ġmetaphys":9901,"Ġproventriculus":9902,"ĠHebrew":9903,"Ġimpossible":9904,"Ġwidespread":9905,"%,":9906,"52":9907,"AG":9908,"Americ":9909,"Bet":9910,"Birds":9911,"CE":9912,"De":9913,"Dr":9914,"HA":9915,"Image":9916,"Jac":9917,"Ma":9918,"Ne":9919,"NChannel":9920,"VI":9921,"With":9922,"],":9923,"bum":9924,"fall":9925,"iat":9926,"lit":9927,"long":9928,"leness":9929,"oa":9930,"tre":9931,"tech":9932,"Å«":9933,"Î¹":9934,"ä½":9935,"åŁ":9936,"Ġri":9937,"Ġeth":9938,"Ġïģ":9939,"ĭå":9940,"áŀĦáŀĴ":9941,"áŀĦáŀļáŀĺ":9942,"áŀĦáŀĢáŀĺ":9943,"áŀĢáŀĢáŀļ":9944,"áŀĢáŀļáŀıáŀĵ":9945,"áŀĻáŀĪ":9946,"áŀĺáŀĴáŀĺ":9947,"áŀĺáŀĦáŀħ":9948,"áŀĶáŀļáŀĸáŀĽ":9949,"áŁĨáŁĨ":9950,"áŁĨáŁĤ":9951,"ĠáŀĢáŀĻ":9952,"áŁģáŀ¶":9953,"Ġáŀĳáŀıáŀĳ":9954,"áŀ¼)":9955,"Ġáŀ¢áŀľáŀĽ":9956,"áŀĩáŀĻáŀľáŀĺ":9957,"áŀĴáŀī":9958,"ĠáŀĹáŀĶ":9959,"áŀ¢áŀĩ":9960,"ĠáŀĻáŀŁáŀĢ":9961,"áŀĶáŀŁáŀļ":9962,"áŀĲáŀĲ":9963,"áŁĮáŁĦ":9964,"Ġaflat":9965,"Ġáŀ¯áŀĢáŀĺ":9966,"áŁĬ,":9967,"onn":9968,"áŀļáŀİáŀĶ":9969,"enozoic":9970,"Ġov":9971,"ĠáŀĶáŀļáŀĻ":9972,"Ġáŀ¢áŀŁáŀĻ":9973,"Ġsand":9974,"Ġsons":9975,"aled":9976,"orb":9977,"Ġwing":9978,"áŀļáŀĬáŀļ":9979,"áŀĽáŀĶáŀĺ":9980,"icle":9981,"icide":9982,"Ġpan":9983,"Ġfurn":9984,"Ġfields":9985,"Ġfruits":9986,"Ġbal":9987,"Ġbattle":9988,"Ġbodies":9989,"Ġdur":9990,"Ġmun":9991,"ilation":9992,"roc":9993,"ĠCla":9994,"áŀļáŀľáŀī":9995,"Ġles":9996,"Ġlines":9997,"ĠSS":9998,"ĠSor":9999,"ĠSil":10000,"ĠáŀĦáŀĽ":10001,"áŁ¤áŁ¦":10002,"ĠTri":10003,"Ġhap":10004,"Ġharm":10005,"ĠMu":10006,"ĠMes":10007,"ĠáŀŁáŀłáŀı":10008,"osure":10009,"Ġnort":10010,"Ġnames":10011,"ĠRut":10012,"ĠRem":10013,"ĠBour":10014,"ĠBast":10015,"ĠBrad":10016,"ĠEC":10017,"ĠEM":10018,"ĠEuro":10019,"uru":10020,"Ġ.),":10021,"ulent":10022,"ĠPale":10023,"ĠPailin":10024,"irt":10025,"Ġ?-":10026,"img":10027,"ims":10028,"ady":10029,"adel":10030,"Ġgot":10031,"Ġgrav":10032,"Ġgizzard":10033,"Ġeun":10034,"ĠDam":10035,"ĠDiv":10036,"ĠDirect":10037,"ĠDrake":10038,"ĠHug":10039,"ĠIce":10040,"ĠFer":10041,"ĠFlor":10042,"cha":10043,"odern":10044,"unk":10045,"stand":10046,"stein":10047,"áŀĺáŀĳáŀŁ":10048,"ĠGia":10049,"Ġconsequ":10050,"ĠáŁ¡áŁ¨áŁ©áŁ¨":10051,"Ġvary":10052,"tha":10053,"that":10054,"Ġstages":10055,"Ġstock":10056,"Ġprof":10057,"Ġprogress":10058,"à¹Ĭ":10059,"ĠVision":10060,"ĠVictor":10061,"áŀĽáŀıáŀĺáŀĢ":10062,"ĠJump":10063,"ĠJews":10064,"ega":10065,"rize":10066,"Ġheard":10067,"Ġhens":10068,"seud":10069,"Ġrising":10070,"Ġexamin":10071,"ello":10072,"ellig":10073,"áŀ£áŀĤ":10074,"ĠInv":10075,"ewish":10076,"Ġcontext":10077,"ĠáŁ£áŁłáŁ¨":10078,"Ġ//":10079,"ikit":10080,"Ġ47":10081,"izard":10082,"riting":10083,"Ã©ric":10084,"Ġunits":10085,"à¸²à¸Ħ":10086,"à¸²à¸Ī":10087,"Ġimpl":10088,"Ġreserv":10089,"Ġweb":10090,"Ġplans":10091,"ensus":10092,"ĠáŁ£áŁ¡áŁł":10093,"ĠAnton":10094,"ologist":10095,"ĠAswatthama":10096,"ĠItalian":10097,"neys":10098,"Ġprep":10099,"onsin":10100,"ĠáŁ£áŁ£áŁł":10101,"ĠáŁ£áŁ£áŁ¢":10102,"ĠáŁ£áŁ£áŁ£":10103,"ĠáŁ£áŁ£áŁ©":10104,"Ġevolved":10105,"Ġrot":10106,"ften":10107,"ickens":10108,"ĠáŁ¡áŁ©áŁ£áŁ¤":10109,"ilding":10110,"ophag":10111,"Ġgrass":10112,"ĠZe":10113,"ĠáŁ£áŁ¦áŁł":10114,"126":10115,"key":10116,"Ġvariation":10117,"à¸¥à¹Ģà¸Ńà¸ģ":10118,"anced":10119,"ĠáŁ¡áŁ©áŁłáŁ¦":10120,"Ġdifferences":10121,"box":10122,"Ġdecided":10123,"Ġgovernments":10124,"Ġexpressed":10125,"Ġdistrict":10126,"khyun":10127,"Ġmonarchy":10128,"ĠáŁ¨áŁ¨áŁ¡":10129,"ĠáŁ¨áŁ¨áŁ§":10130,"áŀŁáŀłáŀļáŀĬ":10131,"Ġimportance":10132,"Ġparall":10133,"Ġwarning":10134,"Ġextensive":10135,"Ġraised":10136,"Ġmovements":10137,"sche":10138,"Ġmusical":10139,"Ġ1959":10140,"ĠÃĹ":10141,"ĠPlato":10142,"argoyle":10143,"ĠáŁ¡áŁ¥áŁ¦áŁ§":10144,"loading":10145,"Ġposit":10146,"Ġdetailed":10147,"Ġgoods":10148,"Ġinvolves":10149,"áŀĢáŀ¢áŀļáŀŁ":10150,"ĠExo":10151,"ĠáŁ¡áŁ§áŁ¨áŁ©":10152,"Ġoperations":10153,"Ġcombs":10154,"Ġarchitects":10155,"ĠUSA":10156,"áŀĢáŀĻáŀĢáŀĺáŀĢ":10157,"ĠAdd":10158,"ivalent":10159,"Ġidentification":10160,"Ġrestrict":10161,"Ġallowing":10162,"Ġpopularity":10163,"Ġpractices":10164,"isconsin":10165,"SEAN":10166,"ĠAtl":10167,"occidi":10168,"Ġglass":10169,"Ġplanet":10170,"Ġtechniques":10171,"Ġcareer":10172,"Ġannounced":10173,"Ġsuffered":10174,"ĠáŁ¢áŁ¤áŁ¨áŁ¨":10175,"Ġimmunosupp":10176,"espite":10177,"Ġfarms":10178,"tainment":10179,"Ġantibody":10180,"Ġjoints":10181,"Ġteaching":10182,"ĠTaliesin":10183,"Ġgrey":10184,"Ġsuggested":10185,"ĠáŁ¢áŁ¥áŁ¦áŁ¢":10186,"Ġportion":10187,"Ġwanted":10188,"Ġoriginally":10189,"ĠBellum":10190,"Ġshared":10191,"ĠCHNChannel":10192,"Ġsoftware":10193,"Ġderived":10194,"Ġteachers":10195,"laration":10196,"Ġcomponents":10197,"Ġsurrounding":10198,"Ġcaptured":10199,"áŀļáŀ®áŀı":10200,"Ġpullets":10201,"Ġvillage":10202,"singleness":10203,"Ġtravel":10204,"Ã©pce":10205,"Ġdescription":10206,"Ġfailure":10207,"htm":10208,"Ġdomestic":10209,"ĠFoundation":10210,"ĠCartier":10211,"Ġeunuch":10212,"Aut":10213,"Ben":10214,"Bress":10215,"Bull":10216,"General":10217,"James":10218,"Jump":10219,"Med":10220,"None":10221,"PR":10222,"SN":10223,"UR":10224,"Vespucci":10225,"World":10226,"div":10227,"down":10228,"fire":10229,"gcolor":10230,"hood":10231,"hold":10232,"ji":10233,"kt":10234,"lov":10235,"log":10236,"po":10237,"pop":10238,"sm":10239,"then":10240,"zi":10241,"Âº":10242,"Ê°":10243,"Ø§":10244,"à´":10245,"éĺ":10246,"áŀļáŀļáŀĸ":10247,"áŀļáŀĤáŀĺ":10248,"áŀıáŀļáŀħ":10249,"áŀĻáŀĻ":10250,"ĠáŀĵáŀľáŀĢ":10251,"ĠáŀĢáŀļáŀľáŀı":10252,"ĠáŀĢáŀļáŀĩáŀĢ":10253,"ĠáŀĸáŀĤ":10254,"áŀľáŀļáŀŁ":10255,"áŀľáŀļáŀĶáŀĳ":10256,"áŁĤáŁĪ":10257,"áŀĸáŀĳáŀĳ":10258,"ĠáŀĤáŀł":10259,"Ġáŀģáŀļ":10260,"ĠáŀĲáŀĻáŀĺáŀĢ":10261,"áŀģáŀļáŀĹ":10262,"áŁĥáŁĸ":10263,"Ġ(âĢľ":10264,"Ġtry":10265,"áŀļáŀĸáŀİ":10266,"Ġ)]":10267,"inch":10268,"áŀŁáŀĵáŀŁáŀĺ":10269,"enberg":10270,"atus":10271,"aters":10272,"Ġáŀ¥áŀĺáŀŁ":10273,"áŀĶáŀĵáŀĶáŀı":10274,"Ġáŀ¢áŀŁáŀĺáŀı":10275,"Ġ\"[":10276,"Ġ\"),":10277,"Ġsays":10278,"arn":10279,"alities":10280,"Ġcand":10281,"Ġcease":10282,"Ġcorn":10283,"Ġcross":10284,"Ġcelebr":10285,"Ġcrisis":10286,"itÃ©":10287,"orus":10288,"oration":10289,"orks":10290,"ĠáŁ¤áŁ¡áŁł":10291,"Ġpheas":10292,"Ġbad":10293,"Ġbgcolor":10294,"Ġdog":10295,"à¸ĺ":10296,"ilib":10297,"ĠCIA":10298,"Ġly":10299,"Ġliqu":10300,"áŀĦáŀıáŀĩ":10301,"ĠSab":10302,"ĠServ":10303,"ĠTO":10304,"ĠTown":10305,"ĠáŁ§áŁłáŁłáŁł":10306,"evi":10307,"áŀĸáŀĽáŀģ":10308,"aming":10309,"ĠAcc":10310,"ĠAward":10311,"etts":10312,"ĠMel":10313,"ĠMos":10314,"ĠMiss":10315,"Ġrein":10316,"Ġreasons":10317,"ĠáŀŁáŀłáŀľáŀı":10318,"Ġnav":10319,"ĠáŀĵáŀĤáŀļáŀĪ":10320,"Ġthr":10321,"ĠRh":10322,"ĠRock":10323,"Ġáŀ¢áŀĹáŀĸ":10324,"idad":10325,"igan":10326,"irth":10327,"lywood":10328,"ivism":10329,"ĠDen":10330,"ĠDire":10331,"ĠHome":10332,"utt":10333,"Ġáŀ£áŀľ":10334,"ĠKal":10335,"ĠáŁ¡áŁ¢áŁ©áŁ¥":10336,"ĠWisconsin":10337,"throp":10338,"Ġ1914":10339,"áŀĦáŀħáŀı":10340,"avirus":10341,"udes":10342,"Ġanore":10343,"ĠáŀıáŀĲáŀĹ":10344,"ĠEvilI":10345,"ĠVÄĥn":10346,"áŀĽáŀıáŀĶáŀŁ":10347,"endar":10348,"ĠáŀĢáŀıáŀľ":10349,"ĠáŁ¡áŁ§áŁłáŁł":10350,"Ġhence":10351,"ateau":10352,"Ġrich":10353,"Ġexcess":10354,"Ġexception":10355,"ĠOS":10356,"ĠOng":10357,"ĠáŀļáŀĲáŀŁ":10358,"Ġyield":10359,"ĠUC":10360,"ĠUNESCO":10361,"ĠUEFA":10362,"áŀ£áŀĶ":10363,"pping":10364,"Ġ...\"":10365,"ĠáŀĻáŀĢáŀĺáŀĢáŀĸ":10366,"Ġincl":10367,"ibet":10368,"Ġarrest":10369,"Ġworm":10370,"Ġ41":10371,"Ġ43":10372,"Ġ51":10373,"Ġáŀľáŀļáŀĩáŀĵ":10374,"izes":10375,"à¸²à¸ĭ":10376,"ipment":10377,"Ġwebs":10378,"ĠáŀĵáŀĤáŀļáŀİ":10379,"achus":10380,"ĠYeti":10381,"Ġprint":10382,"Ġprinciples":10383,"ĠFranco":10384,"Ġcompany":10385,"Ġphosph":10386,"ĠáŁ£áŁ¢áŁ¦":10387,"ĠáŁ£áŁ¢áŁ§":10388,"Ġtrich":10389,"ĠAnouvong":10390,"Ġmeal":10391,"Ġ97":10392,"Ġ98":10393,"Ġpreced":10394,"âĢ¦..":10395,"ĠXuyÃªn":10396,"Ġcausing":10397,"ĠáŁ¡áŁ©áŁ£áŁ¨":10398,"Ġtwenty":10399,"Ġ1997":10400,"ups":10401,"ĠZen":10402,"Ġinvented":10403,"Ġattract":10404,"ĠáŁ¡áŁ¨áŁ¦áŁ¡":10405,"ructure":10406,"áŀ®áŀĢ":10407,"à¹Ģà¸Ī":10408,"ĠSodaF":10409,"ĠProcess":10410,"Ġaccur":10411,"Ġaccomp":10412,"ollowing":10413,"Ġ1973":10414,"Ġrespond":10415,"Ġpreserv":10416,"Ġscreen":10417,"ĠáŁ¨áŁ¨áŁ¦":10418,"Ġparas":10419,"ĠRoach":10420,"ophyll":10421,"ĠáŁ¡áŁ¨áŁ§áŁ£":10422,"ĠAndroid":10423,"Ġ1933":10424,"Ġconcluded":10425,"ĠáŁ¡áŁ¥áŁ¢áŁ§":10426,"ĠCommittee":10427,"Ġpositions":10428,"Ġpowerful":10429,"atsu":10430,"Ġtraditions":10431,"ravada":10432,"Ġcollect":10433,"Ġlegal":10434,"Ġofficers":10435,"Ġofficially":10436,"ĠScott":10437,"Ġparticip":10438,"Ġarchitectural":10439,"Ġfourth":10440,"ĠÄĲá»ĵng":10441,"Ġreports":10442,"Ġpractical":10443,"ĠáŁ¡áŁ¥áŁ£áŁ©":10444,"enault":10445,"ĠAbomination":10446,"ĠMuseum":10447,"Ġappearance":10448,"ĠáŀŁáŀļáŀĹáŀĦ":10449,"ĠáŀŁáŀļáŀĹáŀĶáŀļ":10450,"Ġproposed":10451,"Ġcalcium":10452,"Ġrepresented":10453,"Ġargument":10454,"ĠTwitter":10455,"ĠMaha":10456,"Ġsuffering":10457,"ĠJackal":10458,"Ġfacilities":10459,"Ġuniverse":10460,"á»Ļi":10461,"á»Ļng":10462,"Ġrunning":10463,"Ġlength":10464,"Spread":10465,"Ġregarded":10466,"ĠCarLotus":10467,"Ġscholar":10468,"ISMO":10469,"ĠLiÃªu":10470,"ĠImperial":10471,"áº£i":10472,"ĠNotre":10473,"Ġheavy":10474,"ĠCyste":10475,"ĠResearch":10476,"ĠMadrid":10477,"struction":10478,"Ġagreements":10479,"Ġsituation":10480,"Ġthousand":10481,"âĶĢâĶĢâĶĢâĶĢ":10482,"ĠSirikit":10483,"Ġdistinguished":10484,"à¸ĵà¸°":10485,"Ġensure":10486,"ĠDisease":10487,"Ġrecommended":10488,"Ġpieces":10489,"Ġinstitutions":10490,"Ġfinancial":10491,"Ġabsolute":10492,"Ġbursa":10493,"àº°àº":10494,"Ġbillion":10495,"Ġnutrit":10496,"ĠEntertainment":10497,"ĠSodaDiet":10498,"ĠElectric":10499,"Ġoccasionally":10500,"Ġspoken":10501,"Ġgrammatical":10502,"ĠIndonesia":10503,"Bresson":10504,"ilibrium":10505,"++":10506,"./":10507,"400":10508,"Ber":10509,"But":10510,"ED":10511,"GB":10512,"Gia":10513,"Gran":10514,"IL":10515,"IT":10516,"Lee":10517,"Mark":10518,"OL":10519,"Pat":10520,"TT":10521,"UP":10522,"YR":10523,"arent":10524,"bour":10525,"dis":10526,"east":10527,"iu":10528,"jo":10529,"ls":10530,"lav":10531,"met":10532,"miss":10533,"ners":10534,"oir":10535,"pool":10536,"rÃ©":10537,"tan":10538,"type":10539,"uous":10540,"vette":10541,"wife":10542,"Ã£":10543,"ÅĽ":10544,"ÉĻ":10545,"Ð°":10546,"å·":10547,"å¸":10548,"åĲ":10549,"æĪ":10550,"ĠÄ":10551,"Ġid":10552,"ģn":10553,"áŀļáŀĴáŀĺ":10554,"áŀĵáŀŁáŀĦ":10555,"áŀĦáŀĻáŀĢ":10556,"áŀĢáŀĨ":10557,"áŀıáŀ®":10558,"áŀĺáŀļáŀĺáŀĵ":10559,"áŀĶáŀĸáŀĽ":10560,"áŀĶáŀĴáŀĵ":10561,"ĠáŀĶáŀļáŀĸ":10562,"áŁĩáŁģ":10563,"ĠáŀĢáŀ¡":10564,"ĠáŀĢáŀĦáŀĽ":10565,"áŁģ,":10566,"áŀ¸)":10567,"ĠáŁĥ":10568,"áŀ¼áŁĴ":10569,"Ġáŀ¢áŀĽáŀĺ":10570,"áŀĳáŀħ":10571,"ĠáŀļáŀĦáŀĳ":10572,"ĠáŀĤáŀĳ":10573,"ĠáŀĤáŀļáŀł":10574,"áŀĩáŀħ":10575,"áŀĴáŀıáŀĶ":10576,"ĠáŀĻáŀĿ":10577,"áŀ¡áŀĢáŀİ":10578,"áŀĵáŀĢáŀ¢áŀĹ":10579,"áŀĲáŀĴáŀĺ":10580,"Ġ(-":10581,"Ġton":10582,"Ġ):":10583,"inar":10584,"Ġaf":10585,"Ġaudi":10586,"ĠáŀĺáŀĢáŀŁ":10587,"Ġáŀ¯áŀĽ":10588,"Ġáŀ¯áŀĢáŀĵ":10589,"real":10590,"enum":10591,"Ġcage":10592,"Ġcement":10593,"Ġcoup":10594,"iti":10595,"itations":10596,"orp":10597,"organ":10598,"orption":10599,"edan":10600,"áŀļáŀıáŀĶáŀŁ":10601,"Ġáŀ±áŀĹáŀı":10602,"áŀŁáŀĺáŀķáŀĽ":10603,"ĠáŁ¤áŁ¡áŁ£":10604,"áŀļáŀĬáŀĦ":10605,"icard":10606,"icine":10607,"Ġinherent":10608,"Ġáŀ§áŀĶáŀłáŀħ":10609,"ĠpH":10610,"Ġpaper":10611,"Ġprior":10612,"Ġfreedom":10613,"Ġba":10614,"Ġbrain":10615,"Ġducts":10616,"elop":10617,"Ġmess":10618,"Ġmicro":10619,"Ġmexic":10620,"ilateral":10621,"ĠCond":10622,"ĠCler":10623,"ĠCAM":10624,"ĠSom":10625,"ĠSav":10626,"ĠSuch":10627,"ĠTuring":10628,"áŁ¦áŁ§":10629,"acement":10630,"ĠáŁ¦áŁ£áŁł":10631,"áŀĸáŀĽáŀĸ":10632,"usc":10633,"ĠáŀĸáŀĽáŀ²":10634,"ĠáŀĸáŀĽáŀļáŀĲ":10635,"ĠAk":10636,"ĠAmp":10637,"áŀĸáŀŁáŀĶ":10638,"olate":10639,"ĠMid":10640,"ĠMir":10641,"ĠMess":10642,"oster":10643,"Ġthor":10644,"ĠRa":10645,"ĠRights":10646,"ĠBa":10647,"ĠBra":10648,"ĠBirds":10649,"ĠBÃ¬nh":10650,"ĠBotan":10651,"ĠPC":10652,"ĠPop":10653,"irie":10654,"irmed":10655,"ĠáŀŁáŀļáŀŁáŀļ":10656,"Ġgas":10657,"ĠDou":10658,"ĠDom":10659,"ĠHal":10660,"ĠHok":10661,"ĠHuman":10662,"áŀ§áŀĶáŀľ":10663,"ceived":10664,"áŀļáŀļáŀŃáŀĢ":10665,"emy":10666,"unci":10667,"istance":10668,"Ġconvention":10669,"ĠLog":10670,"ĠLater":10671,"ĠLank":10672,"ĠáŁ¡áŁ¥áŁłáŁłáŁłáŁł":10673,"terior":10674,"raham":10675,"Ġvan":10676,"ĠWater":10677,"Ġstress":10678,"Ġ1910":10679,"Ġ1923":10680,"Ġalign":10681,"avati":10682,"estive":10683,"ĠáŁ¡áŁ¤áŁ©áŁ¢":10684,"antry":10685,"abeth":10686,"ĠJones":10687,"apura":10688,"ĠChild":10689,"ĠChÃŃ":10690,"Ġ37":10691,"Ġ3000":10692,"sey":10693,"áŀ«áŀŀ":10694,"ĠáŁ©áŁ©áŁ":10695,"arters":10696,"ptions":10697,"alleng":10698,"Ġchann":10699,"Ġchoice":10700,"ghan":10701,"Ġarts":10702,"áŀļáŀĪáŀĶ":10703,"ubl":10704,"plate":10705,"plete":10706,"auss":10707,"ĠThi":10708,"izations":10709,"áŀıáŀħáŀħáŀĢ":10710,"Ġuns":10711,"asser":10712,"okyo":10713,"ordination":10714,"ĠáŁ¤áŁłáŁ¥":10715,"Ġplaces":10716,"Ġplanning":10717,"ermatitis":10718,"Ġfeet":10719,"Ġcompet":10720,"Ġabdom":10721,"lla":10722,"áŀĽáŀĺáŀļáŀıáŀĢ":10723,"ails":10724,"rics":10725,"Ġflock":10726,"ologies":10727,"Ġelev":10728,"Ġmeet":10729,"Ġquail":10730,"Int":10731,"Ġ99":10732,"Ġapparent":10733,"áŀľáŀļáŀİáŀĵ":10734,"oblin":10735,"web":10736,"ĠáŁ£áŁ£áŁ¦":10737,"à¹Ģà¸¡":10738,"à¹Ģà¸¥":10739,"ĠáŁ¡áŁ©áŁ£áŁ¡":10740,"ciences":10741,"ĠArthur":10742,"azole":10743,"Ġattain":10744,"ĠáŁ£áŁ¦áŁ¥":10745,"othing":10746,"ĠQuang":10747,"306":10748,"theless":10749,"à¹Ģà¸ŀ":10750,"Chan":10751,"ĠSodaS":10752,"Ġsecular":10753,"Ġexposure":10754,"Ġpopulations":10755,"ĠáŀĶáŀľáŀļáŀĢáŀī":10756,"Ġfollows":10757,"ĠáŁ¤áŁ¤áŁ£":10758,"Ġscrim":10759,"ĠáŁ¡áŁ¨áŁ¨áŁ¦":10760,"fully":10761,"Ġparliament":10762,"Ġcellulose":10763,"=\"#":10764,"accul":10765,"à¸§à¸²à¸¡":10766,"ĠáŁ¡áŁ¨áŁ§áŁ¦":10767,"Ġedition":10768,"ourses":10769,"Ġresulted":10770,"ĠTrade":10771,"ieval":10772,"ÄĲá»ĵng":10773,"arget":10774,"Ġprocesses":10775,"ĠáŁ¡áŁ¥áŁ¦áŁ¦":10776,"Ã¨s":10777,"Ġmedical":10778,"Ġ1949":10779,"Ġáŀ±áŀĳáŀĶáŀı":10780,"Ġinsectic":10781,"Ġneck":10782,"Ġhelped":10783,"áŀĢáŀ¢áŀĴáŀĺ":10784,"Ġmarkets":10785,"ĠáŁ¡áŁ¨áŁ£áŁ¤":10786,"ĠAdult":10787,"ĠDead":10788,"Ġapproved":10789,"à¸Īà¸°":10790,"Ġprotection":10791,"ĠColon":10792,"Ġvaccination":10793,"Ġoppos":10794,"Ġmarried":10795,"Ġzone":10796,"ĠJuliet":10797,"Ġfunctions":10798,"Ġstrongly":10799,"ĠCorvette":10800,"ucker":10801,"Ġproducing":10802,"aneous":10803,"Ġshowing":10804,"Ġbelieve":10805,"Ġpalace":10806,"unnel":10807,"Ġpurch":10808,"Ġconvey":10809,"Ġattacked":10810,"Ġstandards":10811,"Ġseven":10812,"Ġtranslated":10813,"Ġdefinition":10814,"untu":10815,"ĠHTC":10816,"ozoites":10817,"Ġfungal":10818,"Ġheavily":10819,"Ġseparated":10820,"Ġ50305":10821,"Ġdocumentation":10822,"ĠGuardian":10823,"Ġsummer":10824,"castle":10825,"Ġteacher":10826,"Ġembryon":10827,"borne":10828,"ĠMandarin":10829,"Ġleadership":10830,"Ġmaintained":10831,"Ġsutras":10832,"Ġtools":10833,"Ġjournalists":10834,"ĠDewey":10835,"ĠOperation":10836,"Ġemptiness":10837,"Ġtelevision":10838,"Ġconsciousness":10839,"Ġethnic":10840,"Ġfaith":10841,"Ġsymptoms":10842,"ĠRoadster":10843,"Ġhydro":10844,"ĠBaekhyun":10845,"ĠGaon":10846,"ĠCarRenault":10847,"YPE":10848,"dinand":10849,"áŀĢáŀıáŀĶáŀĸ":10850,"ĠVirginia":10851,"neezing":10852,"ĠAlfred":10853,"Ġhappen":10854,"ĠBastille":10855,"occidiosis":10856,"achusetts":10857,"Ġscrimmage":10858,"',":10859,"AF":10860,"AX":10861,"Ac":10862,"Bo":10863,"EX":10864,"Homo":10865,"Joseph":10866,"Vitamin":10867,"Wright":10868,"[?":10869,"buntu":10870,"cest":10871,"chen":10872,"craft":10873,"called":10874,"eon":10875,"gans":10876,"hot":10877,"iar":10878,"iological":10879,"joy":10880,"jamin":10881,"low":10882,"mang":10883,"rm":10884,"sen":10885,"td":10886,"wich":10887,"Ðµ":10888,"æ°":10889,"æĺ":10890,"èĪ":10891,"Ġrib":10892,"Ġurg":10893,"Ġáŀ¹":10894,"áŁĴáŀ·":10895,"áŀĦáŀľáŀĦ":10896,"áŀĢáŀļáŀŁ":10897,"áŀĢáŀ§áŀĶ":10898,"áŀĽáŀľáŀı":10899,"áŀĻáŀĤáŀı":10900,"áŀĻáŀıáŀŁ":10901,"áŁĭ)":10902,"ĠáŀĶáŀ¡":10903,"Ġáŀĵáŀİ":10904,"ĠáŀĢáŀĩ":10905,"ĠáŀĢáŀĬ":10906,"ĠáŀŁáŀĶáŀļ":10907,"áŀ¸áŁĪ":10908,"áŀħáŀľáŀĽ":10909,"Ġáŀ¢áŀİáŀı":10910,"Ġáŀĩáŀħ":10911,"áŀĤáŀĶáŀĵ":10912,"áŀĤáŀłáŀĶ":10913,"Ġáŀļáŀ¡":10914,"áŀİáŀľáŀĢ":10915,"ĠáŀıáŀĤ":10916,"áŀĬáŀĻ":10917,"Ġáŀģáŀ¡":10918,"ĠáŀģáŀŁáŀĵ":10919,"áŀĴáŀĢáŀħ":10920,"ĠáŀĹáŀĺ":10921,"ĠáŀĻáŀĩ":10922,"áŀĵáŀĢáŀŁáŀĵ":10923,"áŀĵáŀĢáŀ§áŀĶáŀı":10924,"áŀĲáŀļáŀŁ":10925,"áŀļáŀĢáŀĳ":10926,"áŀĭáŀı":10927,"áŀĭáŀĸáŀĽáŀĸ":10928,"Ġtable":10929,"Ġtouch":10930,"inan":10931,"Ġaware":10932,"Ġaerosol":10933,"Ġáŀ¯áŀĺ":10934,"áŀļáŀĺáŀı":10935,"áŀķáŀĽáŀĶ":10936,"Ġáŀ§áŀĹ":10937,"erob":10938,"ref":10939,"rehens":10940,"enue":10941,"Ġod":10942,"Ġoverseas":10943,"aton":10944,"ĠáŀĻáŀĢáŀĬ":10945,"Ġ\"-":10946,"Ġsap":10947,"Ġsever":10948,"Ġce":10949,"Ġcat":10950,"Ġcul":10951,"Ġcoun":10952,"itled":10953,"oring":10954,"Ġáŀĩáŀĵáŀľ":10955,"Ġwear":10956,"Ġwisdom":10957,"ĠáŁ¤áŁ¡áŁ§":10958,"áŀļáŀĻáŀĵ":10959,"áŀļáŀĻáŀĦ":10960,"ĠáŀīáŀĻ":10961,"Ġinact":10962,"Ġpra":10963,"Ġpict":10964,"Ġfert":10965,"Ġfilled":10966,"Ġfirm":10967,"Ġbring":10968,"Ġbrown":10969,"áŀĢáŀĬáŀĢ":10970,"Ġdates":10971,"ouis":10972,"ĠáŀħáŀĦáŀĸ":10973,"à¸©":10974,"asm":10975,"asis":10976,"Ġmist":10977,"Ġmild":10978,"Ġmycoplasma":10979,"Ġmoment":10980,"ĠCC":10981,"ĠCatal":10982,"ĠCenozoic":10983,"áŁİáŀ¶":10984,"áŀļáŀľáŀĵ":10985,"Ġletters":10986,"ĠSand":10987,"ĠSap":10988,"ĠSolar":10989,"ĠTel":10990,"ĠTang":10991,"ĠTime":10992,"ĠáŁ§áŁ¥áŁł":10993,"áŁ¦áŁł":10994,"amic":10995,"amet":10996,"amph":10997,"ĠáŀĸáŀĽáŀıáŀı":10998,"ĠAB":10999,"ĠAp":11000,"ĠAut":11001,"ĠAff":11002,"ĠAmb":11003,"ĠAgre":11004,"ety":11005,"ĠMarek":11006,"oct":11007,"ocytes":11008,"Ġnod":11009,"ĠRun":11010,"ĠRob":11011,"áŀĵáŀĦáŀĹ":11012,"ĠBan":11013,"ĠBord":11014,"ĠBáº£o":11015,"idae":11016,"iration":11017,"Ġisn":11018,"Ġgent":11019,"Ġgames":11020,"Ġgarden":11021,"iven":11022,"ivirus":11023,"ĠDan":11024,"ĠDal":11025,"ĠDaily":11026,"ĠIBM":11027,"ĠFront":11028,"ĠFighter":11029,"chan":11030,"emic":11031,"stag":11032,"ĠâĢĿ)":11033,"ĠGel":11034,"ĠGryphon":11035,"ĠLoc":11036,"ĠLich":11037,"ĠLike":11038,"ĠLife":11039,"Ġáŀ£áŀİ":11040,"Ġáŀ£áŀĴ":11041,"ĠáŁ¡áŁ¥áŁ¡áŁ©":11042,"ĠáŁ¡áŁ¨áŁ©áŁ¦":11043,"ĠáŁ¡áŁ¨áŁ©áŁ©":11044,"ĠáŁ¡áŁ¨áŁ©áŁ§":11045,"Ġvert":11046,"Ġvote":11047,"Ġvectors":11048,"ĠNon":11049,"ectre":11050,"ĠWizard":11051,"Ġstep":11052,"ĠTheir":11053,"Ġorgans":11054,"avan":11055,"Ġansw":11056,"Ġancest":11057,"áŀıáŀĹáŀļ":11058,"ucas":11059,"ucation":11060,"ĠEvilW":11061,"ĠáŁ¡áŁ¦áŁ¡áŁ¨":11062,"ĠVo":11063,"ĠJu":11064,"apes":11065,"ĠCarPe":11066,"ĠChap":11067,"ĠChurch":11068,"Ġhear":11069,"ogen":11070,"Ġrivers":11071,"Ġrival":11072,"ĠOf":11073,"Ġatm":11074,"ources":11075,"artial":11076,"elles":11077,"ellular":11078,"ellinan":11079,"alls":11080,"Ġspent":11081,"Ġkil":11082,"Ġchair":11083,"áŀħáŀŁáŀļáŀŁ":11084,"ĠIns":11085,"Ġcontained":11086,"Ġcontract":11087,"Ġcontagious":11088,"Ġ/.":11089,"asts":11090,"Ġ48":11091,"Ġ49":11092,"oughing":11093,"ĠThunder":11094,"izont":11095,"izabeth":11096,"Ġseas":11097,"Ã©m":11098,"Ġunit":11099,"Ġunique":11100,"à¸²à¸§":11101,"à¸²à¸Ń":11102,"ĠStar":11103,"ĠStand":11104,"acted":11105,"actions":11106,"Ġimper":11107,"Ġ180":11108,"Ġ1839":11109,"ĠYang":11110,"ressive":11111,"ramural":11112,"Ġinfest":11113,"áŀĳáŀŁáŀĸáŀĽ":11114,"Ġpartly":11115,"ologically":11116,"Ġ92":11117,"Ġapply":11118,"ĠáŁ£áŁ¥áŁ¤":11119,"ĠáŁ£áŁ¥áŁ©":11120,"ĠPhys":11121,"Ġ106":11122,"Ġprev":11123,"aih":11124,"Ġlaid":11125,"Ġsigned":11126,"ĠArm":11127,"Ġrecon":11128,"Ġrecords":11129,"Ġrecovery":11130,"Ġsomeone":11131,"ĠZombie":11132,"Ġattention":11133,"ĠáŁ¡áŁ¨áŁ¦áŁ¨":11134,"ĠáŁ£áŁ¤áŁ¥":11135,"ĠáŁ£áŁ¤áŁ¢":11136,"ĠáŁ£áŁ¤áŁ¤":11137,"ribe":11138,"áŀĵáŀļáŀĦáŀĦ":11139,"Ġnewly":11140,"ĠáŁ£áŁ§áŁł":11141,"Ġ1600":11142,"à¹Ģà¸ª":11143,"Ġneither":11144,"Ġneutral":11145,"comp":11146,"à¸µà¹ī":11147,"ĠProd":11148,"ĠProject":11149,"ĠProfess":11150,"Ġdecision":11151,"Ġsimpl":11152,"Ġmodels":11153,"Ġ1972":11154,"ĠáŁ¤áŁ£áŁł":11155,"ycline":11156,"inguistics":11157,"awa":11158,"ĠáŁ¨áŁ¨áŁ¤":11159,"ĠSpor":11160,"ĠSee":11161,"Ġgeneration":11162,"ĠConc":11163,"ĠConstitution":11164,"Ġperiods":11165,"Ġequivalent":11166,"Ġequipment":11167,"Ġleads":11168,"ĠIsland":11169,"Ġgoes":11170,"Ġcommunities":11171,"Ant":11172,"à¤°":11173,"Ġmoon":11174,"ĠáŁ¡áŁ¥áŁ¢áŁ¢":11175,"Ġ1953":11176,"Ġtyped":11177,"Ġclassified":11178,"load":11179,"Ġlinguists":11180,"hamma":11181,"Ġartist":11182,"Ġdeter":11183,"ĠáŁ¡áŁ¢áŁłáŁ£":11184,"Ġ1946":11185,"Ġthoughts":11186,"epending":11187,"Ġorigins":11188,"Ġcharacterised":11189,"Ġhosted":11190,"Ġ/></":11191,"Ġcomputers":11192,"Ġviewed":11193,"Ġexplicit":11194,"à¸¸à¹Ī":11195,"Ġswallow":11196,"à¸Ħà¸§à¸²à¸¡":11197,"Ġglott":11198,"Ġglobal":11199,"ĠSoft":11200,"Ġproposition":11201,"ĠAmong":11202,"ĠSeries":11203,"ĠChampa":11204,"ĠChampasak":11205,"Ġannual":11206,"Ġsynov":11207,"Ãºc":11208,"Ġnovels":11209,"rophic":11210,"cope":11211,"Ġrecognition":11212,"Ġessentially":11213,"Ġhttps":11214,"ĠContin":11215,"Ã§a":11216,"ĠMalaysia":11217,"Ġfocused":11218,"Ġcruc":11219,"Ġborders":11220,"Ġtranslation":11221,"Ġconcepts":11222,"Ġconsiderable":11223,"Ġobserved":11224,"Ġprovincial":11225,"Ġentirely":11226,"ĠEconomic":11227,"Ġamounts":11228,"iterran":11229,"Cambodian":11230,"Ġmuscles":11231,"ĠCommunist":11232,"regular":11233,"ĠMcG":11234,"Ġphilosopher":11235,"åľ°":11236,"ĠSINA":11237,"ĠSILV":11238,"Ġrapidly":11239,"Ġmerch":11240,"Ġdebate":11241,"Ġsuccessfully":11242,"LET":11243,"Ġdetermine":11244,"ĠKampuc":11245,"Ġultimately":11246,"ĠHindu":11247,"Ġtoxicity":11248,"Ġirregular":11249,"Ġcompiler":11250,"Ġdouble":11251,"ĠMassachusetts":11252,"Ġkidneys":11253,"Ġconducted":11254,"Ġanalytic":11255,"Robert":11256,"Ġbricks":11257,"ĠMaxwell":11258,"Ġstrength":11259,"Ġdrugs":11260,"Jackie":11261,"Ġdiscipline":11262,"Incubation":11263,"ĠChampionship":11264,"ĠPremier":11265,"ĠWilhelm":11266,"Ġmicroscopic":11267,"Ġrefugees":11268,"Ġinscriptions":11269,"Ġhablantes":11270,"ĠAristotle":11271,"è¶Ĭ":11272,"burgh":11273,"zaklan":11274,"ancellor":11275,"ĠSecretary":11276,"ĠNapole":11277,"enicillin":11278,"American":11279,"ĠSorcer":11280,"ĠRutgers":11281,"ĠBotanite":11282,"Ġchannels":11283,"ghanistan":11284,"ĠCarPeugeot":11285,"Ġglottal":11286,"ĠSILVIA":11287,"))":11288,"160":11289,"800":11290,"Af":11291,"Bar":11292,"East":11293,"Eng":11294,"HO":11295,"Louis":11296,"MV":11297,"Microsoft":11298,"Nor":11299,"PL":11300,"RX":11301,"Sa":11302,"Ser":11303,"UI":11304,"Viet":11305,"WW":11306,"WOR":11307,"You":11308,"but":11309,"cing":11310,"cart":11311,"come":11312,"di":11313,"ees":11314,"ging":11315,"han":11316,"iest":11317,"juna":11318,"kel":11319,"mm":11320,"non":11321,"normal":11322,"oom":11323,"pects":11324,"rfi":11325,"swe":11326,"such":11327,"uit":11328,"world":11329,"zer":11330,"zech":11331,"Î³":11332,"Ïĥ":11333,"á¸":11334,"ãĥ":11335,"å£":11336,"å¹":11337,"çľ":11338,"èĩ":11339,"éģ":11340,"Ġà¸ª":11341,"ĪĴ":11342,"áŀĦáŀ®":11343,"áŀĢáŀĻáŀŁ":11344,"áŀĽáŀıáŀĳ":11345,"áŀĻáŀĺáŀı":11346,"áŀ»,":11347,"áŀ»áŁĸ":11348,"áŀŁáŀĽáŀĦ":11349,"áŀĶáŀļáŀĢ":11350,"áŀĶáŀĺáŀı":11351,"ĠáŀĬáŀĵ":11352,"áŀ¸áŁĩ":11353,"áŀ¼(":11354,"áŁĤáŀ¾":11355,"Ġáŀ¢áŀĶáŀŁ":11356,"ĠáŀĩáŀĵáŀĢ":11357,"áŀĸáŀļáŀŁ":11358,"áŀĸáŀ¢áŀĵ":11359,"áŀİáŀĬ":11360,"áŀĩáŀĸ":11361,"áŀĩáŀħáŀĵ":11362,"ĠáŀłáŀĳáŀĻ":11363,"ĠáŀĽáŀĻáŀĢ":11364,"ĠáŀĽáŀĶáŀĶ":11365,"áŀģáŀĢáŀĺ":11366,"áŀĴáŀļáŀŁ":11367,"ĠáŀĹáŀĸáŀĽ":11368,"ĠáŀĻáŀĺáŀı":11369,"áŀ¡áŀĸáŀĽ":11370,"Ġáŀķáŀĵ":11371,"áŀĵáŀĢáŀļáŀŁ":11372,"áŀħáŀĢáŀĳ":11373,"áŀĭáŀļáŀŁ":11374,"áŀļáŀĶáŀħ":11375,"Ġtens":11376,"Ġtrip":11377,"Ġtube":11378,"inates":11379,"inese":11380,"Ġax":11381,"Ġáŀ¯áŀĶ":11382,"eria":11383,"erick":11384,"erals":11385,"áŀĥáŀĶ":11386,"enburg":11387,"enovirus":11388,"ativ":11389,"ĠáŀĻáŀĢáŀĢ":11390,"ĠáŀĻáŀĢáŀĺáŀĵ":11391,"ishes":11392,"Ġsig":11393,"Ġsort":11394,"Ġsaccul":11395,"arath":11396,"Ġcin":11397,"ĠáŁ£áŁ©áŁ§":11398,"edic":11399,"áŀĢáŀļáŀ¢":11400,"ĠáŀĩáŀĵáŀŁáŀļáŀŁ":11401,"icians":11402,"Ġinhab":11403,"Ġban":11404,"ĠáŀĢáŀĵáŀĶáŀļ":11405,"Ġdermatitis":11406,"Ġmel":11407,"Ġmature":11408,"ilage":11409,"áŀĽáŀĦáŀĻ":11410,"ĠCast":11411,"ĠCub":11412,"ĠCanton":11413,"áŁ¢áŁ©":11414,"Ġtoward":11415,"Ġlot":11416,"ĠSedan":11417,"ĠáŀĦáŀĢ":11418,"Ġ112":11419,"ĠTre":11420,"ĠTen":11421,"ĠTech":11422,"ĠTYPE":11423,"Ġharvest":11424,"ĠáŁ¦áŁ¡áŁ¨":11425,"omas":11426,"uster":11427,"Ġ[âĢ¦":11428,"áŀļáŀĹáŀĢ":11429,"etles":11430,"ĠMer":11431,"ĠMov":11432,"ĠMich":11433,"ĠMee":11434,"ĠMobile":11435,"Ġreality":11436,"Ġnemat":11437,"Ġthirst":11438,"ĠRen":11439,"ĠRet":11440,"ĠRoger":11441,"ĠBest":11442,"ĠBall":11443,"ĠEach":11444,"urb":11445,"urt":11446,"Ġ./":11447,"ĠPath":11448,"ĠPower":11449,"iral":11450,"imir":11451,"iments":11452,"Ġáŀ§áŀĳáŀļ":11453,"othe":11454,"aden":11455,"lycan":11456,"ĠDj":11457,"ĠHard":11458,"ĠHans":11459,"ĠHá»ĵ":11460,"ĠHVT":11461,"áŀ±áŀľ":11462,"ĠIll":11463,"ĠFort":11464,"chang":11465,"odo":11466,"emony":11467,"ayer":11468,"áŀīáŀıáŀī":11469,"ĠGoth":11470,"ĠGÃ¶":11471,"ĠLy":11472,"ĠLes":11473,"ĠLion":11474,"ĠLake":11475,"ĠLtd":11476,"ĠáŁ¡áŁ¥áŁ¥áŁł":11477,"ĠáŁ¡áŁ¥áŁ©áŁ¤":11478,"ĠKnow":11479,"ĠáŁ¡áŁ¨áŁ¡áŁł":11480,"ĠáŁ¡áŁ¨áŁ©áŁ¤":11481,"term":11482,"rave":11483,"ĠNinh":11484,"ĠáŁ¡áŁ¢áŁ¡áŁ¨":11485,"ĠWol":11486,"ĠWRX":11487,"Ġstone":11488,"Ġstabil":11489,"opt":11490,"ĠThen":11491,"avarman":11492,"áŀļáŀĨáŀĶ":11493,"ovis":11494,"Ġáŀĺáŀļáŀİáŀĳ":11495,"ĠáŁ¡áŁ£áŁłáŁł":11496,"ongyang":11497,"áŀĻáŀĳáŀŁ":11498,"ĠCarGran":11499,"Ġ39":11500,"Ġ350":11501,"áŀĶáŀĬáŀľ":11502,"ĠOx":11503,"ĠOtt":11504,"ounce":11505,"Ġsugar":11506,"arta":11507,"pton":11508,"Ġspiro":11509,"Ġcontents":11510,"Ġcontrib":11511,"reness":11512,"astic":11513,"Ġ]][[":11514,"phab":11515,"ĠThÃ©":11516,"peang":11517,"Ã©g":11518,"Ã©l":11519,"ĠáŀĻáŀŁáŀŁ":11520,"à¸²à¸¥":11521,"ĠStr":11522,"assion":11523,"Ġ66":11524,"Ġ69":11525,"Ġ1860":11526,"âĢĿ)":11527,"Ġ72":11528,"ĠáŁ¤áŁłáŁ¨":11529,"inder":11530,"Ġprison":11531,"ountain":11532,"Ġcompanies":11533,"Ġabst":11534,"issions":11535,"Ġ82":11536,"Ġ83":11537,"Ġ86":11538,"Ġflood":11539,"ĠAnother":11540,"Ġleaving":11541,"ĠáŁ£áŁ¥áŁ¢":11542,"obacter":11543,"Ġ104":11544,"191":11545,"Ġpeak":11546,"Ġeval":11547,"ĠXX":11548,"Ġinvaded":11549,"Ġprovides":11550,"Ġblind":11551,"ĠAlso":11552,"ĠAlbert":11553,"Äģt":11554,"ĠáŁ£áŁ¤áŁ¡":11555,"ĠáŁ£áŁ¤áŁ£":11556,"ĠáŁ£áŁ¤áŁ¨":11557,"ĠáŁ£áŁ¤áŁ¦":11558,"Ġsubm":11559,"Ġsubscript":11560,"ĠQt":11561,"ĠáŁ£áŁ¨áŁ¤":11562,"ĠáŁ£áŁ¨áŁ¦":11563,"ĠIndust":11564,"Ġdoing":11565,"Ġuseful":11566,"ĠáŁ£áŁ§áŁ¥":11567,"ĠáŁ£áŁ§áŁ£":11568,"ĠáŁ£áŁ§áŁ¦":11569,"ĠMarsh":11570,"Ġdepth":11571,"erted":11572,"ĠáŁ¤áŁ¢áŁ¥":11573,"áŀĤáŀłáŀľáŀı":11574,"ĠShakes":11575,"Ġobt":11576,"Ġobsc":11577,"Ġexpensive":11578,"à¸Ļà¸ª":11579,"Ġentre":11580,"yclop":11581,"including":11582,"ĠáŁ¡áŁ¨áŁ¨áŁł":11583,"oxide":11584,"Ġwriters":11585,"ĠáŁ¢áŁ¥áŁłáŁ¦":11586,"Ġincreases":11587,"ĠConvention":11588,"ilitary":11589,"=\"\"":11590,"ĠHanoi":11591,"Ġstudied":11592,"à¸§à¸¢":11593,"Ġextinct":11594,"ĠáŁ¥áŁ¨áŁ©":11595,"ĠáŁ©áŁ¡áŁł":11596,"Ġordinary":11597,"Ġcapable":11598,"ĠáŁ¡áŁ¨áŁ¥áŁ¤":11599,"Ġedit":11600,"áŀĵáŀĤáŀļáŀĶ":11601,"à¤¤":11602,"à¤¾":11603,"yme":11604,"Ġ1956":11605,"ĠáŁ¡áŁ¨áŁ¤áŁ¡":11606,"Ġtypical":11607,"ĠPlan":11608,"ĠPlant":11609,"ĠPlateau":11610,"ographs":11611,"Ġdiscover":11612,"Ġdiscourse":11613,"Ġpolitics":11614,"Ġ1987":11615,"ĠCommission":11616,"Ġstring":11617,"ĠáŁ¡áŁ¨áŁłáŁ¦":11618,"oeing":11619,"ĠáŁ¡áŁ¤áŁ£áŁ¤":11620,"Ġsucceeded":11621,"Ġrequires":11622,"Ġ1948":11623,"Ġmineral":11624,"Ġminimum":11625,"Ġprompt":11626,"Ġcharacteristics":11627,"ĠáŁ¡áŁłáŁ¥áŁ§":11628,"Ġauthors":11629,"Ġbacterium":11630,"ĠCentre":11631,"Ġbloody":11632,"Ġvaccines":11633,"Ġhands":11634,"ĠáŁ¡áŁ¡áŁ¤áŁ¥":11635,"greg":11636,"Ġhistorian":11637,"ĠáŁ¡áŁ¢áŁ¤áŁ£":11638,"ĠCarSRT":11639,"Ġtechnical":11640,"Ġdoesn":11641,"Ġtrees":11642,"Ġturkey":11643,"Ġturned":11644,"Ġlisted":11645,"ĠPrey":11646,"à¹Ģà¸Ľà¸£à¸¡":11647,"á»Ļc":11648,"Ġattempts":11649,"ĠáŀŁáŀļáŀĳáŀŁáŀĺ":11650,"ĠMoon":11651,"Ġintestines":11652,"Ġunderstood":11653,"Ġdistinction":11654,"Ġantibiotics":11655,"Ġorganisms":11656,"Ġsignificantly":11657,"Ġprincipal":11658,"Ġdefinitive":11659,"Ġresponsibility":11660,"Ġescrit":11661,"Ġimplementation":11662,"Ġhabit":11663,"Ġpronunci":11664,"Ġselenium":11665,"Ġinvestment":11666,"Ġ50306":11667,"Ġvolume":11668,"Ġconsisting":11669,"Ġapplications":11670,"Ġtraining":11671,"Ġforests":11672,"fectious":11673,"Ġmixing":11674,"Ġfeatured":11675,"Ġachieved":11676,"Ġnucle":11677,"Ġmucosa":11678,"Ġcomponent":11679,"Ġspeakers":11680,"ĠTrapeang":11681,"ĠDepression":11682,"Ġpotential":11683,"Ġceremony":11684,"à¸¶à¹Ī":11685,"Ġalgae":11686,"Ġdoub":11687,"Ġkidney":11688,"ĠSLR":11689,"ĠEvilFrost":11690,"ĠSpecial":11691,"Ġreduces":11692,"ĠTonle":11693,"Ġgarrison":11694,"Ġtremors":11695,"varavati":11696,"Ġsweet":11697,"Ġreforms":11698,"Ġexactly":11699,"Ġdisplay":11700,"ĠEchinococcus":11701,"ĠNikaya":11702,"Ġweapons":11703,"Ġdroppings":11704,"Ġ250503":11705,"abinet":11706,"Ġdehydration":11707,"ĠCarAlfa":11708,"ĠFlorida":11709,"à¸¥à¹Ģà¸Ńà¸ģà¹Ģà¸Ľà¸£à¸¡":11710,"Ġpheasants":11711,"ĠMosc":11712,"Ġanorexia":11713,"ĠáŀĶáŀļáŀĸáŀĽáŀŁ":11714,"aihatsu":11715,"ĠKampuchea":11716,"Ġ[âĢ¦]":11717,"ĠGothic":11718,"ĠShakespe":11719,"'.":11720,"101":11721,"250":11722,"220":11723,"Ag":11724,"App":11725,"Act":11726,"Bh":11727,"Dev":11728,"GE":11729,"God":11730,"Han":11731,"Harvard":11732,"IB":11733,"Japan":11734,"Limited":11735,"Michael":11736,"OW":11737,"Out":11738,"PN":11739,"Pop":11740,"San":11741,"Since":11742,"TC":11743,"Tim":11744,"TAC":11745,"Young":11746,"aur":11747,"bu":11748,"bsp":11749,"fly":11750,"fort":11751,"giving":11752,"ho":11753,"hard":11754,"horn":11755,"larg":11756,"lightenment":11757,"mo":11758,"mic":11759,"ped":11760,"rc":11761,"run":11762,"rand":11763,"tw":11764,"uer":11765,"vation":11766,"yles":11767,"¥¿":11768,"Â®":11769,"Ã½":11770,"áĢ":11771,"ç¾":11772,"ĠáŁĭ":11773,"Ġ00":11774,"áŀĢáŀĭ":11775,"áŀĢáŀľáŀĦ":11776,"áŀıáŀĢáŀĵ":11777,"áŀĺáŀļáŀı":11778,"áŀŁáŀŁáŀļ":11779,"áŀŁáŀłáŀĢáŀĺ":11780,"áŀĶáŀĢáŀı":11781,"áŀĶáŀĽáŀĵ":11782,"áŁĭ-":11783,"Ġáŀĵáŀľ":11784,"ĠáŀĢáŀĢáŀĢ":11785,"áŁģáŁĸ":11786,"ĠáŀŁáŀĤáŀĽ":11787,"ĠáŀŁáŀĶáŀī":11788,"áŁĦáŁĶ":11789,"ĠáŀĳáŀĴ":11790,"áŀľáŀļáŀĺ":11791,"áŀľáŀĺáŀĦ":11792,"áŀħáŀħáŀĵ":11793,"Ġáŀ¢áŀĽáŀĩ":11794,"Ġáŀĩáŀľ":11795,"áŀĸáŀĤ":11796,"áŀĸáŀĨ":11797,"áŀĤáŀĵáŀĵ":11798,"áŀĤáŀļáŀĶáŀļ":11799,"áŀīáŀĹ":11800,"áŀīáŀĴáŀĺ":11801,"ĠáŀıáŀĬ":11802,"áŀĩáŀĵáŀĢ":11803,"áŀĬáŀ¢":11804,"ĠáŀģáŀĦ":11805,"ĠáŀĲáŀĢ":11806,"áŀłáŀĶáŀī":11807,"áŀĴáŀĦ":11808,"áŀĴáŀĻáŀĢ":11809,"Ġáŀľáŀī":11810,"áŀĹáŀ¢áŀĢ":11811,"áŀĵáŀĢáŀļáŀĢáŀŁ":11812,"áŀĶáŀŁáŀ¥áŀŁ":11813,"áŀĲáŀŁáŀħ":11814,"áŀļáŀĢáŀĵ":11815,"áŀļáŀĢáŀĥ":11816,"áŀļáŀĦáŀı":11817,"Ġtag":11818,"Ġtri":11819,"Ġawa":11820,"heim":11821,"Ġáŀ¯áŀļ":11822,"áŀļáŀĺáŀł":11823,"áŀĶáŀıáŀİ":11824,"áŀļáŀİáŀĵ":11825,"áŀĥáŀĽáŀĦ":11826,"enues":11827,"Ġoes":11828,"atu":11829,"aty":11830,"atha":11831,"ĠáŀĻáŀĢáŀĳ":11832,"Ġsleep":11833,"Ġsneezing":11834,"âĢĳ":11835,"Ġcav":11836,"Ġcant":11837,"Ġcard":11838,"Ġcyan":11839,"itar":11840,"itism":11841,"ithel":11842,"orance":11843,"ĠáŁ£áŁ©áŁ¨":11844,"edd":11845,"áŀļáŀĢáŀĶáŀĳ":11846,"Ġwish":11847,"áŀĽáŀĶáŀĳ":11848,"Ġ->":11849,"icles":11850,"Ġpure":11851,"Ġpenicillin":11852,"Ġfed":11853,"Ġfle":11854,"Ġfif":11855,"Ġfill":11856,"Ġfought":11857,"Ġbor":11858,"Ġbodhisatt":11859,"áŀĶáŀĳáŀĽ":11860,"Ġdim":11861,"Ġdang":11862,"Ġdaughter":11863,"ouble":11864,"Ġmention":11865,"roak":11866,"ĠCost":11867,"ĠCER":11868,"ĠCrus":11869,"ĠCIV":11870,"ĠCá»Ļng":11871,"enton":11872,"Ġlake":11873,"ĠSqu":11874,"ĠSite":11875,"ĠSouthern":11876,"ĠáŀķáŀĽáŀī":11877,"áŁ£áŁ¡":11878,"áŁ¤áŁ¢":11879,"ĠTer":11880,"ĠTom":11881,"ĠTod":11882,"ĠToul":11883,"ĠTokyo":11884,"Ġhull":11885,"Ġhuge":11886,"Ġharb":11887,"áŁ¦áŁ¢":11888,"acu":11889,"ache":11890,"amest":11891,"ushed":11892,"ĠáŀĸáŀĽáŀĻáŀĢ":11893,"ĠAF":11894,"ols":11895,"eto":11896,"ether":11897,"etary":11898,"ĠMD":11899,"ĠMR":11900,"ĠMol":11901,"ĠMau":11902,"áŀıáŀĶáŀī":11903,"osen":11904,"Ġnorm":11905,"áŀĻáŀĺáŀĳ":11906,"ĠRaj":11907,"ĠBre":11908,"ĠBinh":11909,"ĠBook":11910,"ĠBrown":11911,"ĠBáº¡c":11912,"ĠBroadwing":11913,"ĠEP":11914,"uly":11915,"ulph":11916,"ĠPot":11917,"ĠPass":11918,"ĠáŀĶáŀĳáŀŁ":11919,"ĠáŀĶáŀĳáŀĶáŀĦ":11920,"idog":11921,"igon":11922,"Ġgrew":11923,"ivated":11924,"ĠDry":11925,"ĠDury":11926,"ĠDÃ¢":11927,"ĠHi":11928,"ĠHall":11929,"ĠHaw":11930,"ĠáŀĢáŀĦáŀľ":11931,"ĠIron":11932,"utra":11933,"ĠFu":11934,"ĠFreedom":11935,"Ġfort":11936,"áŀĢáŀļáŀİáŀŁ":11937,"unte":11938,"style":11939,"stances":11940,"uma":11941,"umption":11942,"ĠGrain":11943,"ĠGener":11944,"ĠGSR":11945,"ĠGargoyle":11946,"ĠList":11947,"ĠLama":11948,"ĠáŁ¡áŁ¥áŁ£áŁł":11949,"ĠKam":11950,"ersey":11951,"Ġvo":11952,"Ġvoc":11953,"ĠNFL":11954,"ĠWalker":11955,"ĠÂ»áŁĶ":11956,"oples":11957,"Ġ1917":11958,"Ġ1905":11959,"ĠTheravada":11960,"Ġoral":11961,"andon":11962,"Ġantic":11963,"iah":11964,"ĠáŁ©áŁłáŁłáŁłáŁł":11965,"aburi":11966,"ĠEvilR":11967,"quin":11968,"áŀĺáŀĤáŀĴ":11969,"ĠVinh":11970,"ĠVampire":11971,"illon":11972,"ĠJak":11973,"ĠJICA":11974,"ĠJewish":11975,"ĠJersey":11976,"ĠáŁ¡áŁ£áŁ¥áŁł":11977,"Ġ===":11978,"áŀĻáŀĬáŀĳ":11979,"apers":11980,"ĠCarol":11981,"ĠáŁ¡áŁ§áŁ©áŁ¦":11982,"Ġrig":11983,"ĠOcc":11984,"ĠOpen":11985,"Ġatrophy":11986,"ĠUnd":11987,"ĠUse":11988,"ptidog":11989,"Ġsplit":11990,"Ġchurch":11991,"ĠInternet":11992,"Ġcontributed":11993,"Ġ]]\"":11994,"phia":11995,"Ġdismiss":11996,"ĠáŀķáŀŁáŀŁ":11997,"Ġ46":11998,"Ġ59":11999,"ĠáŀłáŀĦáŀ¯áŀĦ":12000,"oys":12001,"Ġáŀļáŀİáŀľ":12002,"Ã©t":12003,"Ġunloading":12004,"à¸²à¸Ĥ":12005,"ĠStan":12006,"asses":12007,"áŀĦáŀ¢áŀĶ":12008,"Ġ67":12009,"Ġ68":12010,"Ġenjoy":12011,"Ġresidential":12012,"Ġplanned":12013,"ambi":12014,"acking":12015,"Ġcommit":12016,"inda":12017,"rama":12018,"vert":12019,"ĠFranc":12020,"Ġagar":12021,"Ġcompounds":12022,"ĠUnlike":12023,"Ġability":12024,"Ġ800":12025,"rick":12026,"ricts":12027,"ĠAnn":12028,"Ġelement":12029,"Ġ91":12030,"ĠáŁ£áŁ¥áŁ¦":12031,"obold":12032,"Ġpeoples":12033,"ambodia":12034,"ĠáŁ£áŁ£áŁ¨":12035,"ieda":12036,"ĠXIV":12037,"Ġoutput":12038,"Ġoverall":12039,"Ġtransport":12040,"Ġattached":12041,"Ġprove":12042,"Ġproved":12043,"ĠáŁ¡áŁ¨áŁ¦áŁ¥":12044,"iversal":12045,"Ġdeform":12046,"ĠComput":12047,"inton":12048,"Ġsubs":12049,"Ġsubstant":12050,"à¸¥à¸łà¸²à¸©":12051,"ancre":12052,"Ġinterv":12053,"Ġnewsp":12054,"ĠIndo":12055,"ĠMarc":12056,"Ġpoints":12057,"à¹Ģà¸§":12058,"ĠShaman":12059,"ĠShrike":12060,"Ġ1974":12061,"Ġdistress":12062,"insula":12063,"ĠáŁ¤áŁ£áŁ¥":12064,"ĠáŁ¤áŁ£áŁ¢":12065,"ĠAmericans":12066,"Ġmonitor":12067,"Ġmanifest":12068,"Ġcoins":12069,"ĠáŀĹáŀĤáŀľáŀĵ":12070,"accinate":12071,"ĠáŁ©áŁ¤áŁ§":12072,"Ġmaintain":12073,"Ġmoving":12074,"ienne":12075,"à¤µ":12076,"à¸Ĺà¸¢":12077,"ymb":12078,"Ġmilling":12079,"Ġ1952":12080,"Ġcharge":12081,"Ġdiscovered":12082,"Ġ1988":12083,"ĠCommand":12084,"Ġstrugg":12085,"Ġcontinue":12086,"LICA":12087,"Ġantis":12088,"Ġdirected":12089,"Ġ1942":12090,"Ġ1944":12091,"Ġcollections":12092,"Ġnecrotic":12093,"Ġoperating":12094,"à¹ĥà¸Ĭ":12095,"ĠáŁ¡áŁłáŁ¨áŁł":12096,"Ġdemanded":12097,"ĠáŁ¡áŁ¥áŁ¤áŁ¡":12098,"errari":12099,"sonian":12100,"Ġgreatly":12101,"ĠáŁ¡áŁ¥áŁ¥áŁ¥":12102,"Ġexistential":12103,"Ġconsumed":12104,"ĠÄĲáº¡i":12105,"Ġdomain":12106,"ĠáŁ¡áŁ§áŁ¦áŁ§":12107,"Ġpassage":12108,"Ġvalley":12109,"Ġopposition":12110,"ĠEducation":12111,"emptiness":12112,"Ġguarant":12113,"ECD":12114,"ĠáŁ¡áŁ£áŁ¦áŁ©":12115,"ĠáŁ¡áŁ¥áŁ§áŁ¦":12116,"à¸¹à¹ī":12117,"ĠCarSuz":12118,"ĠSerotype":12119,"Ġvisual":12120,"Ġmoral":12121,"Ġimmigr":12122,"Ġopened":12123,"Ġinitially":12124,"Ġattempted":12125,"iotic":12126,"Ġdestruct":12127,"ĠDevour":12128,"ĠHeritage":12129,"Ġhaemorrhagic":12130,"Ġindustrial":12131,"Ġclaims":12132,"Ġintegrated":12133,"rastructure":12134,"ascal":12135,"Ġviolin":12136,"Ġcolonies":12137,"ĠEconom":12138,"Ġsurvived":12139,"Ġcontinuing":12140,"ĠMountain":12141,"Ġimproved":12142,"ĠCommunity":12143,"itzer":12144,"Ġfeeling":12145,"ladimir":12146,"Ġsanitation":12147,"ĠPhotography":12148,"Ġefforts":12149,"Ġfootball":12150,"ĠHollywood":12151,"Ġpresidential":12152,"view":12153,"Ġmucous":12154,"TION":12155,"ĠVenom":12156,"Ġchemicals":12157,"epsi":12158,"Ġrarely":12159,"ĠPrairie":12160,"ĠGrammy":12161,"èĢĥ":12162,"Ġbrick":12163,"ĠHamas":12164,"áºŃn":12165,"Ġpermanent":12166,"Ġstrictly":12167,"Ġwrite":12168,"Ġdegree":12169,"ĠPhilippines":12170,"ĠMichel":12171,"Ġattendant":12172,"Deficiency":12173,"Ġtissue":12174,"Ġalternative":12175,"apeworms":12176,"Ġarmies":12177,"ĠSingapore":12178,"Ġprotein":12179,"Ġbegins":12180,"Ġconstitutional":12181,"Ġsovereignty":12182,"Ġtheoret":12183,"Ġcognitive":12184,"ĠFujieda":12185,"ĠCarDaihatsu":12186,"Ġopportunity":12187,"Ġbehavior":12188,"Ä©nh":12189,"Ġrejected":12190,"Ġfigures":12191,"elligence":12192,"Ġeunuchs":12193,"éĺ®":12194,"Ġcandid":12195,"Ġinclusion":12196,"ĠClerk":12197,"rehensive":12198,"Ġcounter":12199,"Ġatmosphere":12200,"Ġcrucial":12201,"cartes":12202,"ĠáŀĻáŀĺáŀıáŀĤ":12203,"ĠShakespeare":12204,"ĠCIVIC":12205,"ptidoglycan":12206,"ĠCarSuzuki":12207,"\"|":12208,"'ll":12209,"150":12210,"AB":12211,"AE":12212,"Att":12213,"BN":12214,"Buddh":12215,"DI":12216,"EO":12217,"Ec":12218,"Es":12219,"Gu":12220,"IP":12221,"Irak":12222,"Kar":12223,"Les":12224,"NB":12225,"Ni":12226,"Po":12227,"Pure":12228,"Queen":12229,"Rec":12230,"TP":12231,"Te":12232,"Tube":12233,"VOV":12234,"Water":12235,"Where":12236,"What":12237,"YO":12238,"ba":12239,"bat":12240,"bot":12241,"eo":12242,"eph":12243,"ga":12244,"jna":12245,"kind":12246,"mi":12247,"mor":12248,"minist":12249,"ping":12250,"rite":12251,"tl":12252,"uper":12253,"ving":12254,"vara":12255,"wory":12256,"ynam":12257,"zz":12258,"zsche":12259,"Ã¤":12260,"Î»":12261,"à¶":12262,"ä¼":12263,"å»":12264,"åĪ":12265,"åĽ":12266,"æ³":12267,"æĶ":12268,"ç¦":12269,"ç¶":12270,"çĽ":12271,"ðŁ":12272,"Ġ~":12273,"ĠáŁĨ":12274,"Ġà¹":12275,"Ġidi":12276,"áŀ©":12277,"Ġáŀº":12278,"áŀ¶âĢĿ":12279,"áŀĵáŀĨ":12280,"áŀĢáŀĬáŀĽ":12281,"áŀĢáŀĸáŀı":12282,"áŀıáŀļáŀı":12283,"áŀĽáŀıáŀı":12284,"áŀĻáŀıáŀĳ":12285,"áŀĺáŀļáŀľ":12286,"áŀŁáŀļáŀĬ":12287,"áŀŁáŀŁáŀĦ":12288,"áŀĶáŀļáŀŁ":12289,"ĠáŀĶáŀĩ":12290,"ĠáŀĶáŀľáŀı":12291,"ĠáŀĵáŀĹ":12292,"áŁĩ,":12293,"áŁĨáŁĴ":12294,"ĠáŀŁáŀģ":12295,"ĠáŀŁáŀĲ":12296,"áŀľáŀĻáŀĺ":12297,"áŀľáŀļáŀıáŀĵ":12298,"áŀ¼áŁģ":12299,"áŀĸáŀŁáŀĵ":12300,"áŀĸáŀľáŀĵ":12301,"ĠáŀħáŀŁ":12302,"áŀĤáŀĤ":12303,"áŀĤáŀļáŀł":12304,"áŀİáŀĺ":12305,"ĠáŀłáŀĶ":12306,"áŀ¢áŀħ":12307,"áŁīáŀ½":12308,"áŀĹáŀĴáŀĺ":12309,"áŀĵáŀĢáŀļáŀĽáŀı":12310,"áŀĵáŀĢáŀ¢áŀĶ":12311,"áŀĲáŀĻáŀħ":12312,"ĠáŀĨáŀ¡":12313,"áŀĭáŀĢáŀĵ":12314,"áŀļáŀĶáŀĲ":12315,"Ġtort":12316,"Ġtons":12317,"Ġtaught":12318,"Ġaffects":12319,"Ġáŀ¯áŀĤ":12320,"áŀĤáŀĽáŀı":12321,"áŀķáŀĤ":12322,"áŀļáŀİáŀĢáŀĺ":12323,"Ġáŀ¬áŀŁ":12324,"áŀĶáŀĦáŀĶ":12325,"Ġ][":12326,"áŀĶáŀĵáŀĬ":12327,"Ġ\"'":12328,"Ġsist":12329,"Ġsector":12330,"áŀľáŀĶáŀļ":12331,"aran":12332,"also":12333,"Ġcore":12334,"itness":12335,"itudes":12336,"orate":12337,"ĠáŁ£áŁ©áŁ¥":12338,"eder":12339,"áŀĻáŀĢáŀĶ":12340,"icense":12341,"Ġinner":12342,"ĠáŁ¥áŁ¡áŁ¤":12343,"Ġpil":12344,"Ġfum":12345,"Ġfast":12346,"Ġfair":12347,"Ġfashion":12348,"Ġbat":12349,"Ġbuy":12350,"Ġbank":12351,"Ġbomb":12352,"áŀıáŀĺáŀĹ":12353,"áŀĢáŀĬáŀļ":12354,"Ġdow":12355,"Ġdys":12356,"Ġdraft":12357,"Ġdaily":12358,"Ġducks":12359,"ela":12360,"elve":12361,"asi":12362,"asions":12363,"Ġmac":12364,"ilic":12365,"áŀĽáŀĦáŀĽ":12366,"áŀĽáŀĦáŀ²":12367,"rov":12368,"roke":12369,"áŁ¥áŁ§":12370,"ĠCop":12371,"ĠCivil":12372,"ĠCulture":12373,"ĠCzech":12374,"áŀŁáŀıáŀľáŀı":12375,"áŁ¢áŁłáŁł":12376,"Ġlov":12377,"Ġlies":12378,"Ġlex":12379,"ĠSP":12380,"ĠSant":12381,"ĠSony":12382,"áŀĵáŀĵáŀĵ":12383,"ĠTower":12384,"ĠTiff":12385,"ĠTarant":12386,"áŁ¨áŁ¨":12387,"Ġhang":12388,"aca":12389,"ĠáŁ¦áŁ¡áŁł":12390,"omycin":12391,"áŁ§áŁ¥":12392,"ami":12393,"amber":12394,"amente":12395,"ĠáŀĸáŀĽáŀŁ":12396,"oln":12397,"olo":12398,"olism":12399,"etime":12400,"áŀŁáŀļáŀĲ":12401,"ĠMen":12402,"ĠMatt":12403,"ĠáŀŁáŀłáŀĵ":12404,"ocated":12405,"Ġnhat":12406,"Ġáŀ®áŀļáŀĵ":12407,"ĠRay":12408,"ĠRab":12409,"ĠBag":12410,"ĠBab":12411,"ĠBowl":12412,"ĠBoeing":12413,"ĠEmer":12414,"Ġ240":12415,"ulous":12416,"ĠPut":12417,"ĠPay":12418,"ĠPrize":12419,"áŀĵáŀĢáŀŁáŀļáŀŁ":12420,"iger":12421,"igher":12422,"otte":12423,"aders":12424,"Ġgame":12425,"ĠDa":12426,"ĠDar":12427,"ĠDut":12428,"ĠDame":12429,"ĠDuong":12430,"ĠDvaravati":12431,"agne":12432,"ĠHarb":12433,"ĠId":12434,"ĠFree":12435,"Ġforward":12436,"odom":12437,"emn":12438,"Ġáŀ¢áŀĶáŀĽ":12439,"ĠLiver":12440,"Ġaspect":12441,"ĠáŁ¡áŁ¥áŁ©áŁ£":12442,"Ġbeautiful":12443,"ĠKa":12444,"ĠKm":12445,"ĠáŁ¡áŁ¨áŁ¡áŁ¥":12446,"ĠáŁ¡áŁ¨áŁ¡áŁ©":12447,"rawn":12448,"Ġvast":12449,"ĠNu":12450,"ĠNec":12451,"ĠNiet":12452,"ĠNext":12453,"ĠNash":12454,"Ġstret":12455,"áŁīáŁģáŁĴ":12456,"Ġ1927":12457,"Ġproof":12458,"Ġprohib":12459,"áŀļáŀĨáŀĢ":12460,"Ġcoming":12461,"ĠEvilRo":12462,"ĠJules":12463,"ĠJamest":12464,"egel":12465,"mented":12466,"ĠCarJ":12467,"sea":12468,"Ġexchange":12469,"ĠUs":12470,"ĠUnder":12471,"iana":12472,"arde":12473,"arded":12474,"perature":12475,"Ġchol":12476,"áŀļáŀģáŀĢáŀħ":12477,"Ġ...)":12478,"Ġnotable":12479,"aste":12480,"ĠáŁ¢áŁ¤áŁ©áŁ¥":12481,"Ġincom":12482,"Ġincidence":12483,"ereBull":12484,"ctic":12485,"ubble":12486,"áŀĢáŀľáŀĬ":12487,"Ġ54":12488,"ĠThanh":12489,"Ġseems":12490,"Ġunst":12491,"Ġunable":12492,"Ġunless":12493,"Ġuniform":12494,"Ġallows":12495,"áŀĢáŀĩáŀļ":12496,"ĠSte":12497,"ĠStory":12498,"acters":12499,"ipter":12500,"Ġ189":12501,"Ġ1800":12502,"Ġ1870":12503,"eping":12504,"ĠKhorat":12505,"Ġ71":12506,"Ġ76":12507,"ĠáŁ¤áŁłáŁ¡":12508,"ĠáŁ¤áŁłáŁ§":12509,"á»§":12510,"acked":12511,"ferences":12512,"à¸Ļà¸Ń":12513,"ationalism":12514,"rederick":12515,"issa":12516,"Ġphase":12517,"áŀĳáŀŁáŀľáŀı":12518,"Ġ81":12519,"Ġperception":12520,"áŀľáŀħáŀļáŀħ":12521,"ologists":12522,"à¸ģà¸£à¸°":12523,"Ġmeat":12524,"lick":12525,"Ġjournalism":12526,"Ġappropri":12527,"áŀĺáŀĽáŀĴáŀĺ":12528,"teen":12529,"hedral":12530,"âĢ¦âĢ¦":12531,"Ġroc":12532,"Ġroad":12533,"annon":12534,"áŀĤáŀľáŀĺ":12535,"Ġtransfer":12536,"Ġproviding":12537,"ĠáŁ£áŁ¦áŁ¡":12538,"Ġbless":12539,"Ġblocks":12540,"à¸¡à¸Ļà¸ķ":12541,"áŀ®áŀı":12542,"Ġairflow":12543,"ĠáŁ£áŁ¨áŁ¡":12544,"ĠáŁ£áŁ¨áŁ¥":12545,"ĠáŁ£áŁ¨áŁ¢":12546,"lined":12547,"atherine":12548,"ĠáŁ£áŁ§áŁ§":12549,"Ġdepos":12550,"Ġacadem":12551,"Ġoffensive":12552,"Ġpox":12553,"à¹Ģà¸Ĺ":12554,"Christ":12555,"Ġdevelopments":12556,"ĠShang":12557,"ilosophy":12558,"ĠReb":12559,"Ġ117":12560,"ĠáŁ¡áŁ¥áŁłáŁ¤":12561,"Ġ1976":12562,"Ġexpected":12563,"Ġassume":12564,"ĠáŁ¤áŁ£áŁ¡":12565,"ĠáŁ¤áŁ¤áŁł":12566,"à¹Ħà¸Ľ":12567,"Ġscene":12568,"ĠáŁ¡áŁ¨áŁ¨áŁ¡":12569,"à¸°à¹Ħà¸Ķ":12570,"ĠSpanish":12571,"Ġgenerate":12572,"ĠBee":12573,"ĠáŁ¦áŁ¥áŁ¦":12574,"ĠNewcastle":12575,"rator":12576,"ĠáŀħáŀĽáŀĢáŀļ":12577,"ĠáŁ¥áŁ¦áŁł":12578,"Ġextens":12579,"ĠáŁ¨áŁ§áŁł":12580,"ĠáŁ¡áŁ¨áŁ§áŁ¤":12581,"Ġ258":12582,"Ġgoal":12583,"Ġmoves":12584,"Ġserotypes":12585,"ĠáŁ¡áŁ¥áŁ¢áŁ©":12586,"Ġcarry":12587,"Ġcharacters":12588,"ĠáŁ¡áŁ¨áŁ¤áŁ©":12589,"Ġmetropolitan":12590,"Ġ1984":12591,"Ġrefl":12592,"Ġanalys":12593,"Ġmarketing":12594,"ĠáŁ¡áŁ§áŁ¨áŁ¢":12595,"Ġpossibly":12596,"Art":12597,"ĠEnlightenment":12598,"EREV":12599,"à¹ģà¸ķ":12600,"ĠáŁ¡áŁ¤áŁ¤áŁ¦":12601,"Ġapproaches":12602,"ipped":12603,"ĠPeace":12604,"Ġoldest":12605,"Ġtesting":12606,"ĠWeb":12607,"Ġseeing":12608,"ĠáŁ¡áŁłáŁ¦áŁ¦":12609,"ĠEdward":12610,"ĠáŁ¡áŁ¤áŁ¢áŁ¤":12611,"ĠáŁ¡áŁ£áŁ¥áŁ¡":12612,"Ġglob":12613,"ĠáŁ¡áŁ¤áŁ¨áŁ¥":12614,"Ġlasted":12615,"Ġchanging":12616,"elephone":12617,"ĠAbh":12618,"Ġbreeding":12619,"Ġzero":12620,"Ġproperly":12621,"ĠSyrie":12622,"Ã«n":12623,"Ġfunctional":12624,"Phil":12625,"University":12626,"https":12627,"glut":12628,"Ġ250714":12629,"ĠCorporation":12630,"Ġvisited":12631,"Ġsentences":12632,"Ġdevice":12633,"Ġefficient":12634,"ĠYouTube":12635,"Ġcamps":12636,"áŀıáŀļáŀŁáŀī":12637,"Ġcircular":12638,"Ġfacility":12639,"ĠDevice":12640,"ĠAirport":12641,"Ġreading":12642,"Ġantibodies":12643,"Ġgenus":12644,"ĠBoar":12645,"Ġjoin":12646,"Ġmyth":12647,"ĠCarFerrari":12648,"Ġtaxes":12649,"Ġbreast":12650,"ĠTaurus":12651,"Ġconcerns":12652,"ĠHoa":12653,"odhana":12654,"Ġwooden":12655,"lady":12656,"Ġsatell":12657,"Ġparents":12658,"Ġgradually":12659,"Ġgradient":12660,"Ġtrained":12661,"Ġsolid":12662,"Ġdigestive":12663,"Ġmassive":12664,"ĠMarketing":12665,"Ġambient":12666,"ĠEvilNautiloid":12667,"Ġroutes":12668,"eleton":12669,"ĠCHEV":12670,"Ġemployed":12671,"Ġbhikkhuni":12672,"Ġachieve":12673,"ĠTeam":12674,"Ġruled":12675,"ĠDescartes":12676,"rafts":12677,"ĠPortland":12678,"Ġbronze":12679,"Ġpainting":12680,"ĠJustin":12681,"ĠConfuc":12682,"Ġmaintaining":12683,"Ġdrinking":12684,"Evoker":12685,"Ġstunting":12686,"Ġrecommend":12687,"Ġpiece":12688,"Ġremembered":12689,"Ġpropag":12690,"ĠWildlife":12691,"Ġstrengthen":12692,"Ġengineering":12693,"Ġlinked":12694,"Ġ060209":12695,"Ġhorizont":12696,"à¸£à¸²à¸Ĭ":12697,"itroÃ«n":12698,"ROLET":12699,"ĠFairlady":12700,"Ġneighbor":12701,"Ġdominant":12702,"European":12703,"Ġcaecal":12704,"ĠCongress":12705,"Ġmuseums":12706,"Æ°á»Ŀ":12707,"æĽ¸":12708,"Ġduties":12709,"Ġthreatened":12710,"ĠSupreme":12711,"Ġhundred":12712,"Ġconversion":12713,"Ġincorpor":12714,"Ġcrowd":12715,"Ġextremely":12716,"Ġnortheast":12717,"ĠBrady":12718,"adelphia":12719,"Ã©rica":12720,"Ġparallel":12721,"Ġlyrics":12722,"Ð°Ð":12723,"ĠDuryodhana":12724,"ambiÃ©n":12725,"ĠTarantula":12726,"ĠLiverpool":12727,"ĠNietzsche":12728,"ĠNashville":12729,"à¸¡à¸Ļà¸ķà¸£":12730,"EREVAN":12731,"ĠCHEVROLET":12732,"()":12733,"-)":12734,"?'":12735,"AL":12736,"Ary":12737,"CO":12738,"Ca":12739,"Can":12740,"DK":12741,"Feed":12742,"GP":12743,"Hu":12744,"IG":12745,"LR":12746,"List":12747,"LÃª":12748,"MN":12749,"Mal":12750,"Note":12751,"News":12752,"Pol":12753,"QL":12754,"RY":12755,"Royal":12756,"Sen":12757,"TY":12758,"WD":12759,"bh":12760,"bar":12761,"bus":12762,"band":12763,"bell":12764,"born":12765,"bird":12766,"cam":12767,"chem":12768,"dist":12769,"gov":12770,"gill":12771,"harm":12772,"haps":12773,"iem":12774,"ience":12775,"ki":12776,"km":12777,"kha":12778,"kega":12779,"lets":12780,"mg":12781,"mus":12782,"pine":12783,"pha":12784,"public":12785,"rong":12786,"rift":12787,"rÃª":12788,"sub":12789,"tog":12790,"vis":12791,"vas":12792,"vey":12793,"xi":12794,"yth":12795,"ygen":12796,"Ãī":12797,"ÙĬ":12798,"å¼":12799,"åŃ":12800,"æļ":12801,"æŁ":12802,"áŁĴáŀ¸":12803,"áŀļáŀĭ":12804,"áŀļáŀļáŀľáŀĽ":12805,"áŀļáŀ³":12806,"áŀĵáŀĸáŀĽ":12807,"áŀĦáŀ¢áŀĦ":12808,"áŀĢáŀĦáŀĢ":12809,"áŀĽáŀ£":12810,"áŀĺáŀľáŀĦ":12811,"áŀ»áŁį":12812,"áŀŁáŀļáŀĦ":12813,"ĠáŀĶáŀĤ":12814,"Ġáŀĳáŀļ":12815,"ĠáŀĸáŀĸáŀŁ":12816,"áŀľáŀŁáŀĹ":12817,"áŀľáŀĻáŀī":12818,"áŀħáŀļáŀĦ":12819,"áŀħáŀļáŀĶ":12820,"áŀħáŀŁáŀĦ":12821,"Ġáŀ¢áŀĢáŀļ":12822,"ĠáŀĩáŀĽáŀŁ":12823,"áŀĸáŀĲ":12824,"ĠáŀļáŀŁáŀı":12825,"áŀīáŀİ":12826,"áŀĬáŀľ":12827,"áŀĬáŀī":12828,"áŀĬáŀĹ":12829,"áŀĬáŀĤáŀļ":12830,"áŀĬáŀļáŀĴ":12831,"áŀĬáŀļáŀŁáŀĢ":12832,"ĠáŀĲáŀĽ":12833,"ĠáŀĲáŀŁ":12834,"áŀģáŀļáŀĸ":12835,"áŀłáŀļáŀı":12836,"áŀĴáŀľáŀĵ":12837,"áŀ¢áŀĺáŀļ":12838,"ĠáŀŁáŀĺáŀī":12839,"ĠáŀŁáŀĺáŀĻáŀľ":12840,"áŀĲáŀŁáŀĦ":12841,"áŀºáŁĩ":12842,"áŀļáŀĢáŀİ":12843,"Ġtick":12844,"Ġapart":12845,"ĠáŀĪáŀļáŀĩ":12846,"Ġáŀ¯áŀ¡":12847,"Ġáŀ¯áŀĢáŀĺáŀĵ":12848,"áŀķáŀĢ":12849,"onne":12850,"anied":12851,"ĠáŀĶáŀļáŀħ":12852,"Ġáŀ¢áŀĵáŀļ":12853,"isa":12854,"isf":12855,"Ġsav":12856,"Ġsolar":12857,"Ġsrc":12858,"Ġcrim":12859,"Ġcateg":12860,"Ġcovered":12861,"Ġcoccidiosis":12862,"Ġcoughing":12863,"orum":12864,"orgh":12865,"ĠáŁ£áŁ©áŁ¤":12866,"áŀļáŀıáŀı":12867,"Ġwoman":12868,"áŀĽáŀĶáŀħ":12869,"Ġpp":12870,"Ġpet":12871,"Ġpick":12872,"Ġpaint":12873,"Ġpseud":12874,"Ġfear":12875,"Ġfolk":12876,"Ġbig":12877,"Ġbanned":12878,"áŀıáŀĺáŀħ":12879,"áŀĶáŀĳáŀĳ":12880,"áŀ¯áŀĢáŀļ":12881,"Ġdict":12882,"Ġdense":12883,"oura":12884,"ione":12885,"asher":12886,"asure":12887,"Ġmir":12888,"Ġmort":12889,"ĠmÃ¡s":12890,"áŀĻáŀŁáŀĢáŀĺ":12891,"rose":12892,"rovers":12893,"áŀĻáŀĵáŀĹ":12894,"Ġáŀ¢áŀıáŀĶ":12895,"ĠCore":12896,"ĠCross":12897,"ĠCream":12898,"Ġtomb":12899,"Ġliv":12900,"ĠSC":12901,"ĠSix":12902,"ĠSund":12903,"ĠScience":12904,"ĠSanta":12905,"ĠSauss":12906,"áŀľáŀĢáŀī":12907,"áŁ£áŁ©":12908,"áŀıáŀĳáŀı":12909,"ĠTag":12910,"ĠTibet":12911,"Ġholes":12912,"áŀĢáŀŁáŀħ":12913,"áŁ¦áŁ¥":12914,"amine":12915,"econd":12916,"ecurity":12917,"áŀĢáŀĤáŀĵ":12918,"ĠáŀŁáŀĺáŀİáŀĹ":12919,"olph":12920,"etrac":12921,"ĠMY":12922,"ĠMong":12923,"ĠMach":12924,"ĠMerc":12925,"Ġrenow":12926,"Ġreaction":12927,"oche":12928,"Ġnood":12929,"Ġnative":12930,"Ġnull":12931,"ĠáŀŁáŀĢáŀĦ":12932,"ĠRam":12933,"ĠRats":12934,"ĠRacing":12935,"áŀļáŀĤáŀļáŀĶáŀĢ":12936,"ĠBon":12937,"ĠBus":12938,"ĠEs":12939,"Ġ220":12940,"urban":12941,"áŀģáŀİáŀŁ":12942,"ĠPa":12943,"ĠPom":12944,"idow":12945,"igion":12946,"igital":12947,"irty":12948,"áŀĽáŀĢáŀĶ":12949,"áŀĽáŀĢáŀľ":12950,"Ġáŀ§áŀĳáŀĻáŀĸ":12951,"ader":12952,"Ġgold":12953,"Ġego":12954,"ĠDo":12955,"ĠDon":12956,"ĠDuc":12957,"ĠDron":12958,"ĠDream":12959,"ĠDynasty":12960,"ĠDaguerre":12961,"ĠHow":12962,"ĠHue":12963,"ĠHegel":12964,"owing":12965,"utely":12966,"ĠFin":12967,"ĠFBI":12968,"odhi":12969,"empl":12970,"ĠGood":12971,"ĠLev":12972,"ĠLine":12973,"ĠLORD":12974,"Ġaspects":12975,"Ġonline":12976,"ĠKier":12977,"ĠKola":12978,"ĠáŁ¡áŁ¨áŁ¢áŁł":12979,"Ġveh":12980,"angel":12981,"ĠWed":12982,"Ġstir":12983,"Ġstable":12984,"Ġstyles":12985,"oper":12986,"áŀĽáŀĺáŀĢáŀľ":12987,"Ġproced":12988,"ifference":12989,"aven":12990,"avid":12991,"ande":12992,"andy":12993,"iae":12994,"iau":12995,"overs":12996,"Ġcomments":12997,"antly":12998,"uclear":12999,"ĠEvilSh":13000,"quir":13001,"ĠVer":13002,"ĠVOD":13003,"ĠJr":13004,"ĠJournal":13005,"ego":13006,"akka":13007,"ender":13008,"arya":13009,"riage":13010,"rief":13011,"áŀĢáŀĳáŀļ":13012,"Ġrats":13013,"Ġexud":13014,"Ġexerc":13015,"áŀĤáŀĵáŀĻ":13016,"áŀ£áŀļ":13017,"Ġsports":13018,"Ġusage":13019,"Ġkh":13020,"pergill":13021,"Ġchosen":13022,"Ġchamber":13023,"ewis":13024,"haw":13025,"Then":13026,"Ġformally":13027,"ibh":13028,"áŀĤáŀĩáŀı":13029,"Ġ53":13030,"Ġ57":13031,"Ġ58":13032,"Ġunion":13033,"Ġalliance":13034,"ĠStev":13035,"actic":13036,"Ġ63":13037,"Ġenemy":13038,"ĠáŁ¥áŁłáŁ¥":13039,"ĠáŁ¤áŁłáŁ£":13040,"ĠáŁ¤áŁłáŁ©":13041,"á»ī":13042,"Ġplate":13043,"ĠYes":13044,"ĠYao":13045,"ĠYellow":13046,"Ġcommission":13047,"very":13048,"Ġprince":13049,"ĠFranÃ§ois":13050,"Ġaggreg":13051,"áŀ§áŀĶáŀĢáŀļáŀİ":13052,"Ġabnormal":13053,"Ġabandon":13054,"Ġmayor":13055,"Ġpartners":13056,"Ġflash":13057,"áŀľáŀħáŀĽáŀĵ":13058,"ports":13059,"Ġqualities":13060,"Ġleuc":13061,"ĠáŁ£áŁ¥áŁ¡":13062,"neum":13063,"Ġpeep":13064,"Ġevap":13065,"ĠXuyen":13066,"àºĬ":13067,"àºĶ":13068,"Ġrelation":13069,"rows":13070,"ĠArts":13071,"ugu":13072,"Ġtransitional":13073,"Ġattacks":13074,"atty":13075,"Äģda":13076,"Ġdefense":13077,"Ġvaried":13078,"ancy":13079,"ĠáŁ¡áŁ©áŁłáŁ©":13080,"Ġinterval":13081,"Ġdioxide":13082,"ĠáŁ¤áŁ¢áŁ§":13083,"ĠáŁ¤áŁ¢áŁ©":13084,"à¹Ģà¸Ĭ":13085,"ĠSodaP":13086,"ĠShiva":13087,"ĠReut":13088,"Ġexpression":13089,"Ġdistricts":13090,"Ġassigned":13091,"Ġentitled":13092,"Ġáŀ¢áŀĺáŀıáŀĴ":13093,"ĠáŁ¤áŁ£áŁ£":13094,"ĠáŁ¤áŁ£áŁ©":13095,"ycot":13096,"incoln":13097,"ĠSpace":13098,"undai":13099,"ĠáŁ¥áŁ¥áŁłáŁł":13100,"ĠáŁ¥áŁ¥áŁ§":13101,"ĠBeijing":13102,"Ġsurre":13103,"icted":13104,"Ġstudent":13105,"Ġstudio":13106,"à¸´à¹Ī":13107,"Ġextend":13108,"Ġextreme":13109,"ĠáŁ¡áŁ¨áŁ§áŁ©":13110,"Ġ1937":13111,"ĠáŁ¦áŁ£áŁ§":13112,"ĠIslam":13113,"ourself":13114,"Ġdeliv":13115,"Ġserp":13116,"Ġpersist":13117,"Ġperspect":13118,"Ġ1955":13119,"Ġ1957":13120,"Ġ1958":13121,"ĠáŁ¡áŁ¨áŁ¤áŁ¨":13122,"ĠáŁ¡áŁ¨áŁ¤áŁ§":13123,"Ġskeletal":13124,"ĠOrig":13125,"poses":13126,"Ġclasses":13127,"à¸ļà¸Ĺ":13128,"Ġsomew":13129,"iá»ģn":13130,"ĠáŁ¡áŁ¨áŁłáŁ©":13131,"Ġcontinues":13132,"helsea":13133,"ĠáŁ§áŁ§áŁ¡":13134,"Ġgives":13135,"Ġdetect":13136,"Ġdirector":13137,"ĠNationale":13138,"Ġáŀ³áŀĢ":13139,"Ġ1943":13140,"idden":13141,"Ġpromoted":13142,"ĠOnce":13143,"Ġidentify":13144,"Posted":13145,"Ġcomputing":13146,"ĠÄĲá»ĭnh":13147,"Ġhandling":13148,"Ġexplo":13149,"ĠEdition":13150,"ĠáŁ¡áŁ§áŁ¥áŁ¢":13151,"Ġsusp":13152,"ĠAuguste":13153,"nsworth":13154,"Ġ1968":13155,"raction":13156,"Ġbreeder":13157,"ĠáŁ¡áŁ¢áŁ£áŁ¨":13158,"ĠáŁ¡áŁ¤áŁ§áŁ¡":13159,"Ġproperty":13160,"class":13161,"Ġtoxins":13162,"ĠMaur":13163,"ĠAnglo":13164,"ĠáŁ¡áŁ£áŁ§áŁ¢":13165,"ĠáŁ¡áŁ£áŁ§áŁ£":13166,"ĠPreah":13167,"Ġreceive":13168,"ammation":13169,"Ġreplacement":13170,"stranded":13171,"Ġsemi":13172,"Ġpurposes":13173,"Ġsettled":13174,"ĠCaptain":13175,"Ã²n":13176,"door":13177,"forated":13178,"ĠWalter":13179,"Ġissued":13180,"à¸²à¹Ħà¸Ľ":13181,"ĠCELICA":13182,"Ġfaecal":13183,"asping":13184,"aspian":13185,"aguar":13186,"Ġimplemented":13187,"Äĥng":13188,"Ġafford":13189,"Ġaffairs":13190,"Ġscientists":13191,"ĠReichstag":13192,"Ġsacs":13193,"áŀĦáŀĹáŀĻ":13194,"Ġshare":13195,"Ġbroadcast":13196,"Ġdetermined":13197,"chery":13198,"Ġoffered":13199,"Ġembryos":13200,"Ġultimate":13201,"ĠRussell":13202,"Ġgovernor":13203,"Ġboard":13204,"ĠFarnsworth":13205,"ĠHindenburg":13206,"ĠNicolas":13207,"Ġgods":13208,"ĠChÃ¢u":13209,"Ġaddresses":13210,"Ġtribut":13211,"ĠBernard":13212,"ĠJustice":13213,"ĠGeorges":13214,"Ġarrived":13215,"teca":13216,"Marie":13217,"éĻ³":13218,"Ġinspired":13219,"Ġbreathing":13220,"ĠLinux":13221,"Ġmanufacturing":13222,"ĠOrganization":13223,"Ġcopies":13224,"ĠTiger":13225,"ĠHayes":13226,"Ġascites":13227,"Ġoxygen":13228,"Ġhomes":13229,"ĠMotors":13230,"Ġcartilage":13231,"ĠTuol":13232,"openh":13233,"Ġinterpretation":13234,"Ġbeliefs":13235,"Henri":13236,"ĠDVD":13237,"Ġarticle":13238,"Ġcorresponding":13239,"ĠNobel":13240,"Ġsubsequent":13241,"iege":13242,"Ġsquare":13243,"Ġcustom":13244,"Ġrepeated":13245,"Ġconstraint":13246,"Ġcosm":13247,"ĠTechnology":13248,"ĠHypertext":13249,"Ġstrategy":13250,"ĠSodaMountain":13251,"Ġdemonstr":13252,"Ġingredient":13253,"Ġdedicated":13254,"ĠEgypte":13255,"Ġcontemporary":13256,"Ġagricultural":13257,"Ġcoalition":13258,"Ġadvantage":13259,"Ġexecutive":13260,"Jacques":13261,"ĠHugo":13262,"à¸²à¸Ħà¸¡":13263,"ophagus":13264,"ĠAtlantic":13265,"Ø§Ù":13266,"Ġreinfor":13267,"Ġwebsite":13268,"Ġphosphorus":13269,"Ġaccompanied":13270,"eloped":13271,"Ġthorough":13272,"uckerberg":13273,"iterranean":13274,"Ġmerchants":13275,"ĠNapoleon":13276,"English":13277,"WORLD":13278,"keley":13279,"ãĥ»":13280,"ĠMeeGo":13281,"ĠOxford":13282,"Ġobtained":13283,"Ġawareness":13284,"Ġoesophagus":13285,"Ġcavity":13286,"ĠDÃ¢ng":13287,"VOVWORLD":13288,"YOTA":13289,"ĠJamestown":13290,"kegaard":13291,"rÃªk":13292,"ĠSaussure":13293,"Ġrenowned":13294,"ĠKierkegaard":13295,"\"[":13296,"%).":13297,"'m":13298,",âĢĿ":13299,"/.":13300,"600":13301,"Age":13302,"BBC":13303,"Code":13304,"ES":13305,"Ear":13306,"Fl":13307,"HS":13308,"Ha":13309,"Home":13310,"Johann":13311,"King":13312,"LP":13313,"Let":13314,"Mad":13315,"Not":13316,"Next":13317,"PG":13318,"Pali":13319,"Rome":13320,"Rep":13321,"Roman":13322,"Sm":13323,"Sing":13324,"Type":13325,"TER":13326,"Total":13327,"Video":13328,"cy":13329,"cons":13330,"cura":13331,"des":13332,"gi":13333,"government":13334,"har":13335,"hist":13336,"iary":13337,"iper":13338,"mal":13339,"mong":13340,"more":13341,"nes":13342,"nel":13343,"nut":13344,"paper":13345,"rang":13346,"rust":13347,"rations":13348,"rÄģ":13349,"sa":13350,"she":13351,"spe":13352,"shell":13353,"tra":13354,"trans":13355,"uo":13356,"uing":13357,"uent":13358,"vet":13359,"weg":13360,"wak":13361,"yrie":13362,"¬åŁ":13363,"ÏĤ":13364,"Ð¾":13365,"Ø±":13366,"æī":13367,"æŃ":13368,"ĠÅ":13369,"Ġé":13370,"Ġrom":13371,"Ġà¹ģà¸¥à¸°":13372,"Ġáŀį":13373,"áŀļáŀļáŀĤ":13374,"áŀĵáŀļáŀŁ":13375,"áŀĵáŀļáŀİ":13376,"áŀĵáŀĤáŀĺ":13377,"áŀĦáŀĹáŀı":13378,"áŀ·áŁĨ":13379,"áŀ·áŁĪ":13380,"áŀĽáŀľáŀĵ":13381,"áŀĺáŀļáŀıáŀĵ":13382,"áŀ»áŀ»":13383,"áŀŁáŀļáŀĳ":13384,"áŀŁáŀļáŀıáŀĵ":13385,"áŀĶáŀļáŀĽáŀı":13386,"Ġáŀĵáŀļáŀĵ":13387,"ĠáŀĬáŀĢáŀħ":13388,"ĠáŀĸáŀŁáŀĸ":13389,"áŀħáŀļáŀĬ":13390,"áŀħáŀħáŀĺ":13391,"Ġáŀ¢áŀļáŀİ":13392,"áŀĳáŀŁáŀĺ":13393,"áŀĳáŀŁáŀħ":13394,"áŀĳáŀĢáŀĹ":13395,"áŀĳáŀľáŀł":13396,"ĠáŀĩáŀĻáŀĺ":13397,"áŀīáŀĴ":13398,"áŀīáŀĶáŀı":13399,"áŀİáŀľáŀĦ":13400,"ĠáŀıáŀĶáŀĵ":13401,"ĠáŀĤáŀĸ":13402,"áŀĩáŀŁáŀĹ":13403,"áŀĩáŀĻáŀľ":13404,"áŀĬáŀŁáŀī":13405,"áŀłáŀŁáŀĺ":13406,"áŀĴáŀĢáŀľ":13407,"áŀ¢áŀĲ":13408,"áŀ¢áŀłáŀĦ":13409,"ĠáŀĻáŀŁáŀĩ":13410,"áŀ¡áŀłáŀı":13411,"áŁĪ,":13412,"áŀĵáŀĢáŀļáŀĶ":13413,"áŀĵáŀĢáŀļáŀħáŀĵ":13414,"ĠáŀŁáŀĺáŀĴáŀĺ":13415,"áŁīáŀ¶)":13416,"áŀºáŁĴ":13417,"áŀºáŁģ":13418,"áŀħáŀĢáŀĦ":13419,"áŀļáŀĢáŀ²":13420,"áŀļáŀĢáŀĦáŀĳ":13421,"Ġ(--":13422,"Ġtried":13423,"Ġtarget":13424,"inity":13425,"áŀļáŀĺáŀļáŀıáŀĢ":13426,"áŀ¿áŁĴ":13427,"onian":13428,"eric":13429,"áŀļáŀİáŀı":13430,"áŀļáŀİáŀŁ":13431,"áŀŁáŀĵáŀŁ":13432,"áŀŁáŀĵáŀĳ":13433,"restr":13434,"áŀĩáŀĵáŀĹ":13435,"anj":13436,"anos":13437,"anne":13438,"áŀĮáŀĩ":13439,"áŀĺáŀĢáŀĢ":13440,"áŀĺáŀĢáŀı":13441,"atur":13442,"atics":13443,"ĠáŀĻáŀĢáŀŁ":13444,"Ġsen":13445,"Ġsoutheast":13446,"Ġsiege":13447,"arter":13448,"arium":13449,"alt":13450,"iture":13451,"orter":13452,"orient":13453,"ĠáŁ£áŁ©áŁ©":13454,"eda":13455,"edy":13456,"Ġáŀ±áŀŁáŀı":13457,"áŀĢáŀļáŀģ":13458,"Ġwatch":13459,"ĠáŁ¤áŁ¡áŁ¥":13460,"ĠáŁ¤áŁ¡áŁ¤":13461,"Ġáŀļáŀĺáŀĵ":13462,"Ġ-)":13463,"icy":13464,"icular":13465,"ĠáŁ¥áŁ¡áŁ£":13466,"ĠáŁ¥áŁ©áŁ¨":13467,"Ġpav":13468,"Ġpall":13469,"Ġbes":13470,"Ġbins":13471,"Ġbrief":13472,"áŀĶáŀĳáŀĬ":13473,"áŀĢáŀĬáŀŁ":13474,"ingly":13475,"áŀ¯áŀĳ":13476,"áŀļáŀħáŀļ":13477,"áŁ¡áŁ©áŁ§":13478,"oux":13479,"eld":13480,"eless":13481,"aser":13482,"Ġmol":13483,"Ġmand":13484,"Ġmagn":13485,"Ġmyst":13486,"iled":13487,"áŀĽáŀĦáŀ¢":13488,"ĠáŀŁáŀĵáŀĶ":13489,"áŀŁáŀĽáŀľ":13490,"áŁ¥áŁ¥":13491,"ĠCell":13492,"ĠSA":13493,"ĠSin":13494,"ĠSis":13495,"ĠSamb":13496,"ĠSeveral":13497,"ĠSigns":13498,"ĠSnail":13499,"áŀľáŀĢáŀĵ":13500,"áŁ¤áŁ§":13501,"áŀıáŀĳáŀĵ":13502,"áŀĵáŀĵáŀļáŀĢ":13503,"ĠTam":13504,"ĠTest":13505,"ĠTak":13506,"ĠTony":13507,"áŁ¨áŁ¥":13508,"áŁ¨áŁ¢":13509,"ĠáŁ¨áŁ©áŁ£":13510,"acch":13511,"ĠáŁ¦áŁ¥áŁł":13512,"ĠáŁ¦áŁ¡áŁ¥":13513,"ĠáŁ¦áŁ¡áŁ§":13514,"omodo":13515,"ament":13516,"áŀĢáŀĽáŀĺ":13517,"áŀĵáŀĩáŀī":13518,"ĠÂ²":13519,"olation":13520,"etes":13521,"ĠMem":13522,"ĠMary":13523,"ĠMall":13524,"ĠMust":13525,"áŀĢáŀĵáŀļáŀĩáŀĵ":13526,"áŀıáŀĶáŀĴáŀĺ":13527,"ĠáŀŁáŀłáŀľ":13528,"oscope":13529,"Ġnar":13530,"Ġnests":13531,"Ġthym":13532,"lein":13533,"ĠRama":13534,"áŀļáŀĤáŀĵ":13535,"ĠBol":13536,"ĠBul":13537,"ĠBack":13538,"ĠEin":13539,"ĠEgg":13540,"urance":13541,"urai":13542,"urches":13543,"ulum":13544,"ĠPak":13545,"ĠPure":13546,"ĠPoultry":13547,"ĠPascal":13548,"ĠâĢ¦(":13549,"ĠáŀĶáŀĳáŀĢ":13550,"idum":13551,"igation":13552,"igue":13553,"áŀĢáŀħáŀı":13554,"áŀĽáŀĵáŀĻáŀĽáŀĢ":13555,"adi":13556,"adha":13557,"adÃ©m":13558,"Ġgerm":13559,"Ġgetting":13560,"ivitis":13561,"ĠDang":13562,"ĠDisc":13563,"ĠDPP":13564,"ĠDonald":13565,"ĠDespite":13566,"aga":13567,"agin":13568,"ĠHir":13569,"ĠHIV":13570,"uto":13571,"uting":13572,"ĠFern":13573,"ĠFord":13574,"ĠForm":13575,"ĠFields":13576,"chi":13577,"ods":13578,"oding":13579,"odore":13580,"ĠáŁ¢áŁłáŁ¢áŁł":13581,"áŀļáŀļáŀī":13582,"ste":13583,"store":13584,"ayan":13585,"umen":13586,"umes":13587,"umber":13588,"ĠLut":13589,"ĠLud":13590,"ĠLarv":13591,"ĠLewis":13592,"Ġonset":13593,"Ġbeetles":13594,"ĠKC":13595,"ĠKel":13596,"ĠKrish":13597,"Ġvision":13598,"Ġvocal":13599,"ĠNet":13600,"ĠNong":13601,"ĠNOD":13602,"ĠWat":13603,"ĠWay":13604,"ĠÂ»,":13605,"Ġstations":13606,"Ġsteps":13607,"Ġstreet":13608,"opes":13609,"opher":13610,"opoly":13611,"Ġ1926":13612,"Ġ1924":13613,"iffer":13614,"avery":13615,"áŀŁáŀĳáŀĺ":13616,"áŀ·áŁįáŁĴ":13617,"ovann":13618,"ĠáŁ¡áŁ¤áŁłáŁł":13619,"ĠáŁ¡áŁ¤áŁ¡áŁ¦":13620,"antra":13621,"aba":13622,"ĠEvilH":13623,"ĠáŁ¡áŁ¦áŁ¡áŁ£":13624,"ĠáŁ¡áŁ¦áŁ¢áŁł":13625,"ĠVe":13626,"ĠVy":13627,"ĠVar":13628,"ĠValk":13629,"ĠJim":13630,"ĠJuan":13631,"aker":13632,"ende":13633,"endum":13634,"ĠChoms":13635,"rient":13636,"riarch":13637,"ichi":13638,"ogue":13639,"Ġrural":13640,"Ġrhet":13641,"Ġexists":13642,"Ġexhib":13643,"Ġexclus":13644,"ourage":13645,"Ġyolk":13646,"elli":13647,"áŀ£áŀĢ":13648,"iano":13649,"Ġkn":13650,"Ġkern":13651,"Ġcontrad":13652,"Ġnotice":13653,"Ġinco":13654,"áŀĵáŀļáŀĩáŀĵ":13655,"uby":13656,"ĠáŀĶáŀļáŀĺáŀĶ":13657,"plates":13658,"Ġdisciples":13659,"Ġ52":13660,"aust":13661,"ĠThough":13662,"ĠThanks":13663,"ĠThÃłnh":13664,"ĠáŁ¢áŁ¡áŁłáŁłáŁł":13665,"Ġseats":13666,"à¸²à¸ª":13667,"à¸²à¸«":13668,"à¸²à¸ķ":13669,"ĠStaph":13670,"evertheless":13671,"áŀĽáŀĻáŀĢáŀĺáŀĢ":13672,"Ġintent":13673,"ĠáŀļáŀıáŀĵáŀĶáŀĽ":13674,"ipede":13675,"Ġshaped":13676,"Ġ1893":13677,"Ġresources":13678,"Ġ78":13679,"Ġ79":13680,"Ġclub":13681,"order":13682,"ĠáŁ¤áŁłáŁ¢":13683,"ĠáŁ¤áŁłáŁ¦":13684,"onde":13685,"á»Ń":13686,"Ġplot":13687,"ĠYEREVAN":13688,"ollis":13689,"à¸Ļà¸ģ":13690,"itionally":13691,"Ġcompassion":13692,"Ġcomprehensive":13693,"Ġphil":13694,"-----":13695,"Ġ88":13696,"Ġáŀ¢áŀĸáŀĺáŀĦ":13697,"Ġparte":13698,"Ġpartial":13699,"Ġperforated":13700,"Ġflight":13701,"Ġelabor":13702,"Ġeleph":13703,"Ġcentre":13704,"Ġ96":13705,"Ġjoint":13706,"à¸£à¸ĩ":13707,"brid":13708,"ĠáŁ£áŁ¥áŁ¥":13709,"ĠáŁ£áŁ¥áŁ¨":13710,"ĠPhum":13711,"ĠPhra":13712,"Ġprest":13713,"Ġprecept":13714,"à¹Ģà¸ģà¸¥":13715,"ĠHeart":13716,"Ġroom":13717,"Ġroll":13718,"Ġroof":13719,"Ġroads":13720,"eneration":13721,"Ġempir":13722,"cessor":13723,"Ġwilling":13724,"ĠZwory":13725,"Ġattained":13726,"ĠáŁ£áŁ¦áŁ¨":13727,"ĠáŁ£áŁ¦áŁ¦":13728,"ĠáŁ£áŁ¦áŁ§":13729,"à¸±à¹Ī":13730,"Ġblog":13731,"180":13732,"ĠáŁ©áŁłáŁ§":13733,"attro":13734,"áŀ¯áŀĢáŀĩáŀĵ":13735,"ĠAlan":13736,"Äģs":13737,"ĠáŁ£áŁ¤áŁ©":13738,"iverse":13739,"ĠComte":13740,"Ġvaries":13741,"Ġvariations":13742,"ĠLaure":13743,"Ġaircraft":13744,"ĠáŁ£áŁ¨áŁ£":13745,"spot":13746,"Ġinterior":13747,"Ġinterests":13748,"Ġtheme":13749,"ĠáŁ£áŁ§áŁ¡":13750,"ruong":13751,"áŀĢáŀĩáŀĵáŀĶáŀĳ":13752,"à¹Ģà¸«":13753,"áŀĤáŀłáŀĴáŀĺ":13754,"Ġdecades":13755,"Ġdecisions":13756,"oults":13757,"Ġfounding":13758,"Ġfoundations":13759,"Ġobtain":13760,"Ġmode":13761,"Ġexpand":13762,"inson":13763,"ĠáŁ¤áŁ£áŁ¦":13764,"owned":13765,"Ġworkers":13766,"Ġfollowers":13767,"à¹Ħà¸¡":13768,"Ġmonarch":13769,"ĠáŁ¡áŁ¨áŁ¨áŁ¢":13770,"ĠáŁ¡áŁ¨áŁ¨áŁ¨":13771,"ĠáŁ¡áŁ¨áŁ¨áŁ©":13772,"Ġprogramm":13773,"Ġsupplies":13774,"Ġreduction":13775,"ĠLeon":13776,"ĠSpirit":13777,"Ġcoin":13778,"Ġimpact":13779,"ĠBeast":13780,"ĠBefore":13781,"ĠáŁ¢áŁ¥áŁłáŁ§":13782,"ĠáŁ¢áŁ¥áŁłáŁ©":13783,"ĠáŁ¤áŁ¨áŁ¤":13784,"Ġsurpr":13785,"Ġbroken":13786,"ĠRober":13787,"ĠáŁ©áŁ¤áŁ¡":13788,"laim":13789,"ĠGTO":13790,"ĠGTS":13791,"ĠáŁ¥áŁ¨áŁ¡":13792,"Ġ135":13793,"Ġcultures":13794,"Ġ1935":13795,"ĠáŁ¦áŁ£áŁ¥":13796,"ĠáŁ¡áŁ¨áŁ¥áŁ¡":13797,"ĠáŁ¡áŁ¨áŁ¥áŁ¨":13798,"Ġedits":13799,"Ġeditor":13800,"Ġrepublic":13801,"ĠáŁ©áŁ¢áŁ¡":13802,"áŀĵáŀĤáŀłáŀĶáŀı":13803,"Ġ1951":13804,"Ġcomplicated":13805,"ĠÃģ":13806,"ochinch":13807,"Ġdiscol":13808,"Ġ1982":13809,"Ġ1985":13810,"ĠáŁ©áŁ¥áŁ¡":13811,"Ġorganized":13812,"Ġorganization":13813,"Ġorganizations":13814,"ĠáŁ¡áŁ¨áŁłáŁ¤":13815,"Ã¨ne":13816,"Ġslavery":13817,"Ġartific":13818,"Ġartistic":13819,"Ġeternal":13820,"Ãłi":13821,"Ġcondemn":13822,"Ġlaterally":13823,"Ġ1947":13824,"ĠáŁ¦áŁ¨áŁ¡":13825,"Ġinsects":13826,"ĠSupp":13827,"lessness":13828,"áŀĢáŀ¢áŀļáŀİ":13829,"Ġevening":13830,"ĠGiÃ¡p":13831,"Ġdemocracy":13832,"Arm":13833,"ĠáŁ¡áŁ¨áŁ£áŁ¢":13834,"rising":13835,"Previous":13836,"ĠBlue":13837,"ĠDeath":13838,"Ġspeaking":13839,"Ġjustice":13840,"ĠWei":13841,"Ġvalues":13842,"Ã´n":13843,"ĠUNDP":13844,"Ġdepends":13845,"ridges":13846,"ĠáŁ¡áŁ§áŁ¥áŁ§":13847,"Ġmarks":13848,"Ġadministered":13849,"ĠMusÃ©e":13850,"rahok":13851,"ĠBarb":13852,"Ġlogical":13853,"Ġargues":13854,"United":13855,"Ġthinkers":13856,"Ġtrend":13857,"ermanent":13858,"ĠAngkor":13859,"Ġvisit":13860,"Ġmorph":13861,"Ġabsence":13862,"ä¸Ń":13863,"Ġpalab":13864,"Ġpaleness":13865,"Ġmulti":13866,"Ġassociation":13867,"Ġexperiences":13868,"áŁĴáŁĴáŁĭ":13869,"ĠáŀŁáŀļáŀĳáŀļáŀĬ":13870,"Ġreferendum":13871,"ĠDemon":13872,"ĠDemocracy":13873,"afe":13874,"INI":13875,"ĠFlag":13876,"white":13877,"while":13878,"Ġexecuted":13879,"Ġindustries":13880,"Ġcycles":13881,"ĠFranklin":13882,"Ġobservation":13883,"Ġphotography":13884,"going":13885,"Ġranked":13886,"Ġimprove":13887,"Ġepithel":13888,"orescent":13889,"ospital":13890,"sychology":13891,"Ġurates":13892,"Ġsanctuary":13893,"Ġpaid":13894,"Ġrequirements":13895,"Ġmerely":13896,"ococcus":13897,"Ã©nÃ©":13898,"Ġlaunch":13899,"Ġestablishing":13900,"Ġmathematic":13901,"Ġillust":13902,"ĠPyth":13903,"ĠPyongyang":13904,"ïģĮ":13905,"ĠâĢĺâĢĻ":13906,"ĠRussia":13907,"Plato":13908,"Ġruler":13909,"ĠGlobal":13910,"Ġaccounts":13911,"Ġcapture":13912,"Ġ250707":13913,"Ġhappens":13914,"Ġassumed":13915,"Ġabsolutely":13916,"zhou":13917,"ĠâĢĻâĢĻ":13918,"Ġbreath":13919,"Ġseeking":13920,"Ġreducing":13921,
[...]
